<pad>	0
<unk>	0
<s>	0
</s>	0
<extra_id_0>	0
<extra_id_1>	0
<extra_id_2>	0
<extra_id_3>	0
<extra_id_4>	0
<extra_id_5>	0
<extra_id_6>	0
<extra_id_7>	0
<extra_id_8>	0
<extra_id_9>	0
<extra_id_10>	0
<extra_id_11>	0
<extra_id_12>	0
<extra_id_13>	0
<extra_id_14>	0
<extra_id_15>	0
<extra_id_16>	0
<extra_id_17>	0
<extra_id_18>	0
<extra_id_19>	0
<extra_id_20>	0
<extra_id_21>	0
<extra_id_22>	0
<extra_id_23>	0
<extra_id_24>	0
<extra_id_25>	0
<extra_id_26>	0
<extra_id_27>	0
<extra_id_28>	0
<extra_id_29>	0
<extra_id_30>	0
<extra_id_31>	0
<extra_id_32>	0
<extra_id_33>	0
<extra_id_34>	0
<extra_id_35>	0
<extra_id_36>	0
<extra_id_37>	0
<extra_id_38>	0
<extra_id_39>	0
<extra_id_40>	0
<extra_id_41>	0
<extra_id_42>	0
<extra_id_43>	0
<extra_id_44>	0
<extra_id_45>	0
<extra_id_46>	0
<extra_id_47>	0
<extra_id_48>	0
<extra_id_49>	0
<extra_id_50>	0
<extra_id_51>	0
<extra_id_52>	0
<extra_id_53>	0
<extra_id_54>	0
<extra_id_55>	0
<extra_id_56>	0
<extra_id_57>	0
<extra_id_58>	0
<extra_id_59>	0
<extra_id_60>	0
<extra_id_61>	0
<extra_id_62>	0
<extra_id_63>	0
<extra_id_64>	0
<extra_id_65>	0
<extra_id_66>	0
<extra_id_67>	0
<extra_id_68>	0
<extra_id_69>	0
<extra_id_70>	0
<extra_id_71>	0
<extra_id_72>	0
<extra_id_73>	0
<extra_id_74>	0
<extra_id_75>	0
<extra_id_76>	0
<extra_id_77>	0
<extra_id_78>	0
<extra_id_79>	0
<extra_id_80>	0
<extra_id_81>	0
<extra_id_82>	0
<extra_id_83>	0
<extra_id_84>	0
<extra_id_85>	0
<extra_id_86>	0
<extra_id_87>	0
<extra_id_88>	0
<extra_id_89>	0
<extra_id_90>	0
<extra_id_91>	0
<extra_id_92>	0
<extra_id_93>	0
<extra_id_94>	0
<extra_id_95>	0
<extra_id_96>	0
<extra_id_97>	0
<extra_id_98>	0
<extra_id_99>	0
▁	-1.97686
.	-3.01224
(	-3.19016
,	-3.82799
)	-3.8284
▁{	-3.83256
▁}	-4.05284
▁=	-4.05905
);	-4.13934
_	-4.4404
;	-4.53703
▁(	-4.74269
s	-4.80208
	-4.84233
▁if	-4.84769
<	-4.96093
get	-5.06492
▁new	-5.09015
▁return	-5.09464
();	-5.16075
▁null	-5.17474
▁public	-5.24347
}	-5.24914
>	-5.26877
▁//	-5.44771
String	-5.46595
("	-5.46669
▁+	-5.4987
▁"	-5.52217
()	-5.60475
▁String	-5.69015
▁==	-5.71088
Exception	-5.77642
▁the	-5.97338
().	-5.98128
:	-6.00611
▁void	-6.04761
())	-6.05754
i	-6.07392
▁!=	-6.07737
▁int	-6.14733
▁final	-6.1493
());	-6.1623
▁this	-6.19079
if	-6.2056
▁for	-6.20934
▁else	-6.23058
(),	-6.23355
▁static	-6.25571
▁to	-6.25792
add	-6.26091
",	-6.26607
");	-6.26718
Type	-6.27261
return	-6.27603
▁@	-6.28965
[	-6.29112
▁e	-6.3051
▁i	-6.33838
set	-6.34089
int	-6.37386
▁throw	-6.41297
length	-6.46615
List	-6.47597
T	-6.48774
final	-6.50827
Name	-6.51755
[]	-6.53122
▁&&	-6.53779
this	-6.55204
▁throws	-6.56689
new	-6.59132
))	-6.59398
▁:	-6.61868
d	-6.64731
▁is	-6.69063
Override	-6.70456
▁catch	-6.71873
Id	-6.71995
append	-6.73959
));	-6.74979
m	-6.78716
2	-6.79567
▁try	-6.80883
e	-6.81464
is	-6.8188
▁a	-6.8205
Map	-6.84145
//	-6.84151
class	-6.84478
▁boolean	-6.85314
▁m	-6.86086
t	-6.86462
'	-6.88002
-	-6.89093
Request	-6.89497
n	-6.91394
▁private	-6.9196
Object	-6.92909
▁0;	-6.93243
▁result	-6.94042
Value	-6.94931
S	-6.9735
Class	-6.98962
ed	-6.99492
▁value	-7.00684
File	-7.01554
/	-7.04805
▁-	-7.06451
▁false	-7.07106
x	-7.08213
a	-7.0841
ing	-7.08765
name	-7.11437
r	-7.13021
size	-7.13606
▁true	-7.13627
Node	-7.14731
▁||	-7.15425
▁Object	-7.16532
c	-7.16731
1	-7.17625
▁in	-7.17804
▁(!	-7.18948
▁*	-7.19043
put	-7.19772
▁List	-7.201
]	-7.21735
▁0)	-7.2222
Data	-7.23044
equals	-7.24651
▁not	-7.25898
value	-7.26879
Path	-7.27013
"	-7.27642
Key	-7.27802
▁request	-7.28315
otocolMarshaller	-7.30649
toString	-7.31167
▁of	-7.32038
Info	-7.32229
To	-7.32346
▁be	-7.32622
Context	-7.34871
{	-7.35156
▁case	-7.35626
Index	-7.39599
D	-7.42329
key	-7.42509
f	-7.44134
▁?	-7.44259
g	-7.45881
▁pr	-7.46397
▁0	-7.47419
▁IOException	-7.47904
▁name	-7.48412
null	-7.48565
Set	-7.48749
p	-7.49732
▁and	-7.50185
type	-7.50284
▁instanceof	-7.50913
ID	-7.51475
++)	-7.52557
b	-7.53332
▁type	-7.53549
Element	-7.54847
marshall	-7.5582
y	-7.57155
getName	-7.58002
A	-7.58193
Config	-7.58294
▁set	-7.59084
3	-7.59097
Response	-7.59398
id	-7.60345
▁double	-7.60518
er	-7.61478
Entry	-7.61782
C	-7.62018
o	-7.6223
>>	-7.6432
Message	-7.64323
▁create	-7.64692
▁long	-7.64696
X	-7.64942
Builder	-7.65164
▁protected	-7.65357
for	-7.65552
Factory	-7.661
Field	-7.66345
create	-7.66408
▁key	-7.66931
")	-7.67398
I	-7.69491
rgumentException	-7.70168
v	-7.70419
▁p	-7.71169
L	-7.71665
Result	-7.71966
request	-7.72252
BINDING	-7.73291
▁we	-7.73487
E	-7.73769
State	-7.74315
▁it	-7.74427
=	-7.7552
Method	-7.76493
▁break	-7.76908
▁IllegalA	-7.77139
to	-7.78003
▁response	-7.78597
▁c	-7.78765
debug	-7.78959
Size	-7.79411
▁file	-7.79412
public	-7.79647
Configuration	-7.80786
j	-7.81195
Resource	-7.81288
▁list	-7.81782
Service	-7.81831
▁ArrayList	-7.82069
out	-7.82494
R	-7.82729
▁data	-7.82859
Count	-7.83909
];	-7.84882
▁while	-7.86662
F	-7.87066
index	-7.87622
Utils	-7.87704
next	-7.87891
throw	-7.88661
In	-7.89006
▁path	-7.89126
data	-7.90995
▁!	-7.91474
▁with	-7.91869
P	-7.92025
▁index	-7.9279
result	-7.9355
tc	-7.93588
Property	-7.93994
in	-7.94402
Manager	-7.94434
▁from	-7.95237
isEmpty	-7.95255
error	-7.95315
Constants	-7.96218
Event	-7.96458
▁byte	-7.97277
With	-7.97449
Handler	-7.9746
B	-7.98262
For	-7.98507
4	-7.99138
remove	-8.00447
Client	-8.00663
Async	-8.00743
ServiceResponse	-8.0133
▁b	-8.01365
V	-8.01602
Filter	-8.0162
▁j	-8.02009
▁start	-8.02054
getMessage	-8.02584
log	-8.02706
▁sb	-8.04058
Array	-8.04273
K	-8.04916
able	-8.05331
write	-8.07833
getValue	-8.0794
Page	-8.0796
O	-8.07965
Integer	-8.08394
Stream	-8.08497
case	-8.08623
Time	-8.09429
▁context	-8.10026
<?>	-8.10096
Properties	-8.10132
file	-8.10158
true	-8.10271
Table	-8.10441
Parameter	-8.10461
From	-8.10695
▁Map	-8.11017
Error	-8.11079
info	-8.1131
path	-8.1157
▁t	-8.11704
▁node	-8.11867
Cache	-8.12199
Query	-8.12333
format	-8.13084
k	-8.13134
▁System	-8.13536
▁+=	-8.13735
u	-8.1381
▁marshall	-8.13916
▁check	-8.13945
Util	-8.14404
▁field	-8.14493
Item	-8.1451
Enabled	-8.1479
Group	-8.15497
▁>=	-8.15541
▁out	-8.16026
Text	-8.16669
map	-8.17009
▁log	-8.17032
l	-8.17195
try	-8.17967
start	-8.1841
▁on	-8.19076
Status	-8.19159
▁extends	-8.19622
Connection	-8.2063
Impl	-8.20899
View	-8.21031
Model	-8.21109
long	-8.21245
▁method	-8.21913
Listener	-8.22588
byte	-8.22998
entry	-8.23045
▁that	-8.23108
▁r	-8.23214
NAME	-8.23553
substring	-8.23829
Invalid	-8.24113
▁ex	-8.24359
▁0,	-8.24403
▁->	-8.24409
Attribute	-8.2444
Token	-8.2454
▁current	-8.24566
Expression	-8.24611
▁input	-8.24696
▁entry	-8.24928
build	-8.25565
▁File	-8.25832
";	-8.25881
Instance	-8.26064
G	-8.26405
Number	-8.26631
Date	-8.27379
*	-8.27737
▁target	-8.27822
client	-8.28325
▁buffer	-8.28444
.");	-8.28689
Collection	-8.28925
▁message	-8.29172
close	-8.2953
▁tc	-8.29633
contains	-8.30023
input	-8.30299
w	-8.30431
▁end	-8.30779
0	-8.30882
h	-8.30951
▁Integer	-8.3098
node	-8.31457
Y	-8.31839
read	-8.32497
println	-8.32753
▁SdkClient	-8.32933
▁x	-8.32974
N	-8.33483
1,	-8.34088
"))	-8.34128
▁T	-8.34131
▁StringBuilder	-8.34649
Level	-8.34757
Code	-8.34864
▁n	-8.3527
Length	-8.35463
list	-8.35512
System	-8.35584
▁1)	-8.35754
U	-8.35924
>();	-8.35994
current	-8.36156
+	-8.36377
By	-8.36381
▁1;	-8.36415
Task	-8.36693
Url	-8.36946
User	-8.37143
▁service	-8.37396
double	-8.37609
▁read	-8.37694
▁Class	-8.37707
▁max	-8.37947
▁do	-8.37982
▁super	-8.3799
▁&	-8.38096
TYPE	-8.38152
And	-8.38301
Buffer	-8.38718
▁logger	-8.38926
▁default	-8.39166
Job	-8.39819
Content	-8.39895
▁update	-8.40084
Inner	-8.40359
Point	-8.40522
▁builder	-8.40638
()))	-8.4064
IOException	-8.40689
()));	-8.40773
▁id	-8.41016
Options	-8.4106
on	-8.41324
▁all	-8.4165
str	-8.41728
▁str	-8.42514
M	-8.42571
Version	-8.42878
Callback	-8.42953
▁source	-8.43006
▁object	-8.43525
▁<=	-8.44199
▁resource	-8.44663
▁I	-8.44713
<>();	-8.44754
Base	-8.45031
Session	-8.45155
Entity	-8.45339
▁synchronized	-8.45625
▁are	-8.46169
TracingEnabled	-8.46456
max	-8.46467
Source	-8.46476
▁as	-8.46597
isAny	-8.46746
Start	-8.47373
▁first	-8.47597
getClass	-8.47621
URL	-8.47865
or	-8.47868
▁*/	-8.47984
state	-8.48024
▁o	-8.48081
<?	-8.4861
▁state	-8.48718
context	-8.49013
H	-8.49264
Provider	-8.49391
Of	-8.49474
Action	-8.50087
Server	-8.50392
TraceComponent	-8.50585
Function	-8.50701
▁%	-8.50784
source	-8.51222
▁finally	-8.51451
stream	-8.51602
W	-8.51758
Image	-8.51777
▁has	-8.51817
InputStream	-8.51844
▁map	-8.51946
Operation	-8.51967
Writer	-8.52159
Pattern	-8.5234
▁an	-8.53057
util	-8.53422
▁|	-8.53503
service	-8.53592
Column	-8.53642
z	-8.53953
java	-8.5415
text	-8.54249
al	-8.54421
▁count	-8.54523
){	-8.55207
].	-8.55323
Offset	-8.55462
Execution	-8.5553
Component	-8.5563
msg	-8.55634
Dir	-8.56008
has	-8.56008
field	-8.56497
++;	-8.56625
Tree	-8.56928
URI	-8.57063
▁v	-8.57235
Iterator	-8.5728
Header	-8.573
▁ret	-8.57487
▁find	-8.57509
▁java	-8.57931
...	-8.5898
re	-8.58998
RuntimeException	-8.59093
from	-8.59202
▁or	-8.59249
Tag	-8.59847
buffer	-8.59968
else	-8.60002
▁config	-8.60143
getKey	-8.60149
▁element	-8.60175
▁LOG	-8.60208
▁query	-8.60253
▁last	-8.60273
isEntry	-8.60599
▁call	-8.60676
Long	-8.60823
▁have	-8.60945
Line	-8.61028
▁Observable	-8.61341
Container	-8.61738
response	-8.61782
Reader	-8.61834
Log	-8.62351
Unable	-8.62355
esourceGroupName	-8.624
resource	-8.62697
Package	-8.62727
Bean	-8.62785
Definition	-8.62803
\	-8.63151
▁parse	-8.63174
min	-8.6332
▁obj	-8.63358
Rule	-8.63422
Bytes	-8.63457
▁Math	-8.63472
▁values	-8.63623
▁offset	-8.63649
8	-8.63739
line	-8.63774
iterator	-8.64533
▁url	-8.64711
Types	-8.64835
of	-8.6532
▁f	-8.65465
config	-8.65798
Update	-8.66621
SuppressWarnings	-8.66859
▁must	-8.66935
logger	-8.66949
end	-8.67295
Mode	-8.6732
query	-8.6775
target	-8.68231
pos	-8.68265
▁parent	-8.68362
hasNext	-8.68374
Block	-8.68586
▁Set	-8.68683
message	-8.68811
▁write	-8.68987
Row	-8.69094
Reference	-8.69131
update	-8.69486
Helper	-8.69567
false	-8.69572
▁re	-8.69962
?	-8.70038
▁next	-8.70086
Values	-8.70217
Record	-8.70903
Channel	-8.70971
End	-8.71056
table	-8.7118
▁argument	-8.71356
Position	-8.71529
▁cannot	-8.71603
ly	-8.71974
▁can	-8.72223
Ref	-8.72285
event	-8.72472
body	-8.72564
boolean	-8.7267
valueOf	-8.72845
url	-8.72852
▁no	-8.72954
Registry	-8.72991
▁array	-8.72997
Document	-8.73249
ch	-8.73268
Str	-8.73297
<>(	-8.73405
J	-8.73492
▁com	-8.73728
as	-8.74048
On	-8.74061
▁by	-8.74088
(0,	-8.74105
▁event	-8.74499
indexOf	-8.74586
▁output	-8.74842
▁y	-8.74905
Annotation	-8.74946
Metadata	-8.75133
Location	-8.75163
Command	-8.75262
No	-8.75268
KEY	-8.7539
method	-8.75877
▁params	-8.75955
▁found	-8.75963
▁'	-8.76286
▁other	-8.76531
Or	-8.77021
object	-8.7705
obj	-8.7733
▁user	-8.7739
Double	-8.77422
▁session	-8.77578
▁before	-8.77614
▁args	-8.77967
exit	-8.78237
Parameters	-8.78377
Template	-8.78382
Descriptor	-8.78633
Messages	-8.78663
▁Tr	-8.78697
▁/*	-8.79096
it	-8.79193
getType	-8.79389
▁/	-8.79478
isDebugEnabled	-8.79524
▁property	-8.7965
▁line	-8.79798
clear	-8.79822
getId	-8.79975
with	-8.80214
▁buf	-8.80399
▁HashMap	-8.80401
▁text	-8.8082
Get	-8.80989
offset	-8.81094
▁float	-8.81741
▁JSON	-8.81777
values	-8.81792
All	-8.81827
Queue	-8.81958
▁will	-8.81999
1.	-8.82
▁old	-8.82053
Input	-8.82092
▁remove	-8.82114
OutputStream	-8.82149
Range	-8.82348
getInstance	-8.82422
Address	-8.82735
▁row	-8.83141
Int	-8.84105
count	-8.84415
▁required	-8.8453
▁connection	-8.8483
▁size	-8.85016
▁sub	-8.85041
64	-8.85083
VALUE	-8.85122
▁so	-8.85251
parent	-8.85697
getProperty	-8.85728
EClass	-8.8579
▁SibTr	-8.85857
▁char	-8.85905
user	-8.86083
▁filter	-8.86308
(@	-8.86419
es	-8.86477
@	-8.86772
[0]	-8.87249
Read	-8.8725
filter	-8.87383
▁one	-8.87663
5	-8.87748
▁val	-8.87826
▁k	-8.87889
Names	-8.87922
group	-8.88028
▁min	-8.88083
Boolean	-8.88356
Link	-8.8844
Parser	-8.88445
▁use	-8.89225
▁writer	-8.89467
The	-8.89945
break	-8.90162
charAt	-8.9021
Format	-8.90222
▁content	-8.90342
Policy	-8.90473
▁len	-8.90582
Option	-8.90627
Lock	-8.9085
delete	-8.91024
▁should	-8.912
Access	-8.91305
▁1);	-8.91439
Target	-8.91459
Call	-8.91625
6	-8.91725
LA	-8.91886
Transaction	-8.91983
▁client	-8.92052
▁parameters	-8.92134
Param	-8.92411
Throwable	-8.92422
▁exception	-8.92462
▁time	-8.92592
▁l	-8.92735
startsWith	-8.92851
▁properties	-8.92861
Nullable	-8.92886
▁passed	-8.92974
internal	-8.93066
▁continue	-8.93218
▁clazz	-8.93473
▁process	-8.93608
▁msg	-8.93784
Application	-8.93851
warn	-8.93958
▁token	-8.94415
LOG	-8.9448
Mapping	-8.95026
▁V	-8.9513
Output	-8.95257
2,	-8.954
q	-8.95554
▁Long	-8.95646
▁root	-8.95833
▁Boolean	-8.95905
▁cache	-8.96674
Width	-8.96708
addAll	-8.96776
Thread	-8.96891
▁instance	-8.97091
Label	-8.97609
Schema	-8.97717
session	-8.98187
="	-8.98435
sb	-8.98604
Params	-8.98735
find	-8.99253
Json	-8.99366
▁error	-8.99465
parse	-8.99576
unchecked	-8.99717
check	-8.99739
▁If	-8.99863
split	-8.99879
▁string	-8.999
First	-9.00164
▁IllegalState	-9.00377
default	-9.0043
▁1	-9.00603
trim	-9.00642
com	-9.00775
Cms	-9.00788
args	-9.01109
(...)	-9.01109
▁Pr	-9.01282
▁only	-9.01321
▁model	-9.01332
Directory	-9.01791
Color	-9.02074
10	-9.02626
▁delete	-9.02693
▁version	-9.02839
▁task	-9.03119
▁h	-9.03126
at	-9.03132
DEFAULT	-9.03144
▁src	-9.03524
▁switch	-9.03549
▁was	-9.03553
org	-9.03563
Delete	-9.0379
▁item	-9.03839
▁already	-9.04418
▁num	-9.04665
2);	-9.04782
Pos	-9.04875
Sub	-9.0491
Char	-9.04932
If	-9.0496
array	-9.04989
Fields	-9.05177
▁table	-9.05245
Wrapper	-9.05494
Scope	-9.05598
Attributes	-9.05611
Root	-9.05676
Style	-9.05742
▁Double	-9.05793
ex	-9.06283
").	-9.06387
%	-9.06405
▁code	-9.06635
Calendar	-9.06735
code	-9.06778
element	-9.0691
Default	-9.07078
▁dest	-9.07213
Failed	-9.07398
"));	-9.07425
Xml	-9.07495
▁base	-9.07611
Store	-9.08168
▁run	-9.08193
root	-9.08261
xml	-9.08584
▁w	-9.08615
Files	-9.09115
last	-9.09118
float	-9.0921
Def	-9.0926
Prefix	-9.09321
ED	-9.09902
As	-9.09903
Settings	-9.10109
Keys	-9.10148
Project	-9.10252
Future	-9.10254
▁pos	-9.10296
▁child	-9.10651
char	-9.10651
Certificate	-9.10679
time	-9.10737
Doc	-9.10864
builder	-9.10902
buf	-9.1092
7	-9.10989
token	-9.11117
▁options	-9.1122
base	-9.11268
▁at	-9.1134
▁need	-9.11383
(0);	-9.11527
load	-9.11586
Local	-9.11587
2.	-9.11858
Ids	-9.11879
▁-1)	-9.12289
▁LOGGER	-9.12366
Locale	-9.12383
instance	-9.12628
▁Collection	-9.12648
▁'"	-9.12657
item	-9.1273
▁bytes	-9.1277
Vector	-9.12851
Check	-9.13062
▁entity	-9.13275
num	-9.13358
position	-9.13365
src	-9.13392
containsKey	-9.13631
model	-9.13723
▁assert	-9.13786
2)	-9.1412
▁Cms	-9.14308
==	-9.1434
▁-1;	-9.14633
val	-9.14876
Variable	-9.15036
replace	-9.15322
Statement	-9.15335
▁server	-9.15497
▁{}",	-9.15551
Internal	-9.15699
▁res	-9.1574
sub	-9.15789
▁configuration	-9.15931
first	-9.1595
▁job	-9.16025
▁build	-9.16142
err	-9.16234
At	-9.16372
IN	-9.1642
Matrix	-9.16489
▁but	-9.16493
32	-9.16617
Pool	-9.16819
equalsIgnoreCase	-9.16962
Interface	-9.17122
INSTANCE	-9.17228
▁handle	-9.17755
lock	-9.1795
Converter	-9.18073
▁match	-9.18089
clazz	-9.18348
execute	-9.18634
width	-9.18985
▁stream	-9.19074
trace	-9.19086
Not	-9.19283
Description	-9.19324
MAX	-9.19634
sql	-9.19643
Process	-9.20176
Button	-9.20216
Enum	-9.20405
Match	-9.20508
ion	-9.20974
print	-9.21313
entrySet	-9.21465
▁un	-9.21476
channel	-9.21745
▁date	-9.21935
Resources	-9.22048
▁reader	-9.22123
▁any	-9.22174
▁Collections	-9.22334
output	-9.22386
Un	-9.22493
Adapter	-9.22555
Byte	-9.23022
Write	-9.23051
::	-9.23054
▁image	-9.23157
ArrayList	-9.23397
▁format	-9.23442
▁local	-9.23524
init	-9.23542
server	-9.2384
▁block	-9.24021
▁column	-9.24328
len	-9.24479
Proxy	-9.24537
ll	-9.24562
Bundle	-9.24604
no	-9.24714
▁number	-9.24924
▁init	-9.24945
▁tmp	-9.25002
Len	-9.25041
▁header	-9.25118
Z	-9.25208
SIZE	-9.25359
▁attribute	-9.25367
Segment	-9.25526
property	-9.25603
SQL	-9.2582
Unit	-9.25939
while	-9.2636
>()	-9.26408
api	-9.26425
Parent	-9.26495
▁listener	-9.26581
\"	-9.26646
string	-9.26689
matcher	-9.26712
▁load	-9.26719
Consumer	-9.26971
Port	-9.27125
▁group	-9.27174
XML	-9.27185
properties	-9.27193
Handle	-9.27317
New	-9.27431
ERROR	-9.27591
exists	-9.27624
Nonnull	-9.27775
getString	-9.27815
st	-9.27863
Math	-9.28327
▁C	-9.28347
Feature	-9.2836
Out	-9.28377
▁uri	-9.28431
Search	-9.28481
Logger	-9.2888
▁parameter	-9.28909
Notification	-9.28992
an	-9.29369
open	-9.29487
▁Optional	-9.29556
register	-9.29801
Frame	-9.29854
Hash	-9.30181
row	-9.30249
do	-9.30292
▁arg	-9.30299
▁copy	-9.30658
tag	-9.3085
Uri	-9.30854
".	-9.31011
▁then	-9.31477
cache	-9.31673
status	-9.31695
rderByComparator	-9.31978
NO	-9.3215
▁component	-9.32201
(!	-9.32311
NonNull	-9.3238
Module	-9.32393
Part	-9.32503
date	-9.32512
Create	-9.32549
Interval	-9.32645
ClassLoader	-9.32678
th	-9.32716
content	-9.32747
▁command	-9.32862
Next	-9.33133
un	-9.33235
▁page	-9.33394
▁left	-9.33651
ation	-9.33716
▁execute	-9.33775
▁<<	-9.33807
▁Get	-9.33868
Height	-9.34035
binding	-9.34138
Sequence	-9.34252
connection	-9.34488
▁status	-9.34589
http	-9.3462
rs	-9.34665
Counter	-9.34863
▁empty	-9.34876
GET	-9.34999
task	-9.35137
lang	-9.35161
Void	-9.35238
json	-9.3538
other	-9.355
▁J	-9.35654
Processor	-9.35815
Api	-9.36392
newInstance	-9.36731
Stack	-9.36751
db	-9.36768
Order	-9.36805
ClassName	-9.36817
resources	-9.36863
validate	-9.36953
ele	-9.37014
▁point	-9.37048
]);	-9.37181
▁there	-9.372
▁sql	-9.3728
en	-9.37328
Elements	-9.3734
▁record	-9.3758
Num	-9.37652
Control	-9.37924
Identifier	-9.37966
UTF	-9.3821
▁HashSet	-9.38217
[1]	-9.38331
switch	-9.38342
▁total	-9.38446
Obj	-9.38645
Executor	-9.38721
entity	-9.38836
App	-9.38906
▁callback	-9.38911
▁handler	-9.38953
DB	-9.38971
Var	-9.39012
old	-9.39043
uri	-9.39089
invoke	-9.39141
!	-9.39163
▁when	-9.39172
Http	-9.39258
Timeout	-9.39306
Change	-9.39334
("\	-9.39354
idx	-9.39429
Generator	-9.39715
Graph	-9.39796
Extension	-9.39959
Headers	-9.39973
▁does	-9.39982
StringUtils	-9.40257
▁json	-9.40332
exception	-9.40384
Re	-9.40585
Spec	-9.4066
Pair	-9.40865
▁search	-9.41469
▁now	-9.41469
getPath	-9.41497
▁param	-9.41673
12	-9.41697
▁up	-9.41832
▁fields	-9.41976
▁Iterator	-9.42003
▁view	-9.42125
Chain	-9.42151
action	-9.42167
▁tag	-9.42284
image	-9.42293
▁++	-9.425
pli	-9.42673
\\	-9.42941
▁StringBuffer	-9.43214
Cluster	-9.43268
Character	-9.43375
Script	-9.4338
matches	-9.43494
▁A	-9.4353
ar	-9.43535
Cell	-9.43614
▁right	-9.43658
NOT	-9.43671
Repository	-9.43877
▁convert	-9.43936
Host	-9.44183
Copy	-9.44193
▁width	-9.44258
▁resources	-9.44428
++	-9.44439
res	-9.44524
Activity	-9.44562
writer	-9.44709
ic	-9.44886
getParent	-9.44955
Summary	-9.45035
options	-9.45254
param	-9.45261
Panel	-9.45309
Form	-9.4539
▁0);	-9.45578
Sql	-9.457
ur	-9.45754
os	-9.45851
11	-9.46069
Optional	-9.46114
version	-9.46561
all	-9.46589
Args	-9.4662
label	-9.4663
▁The	-9.46631
Java	-9.46675
Folder	-9.46733
▁locale	-9.46923
▁thread	-9.46931
1)	-9.46972
Idx	-9.46975
▁Func	-9.47161
Msg	-9.47216
process	-9.473
child	-9.47399
ref	-9.47411
Matcher	-9.47504
record	-9.47579
header	-9.47608
ER	-9.47649
▁"";	-9.47716
el	-9.47731
Batch	-9.47757
▁E	-9.47797
Val	-9.47875
▁been	-9.47935
sRequest	-9.48065
▁This	-9.48072
Max	-9.48187
Layout	-9.4872
StringBuilder	-9.48728
▁lock	-9.48793
Auth	-9.48843
▁temp	-9.49046
Tags	-9.49152
Mapper	-9.49201
bytes	-9.49239
Condition	-9.49254
▁q	-9.49393
▁pattern	-9.49577
page	-9.49592
Child	-9.49697
1<	-9.49783
▁make	-9.50236
match	-9.50276
apply	-9.50396
catch	-9.5041
Last	-9.50421
left	-9.50536
ING	-9.50686
tree	-9.50766
▁rule	-9.50794
20	-9.50846
Validation	-9.51013
Null	-9.51095
▁which	-9.51131
Flow	-9.51237
▁order	-9.51385
RE	-9.51388
)));	-9.51417
Destination	-9.51553
call	-9.51575
Device	-9.5158
throws	-9.51586
Resolver	-9.51608
00	-9.51716
Select	-9.51772
FILE	-9.51941
Endpoint	-9.52147
job	-9.52177
Metric	-9.52226
▁prefix	-9.52381
!=	-9.52459
▁R	-9.52478
getField	-9.52595
▁action	-9.53023
0,	-9.5316
Entries	-9.53247
▁after	-9.53284
empty	-9.53326
UUID	-9.53338
(1);	-9.53585
▁height	-9.53767
▁req	-9.53818
toArray	-9.53932
▁ref	-9.53979
prefix	-9.54043
container	-9.54066
▁We	-9.54082
NotNull	-9.54109
▁ch	-9.54212
failed	-9.54219
Database	-9.54419
Argument	-9.54481
notNull	-9.54613
handle	-9.5473
▁non	-9.54798
featureID	-9.54925
▁function	-9.55156
Is	-9.55305
▁position	-9.55536
us	-9.55653
view	-9.55697
arg	-9.55819
▁register	-9.55891
=0;	-9.55955
Password	-9.55962
▁"+	-9.56309
Body	-9.56433
ip	-9.56636
super	-9.56799
Abstract	-9.56818
Role	-9.56952
sort	-9.56991
▁"'	-9.57002
Ifc	-9.57177
keySet	-9.57223
/{	-9.57384
local	-9.57392
Dialog	-9.574
io	-9.57412
Edge	-9.57423
▁valid	-9.57467
▁"/	-9.57572
▁send	-9.57578
Classes	-9.5763
Limit	-9.57802
printStackTrace	-9.57812
Member	-9.57819
NON	-9.57831
Protocol	-9.57943
Strategy	-9.58021
Nodes	-9.5818
▁container	-9.58193
height	-9.58449
▁Date	-9.58496
▁props	-9.58536
op	-9.58649
▁db	-9.58714
++]	-9.58758
policy	-9.59136
host	-9.59278
Db	-9.59427
▁TODO	-9.59503
dir	-9.5957
16	-9.59596
getAttribute	-9.59804
Cannot	-9.59888
▁generate	-9.59915
Current	-9.60441
▁URL	-9.60526
Only	-9.60562
urrentTimeMillis	-9.60769
link	-9.60807
▁resolve	-9.60942
up	-9.61071
▁provider	-9.61083
▁same	-9.61163
Stats	-9.61226
▁ServiceFuture	-9.61287
Term	-9.61288
right	-9.61376
qPath	-9.61388
the	-9.61497
▁host	-9.61554
▁bean	-9.61574
▁attributes	-9.61592
Network	-9.61695
Q	-9.61821
▁directory	-9.61851
Report	-9.6194
Constructor	-9.62006
Add	-9.6202
column	-9.62049
▁files	-9.62116
bPackage	-9.62159
JSON	-9.62294
▁may	-9.62477
Per	-9.62523
+"	-9.6258
google	-9.62642
▁than	-9.62644
Constant	-9.62838
▁defaultValue	-9.62879
▁ignore	-9.62933
▁ctx	-9.62939
getDefault	-9.63024
Meta	-9.63062
generate	-9.63235
main	-9.63278
Predicate	-9.63441
Environment	-9.63538
Remote	-9.63695
TIME	-9.63719
Authentication	-9.6411
iv	-9.64205
params	-9.64391
[0];	-9.64426
Storage	-9.6452
amazonaws	-9.64599
▁col	-9.64672
Loader	-9.64761
ifc	-9.64802
▁results	-9.64878
ms	-9.65122
Results	-9.65135
LOGGER	-9.65137
TAG	-9.65419
▁validate	-9.65424
arraycopy	-9.65492
Listeners	-9.65512
▁hash	-9.65545
Step	-9.65639
Html	-9.65769
▁Arrays	-9.65786
Details	-9.65801
▁destination	-9.65858
▁here	-9.65928
▁don	-9.66232
Multi	-9.66246
▁Thread	-9.66304
component	-9.66326
le	-9.6635
Left	-9.66506
Bounds	-9.66971
▁expected	-9.67029
block	-9.67046
Web	-9.6705
▁channel	-9.67358
▁label	-9.67362
Symbol	-9.67405
▁future	-9.6742
Groups	-9.67459
DATA	-9.6751
getCurrent	-9.67561
After	-9.67721
TO	-9.67946
toLowerCase	-9.67951
Timestamp	-9.67968
Open	-9.67978
Region	-9.68117
Namespace	-9.68163
▁Af	-9.68229
attribute	-9.68349
configuration	-9.68513
limit	-9.68545
asList	-9.68639
Atom	-9.688
parseInt	-9.68907
▁into	-9.68971
est	-9.69039
endsWith	-9.69084
▁Create	-9.692
▁original	-9.69306
▁scope	-9.69334
▁used	-9.69367
▁annotation	-9.69377
Test	-9.69472
getSimpleName	-9.69604
▁factory	-9.69677
Binary	-9.69761
VERSION	-9.6978
▁SQLException	-9.69837
Plugin	-9.69845
1);	-9.69882
cms	-9.70045
copy	-9.70075
Distance	-9.70227
Box	-9.70239
CLASS	-9.70531
encode	-9.70592
▁resp	-9.70609
Geometry	-9.70705
!");	-9.70888
SdkInternal	-9.70945
Word	-9.71129
▁limit	-9.7113
req	-9.71174
▁iter	-9.71256
][	-9.71412
▁bundle	-9.71725
Engine	-9.71817
port	-9.71854
run	-9.71919
Run	-9.71933
▁1,	-9.71957
▁methodName	-9.72007
Tuple	-9.72111
--;	-9.72155
Window	-9.72276
Bits	-9.72366
▁because	-9.72399
Security	-9.72559
▁keys	-9.72651
select	-9.72818
Return	-9.73009
Op	-9.73117
address	-9.73121
▁stop	-9.73312
Encoding	-9.73345
▁conn	-9.73617
▁document	-9.73665
EMPTY	-9.7379
isAssignableFrom	-9.7379
▁just	-9.73808
▁Abstract	-9.73944
▁port	-9.73954
Missing	-9.74038
DateTime	-9.7404
▁store	-9.74167
Blocking	-9.74255
▁address	-9.7438
ad	-9.74394
▁InputStream	-9.74463
STRING	-9.74518
Menu	-9.74638
PROPERTY	-9.75
▁1]	-9.7503
convert	-9.75039
$	-9.75056
Duration	-9.75112
▁more	-9.75146
getResource	-9.75159
Tile	-9.75247
▁className	-9.75367
Partition	-9.75451
te	-9.75455
nitro	-9.75734
NLS	-9.75757
Arg	-9.758
Identity	-9.75904
▁2)	-9.76159
▁failed	-9.76219
Operator	-9.7622
alt	-9.76286
Controller	-9.76322
ALL	-9.76552
single	-9.7657
Items	-9.76644
▁elements	-9.76658
Category	-9.76684
me	-9.76705
▁close	-9.76769
_0	-9.76775
className	-9.76778
▁reference	-9.76816
▁queue	-9.76833
MIN	-9.76912
://	-9.77128
:"	-9.77282
Account	-9.77306
Snapshot	-9.77319
getNext	-9.77393
Domain	-9.7753
▁template	-9.77648
Space	-9.7766
Selector	-9.77662
attr	-9.77734
getE	-9.78059
namespace	-9.78168
▁NoSuch	-9.78227
>>>	-9.78446
Load	-9.78487
MetaData	-9.78611
Serializer	-9.78637
Holder	-9.7887
ByteBuffer	-9.78919
▁cause	-9.79033
listener	-9.79171
▁test	-9.79201
Algorithm	-9.7923
getData	-9.79294
▁pre	-9.79342
▁timeout	-9.79395
Validator	-9.79481
IS	-9.79884
▁expression	-9.79902
clone	-9.7999
requireNonNull	-9.80003
Runtime	-9.80091
Signature	-9.80107
▁each	-9.80399
▁operation	-9.80466
ac	-9.8047
▁ByteArray	-9.80499
stop	-9.80504
Post	-9.80613
API	-9.80624
Permission	-9.80674
Arrays	-9.80742
transform	-9.80758
▁Check	-9.80766
and	-9.80903
pe	-9.80941
Attr	-9.81066
▁serviceName	-9.81071
Pre	-9.81102
Non	-9.81132
collect	-9.81151
▁fileName	-9.81177
':	-9.81276
Memory	-9.81414
▁module	-9.81426
▁B	-9.81488
Vertex	-9.81524
Tokens	-9.81541
SET	-9.81598
▁DB	-9.81644
send	-9.81739
Required	-9.8208
▁location	-9.8225
▁existing	-9.82309
PREFIX	-9.82332
9	-9.82335
ret	-9.82369
getBytes	-9.82372
command	-9.82459
Binding	-9.82619
Float	-9.82622
getMax	-9.82659
▁app	-9.82758
Import	-9.82911
reader	-9.82924
col	-9.82941
iter	-9.82949
Scale	-9.82973
number	-9.83028
Interrupted	-9.83033
Usage	-9.83091
setValue	-9.83175
▁dir	-9.83283
Desc	-9.83317
Close	-9.83362
hash	-9.83366
app	-9.83564
▁collection	-9.83603
Before	-9.83646
search	-9.83789
Case	-9.83842
point	-9.83951
net	-9.83963
▁option	-9.83987
▁skip	-9.84002
▁"/"	-9.84019
Simple	-9.84066
Layer	-9.84178
validator	-9.84179
Build	-9.84214
Failure	-9.8425
IO	-9.8427
FIELD	-9.84352
Could	-9.84418
Media	-9.84502
▁statement	-9.84549
▁compute	-9.84703
END	-9.84721
▁change	-9.84766
<?>>	-9.84783
accept	-9.84848
This	-9.85218
Flag	-9.85246
Dependency	-9.85253
OR	-9.85313
[])	-9.8551
▁project	-9.85513
Metrics	-9.85523
commerce	-9.85537
One	-9.85573
18	-9.85598
Constraint	-9.8563
//$	-9.85653
tmp	-9.857
POST	-9.85788
Comment	-9.85847
▁work	-9.85866
NotFound	-9.85872
▁schema	-9.85887
report	-9.86027
ns	-9.86046
FileName	-9.86181
insert	-9.86292
HttpRequest	-9.86485
form	-9.86537
push	-9.86611
forEach	-9.86627
▁style	-9.86643
▁include	-9.86714
de	-9.86734
annotation	-9.86747
ctx	-9.86774
Expr	-9.86789
▁level	-9.86857
Work	-9.86899
OF	-9.86901
order	-9.86902
doc	-9.87097
||	-9.87465
▁info	-9.87613
application	-9.87644
setProperty	-9.87678
level	-9.87741
▁range	-9.87748
[2]	-9.87781
Custom	-9.87867
Changed	-9.87873
Transport	-9.87916
FOLLOW	-9.87988
START	-9.88023
getTime	-9.88135
reset	-9.88136
ec	-9.88138
▁doc	-9.88191
Icon	-9.88306
flush	-9.88309
De	-9.8838
tr	-9.88452
conf	-9.88464
Right	-9.88469
Columns	-9.88557
use	-9.88562
DataSource	-9.88572
Artifact	-9.88616
ts	-9.88676
▁P	-9.88698
compareTo	-9.88931
▁remote	-9.89019
▁idx	-9.89044
Socket	-9.89069
am	-9.89093
Progress	-9.89296
Common	-9.89309
Kind	-9.89394
▁password	-9.89507
▁org	-9.89576
▁previous	-9.89594
Join	-9.89598
')	-9.8969
project	-9.8979
abs	-9.89888
Single	-9.89893
getMethod	-9.89897
Span	-9.90028
▁tree	-9.90038
li	-9.90056
join	-9.90119
[]{	-9.90321
axis	-9.90571
▁parser	-9.90735
-1$	-9.90806
document	-9.90942
Intent	-9.91097
▁encoding	-9.91355
Subscription	-9.91383
Sort	-9.91437
-=	-9.91469
▁metadata	-9.91511
▁using	-9.9154
▁extract	-9.91612
PATH	-9.91613
▁initialize	-9.91878
Score	-9.91921
Empty	-9.91951
/*	-9.92126
Col	-9.92149
▁cluster	-9.92165
Selection	-9.92183
Screen	-9.92331
ps	-9.92338
SQLException	-9.92596
▁mapping	-9.92639
expression	-9.92757
Formatter	-9.92986
getAbsolutePath	-9.93121
box	-9.93212
ws	-9.93236
word	-9.93283
sum	-9.93302
▁link	-9.93327
▁application	-9.9337
Collector	-9.93377
NULL	-9.93459
active	-9.93467
gen	-9.93515
Servlet	-9.93562
▁report	-9.93596
Global	-9.93658
▁entries	-9.93681
▁print	-9.93879
▁loop	-9.93914
sTo	-9.94228
Methods	-9.94273
▁sure	-9.94287
▁save	-9.94326
----------------	-9.94358
Profile	-9.94438
title	-9.94659
▁arguments	-9.94836
▁database	-9.9484
▁short	-9.94883
Ex	-9.94943
OK	-9.94962
location	-9.95093
DATE	-9.95187
100	-9.95228
locale	-9.95305
▁N	-9.9538
nextPageLink	-9.9539
TABLE	-9.95526
pattern	-9.95541
getRequest	-9.9555
types	-9.95934
Relation	-9.95953
▁prev	-9.95958
▁step	-9.96012
Bucket	-9.96092
Product	-9.96321
▁insert	-9.96392
▁de	-9.96405
Put	-9.96408
▁unit	-9.96428
▁segment	-9.96467
Area	-9.96488
▁split	-9.96551
▁second	-9.96576
▁ele	-9.96643
Fragment	-9.96677
Declaration	-9.96904
ate	-9.96939
Factor	-9.96955
IP	-9.97012
schema	-9.97246
resolve	-9.97251
getX	-9.97278
▁Vector	-9.97284
▁transaction	-9.97317
▁extension	-9.97318
cluster	-9.97339
▁off	-9.97396
USER	-9.97468
▁scale	-9.97533
post	-9.97675
▁constructor	-9.97765
Short	-9.9778
▁names	-9.97802
av	-9.97827
History	-9.97845
&&	-9.97878
pc	-9.97978
Topic	-9.97986
INT	-9.98011
reference	-9.98106
ce	-9.98147
scope	-9.98212
EPackage	-9.98218
rule	-9.9838
Transform	-9.98424
Recognition	-9.9851
uuid	-9.98567
▁batch	-9.98666
ToString	-9.98684
Principal	-9.98766
replaceAll	-9.98857
])	-9.98872
eNS	-9.98889
▁["	-9.98943
Sync	-9.98965
▁Http	-9.98967
▁stack	-9.98972
Up	-9.99038
Route	-9.99125
▁description	-9.9924
▁-1	-9.99247
getUser	-9.99288
getObject	-9.99361
Cookie	-9.9944
Generic	-9.99534
handler	-9.99562
▁z	-9.99573
▁matcher	-9.99661
▁headers	-9.99683
13	-9.99814
Period	-9.99866
Information	-10.0001
LENGTH	-10.0006
▁exist	-10.0007
store	-10.001
HTTP	-10.0019
▁types	-10.0038
▁stmt	-10.0041
td	-10.0055
unit	-10.0055
Rules	-10.0068
Delegate	-10.0069
temp	-10.0071
Min	-10.0083
password	-10.0088
Specification	-10.0098
TOKEN	-10.0101
▁actual	-10.0116
Widget	-10.0118
getInt	-10.0141
▁available	-10.0153
timeout	-10.0155
ap	-10.0157
ids	-10.0166
unlock	-10.0169
var	-10.0169
Stop	-10.0173
Found	-10.0175
▁cl	-10.0184
▁since	-10.0186
Props	-10.0193
▁mode	-10.0199
Credentials	-10.0203
one	-10.0203
▁apply	-10.0217
▁H	-10.0225
▁JSONObject	-10.0226
▁feature	-10.0226
Unknown	-10.0227
Direction	-10.0229
▁cmd	-10.0231
Variables	-10.0233
script	-10.0243
Transition	-10.0247
xFF	-10.0255
15	-10.0258
cm	-10.0261
getContext	-10.0268
newBuilder	-10.0272
UN	-10.0279
operation	-10.0288
Deprecated	-10.0292
getEPackage	-10.0296
▁could	-10.0298
make	-10.0303
bean	-10.0307
Support	-10.0314
▁items	-10.0319
▁top	-10.0323
▁post	-10.0336
Res	-10.0349
HttpServlet	-10.0352
▁merge	-10.0354
ent	-10.0357
resp	-10.0376
Remove	-10.0381
▁begin	-10.0383
Classifiers	-10.0393
Grid	-10.0394
fs	-10.0417
rows	-10.0418
▁nodes	-10.0421
|	-10.0427
Timer	-10.0432
▁prop	-10.0443
2;	-10.0448
head	-10.0453
Section	-10.0454
Buf	-10.0455
Invocation	-10.046
off	-10.0478
getAnnotation	-10.048
im	-10.0485
Day	-10.0488
Rate	-10.0497
not	-10.05
▁random	-10.0507
Shape	-10.0516
#	-10.0518
ON	-10.052
▁open	-10.0544
total	-10.0553
Core	-10.0555
▁frame	-10.0556
▁iterator	-10.057
compile	-10.0576
▁conf	-10.0577
counter	-10.0588
▁Throwable	-10.0589
ResponseBody	-10.0597
▁select	-10.0601
▁rs	-10.0618
▁NullPointer	-10.062
UI	-10.063
cast	-10.0653
cp	-10.066
Commerce	-10.0669
▁columns	-10.0672
3,	-10.0673
Rest	-10.068
html	-10.0681
jcasType	-10.0682
▁TimeUnit	-10.0692
apiVersion	-10.0725
Iterable	-10.0726
Font	-10.0729
Describe	-10.0737
Auto	-10.0737
SI	-10.0738
▁1.0	-10.0753
env	-10.0754
▁methods	-10.0757
Title	-10.0763
Annotations	-10.0775
▁2;	-10.0777
getText	-10.0796
CODE	-10.0815
▁Iterable	-10.0818
▁Default	-10.0818
▁specified	-10.0847
Co	-10.0849
core	-10.0852
IllegalAccess	-10.0856
▁show	-10.0858
(1)	-10.0858
Chunk	-10.0862
serviceName	-10.0863
▁done	-10.0876
Trigger	-10.0886
cs	-10.0897
}/	-10.0899
▁ByteBuffer	-10.091
01	-10.0913
▁xml	-10.0915
▁allow	-10.092
Cursor	-10.0923
Supplier	-10.0923
▁Preconditions	-10.0938
▁Add	-10.0941
--	-10.0945
compare	-10.0945
member	-10.0948
COLUMN	-10.0958
PARAM	-10.0958
LIST	-10.0958
(0)	-10.0961
▁atom	-10.0962
getParameter	-10.0968
Alias	-10.0991
mode	-10.0993
▁reset	-10.0996
▁HttpServlet	-10.0997
Managed	-10.1008
Registration	-10.1022
segment	-10.1028
Be	-10.1033
Prop	-10.104
▁access	-10.104
Persistence	-10.1051
Archive	-10.1061
▁transform	-10.1064
em	-10.1066
lastIndexOf	-10.1097
decode	-10.1108
addr	-10.1112
▁chain	-10.1117
parameter	-10.1117
parameters	-10.1122
Sign	-10.1123
Iter	-10.1131
getNode	-10.1131
Conf	-10.1135
Detail	-10.115
description	-10.1154
30	-10.1159
ment	-10.1164
▁children	-10.1176
setAttribute	-10.1178
Millis	-10.1183
Primitive	-10.1206
22	-10.1207
Points	-10.1209
Graphics	-10.1224
[][]	-10.1227
Standard	-10.1233
REQUEST	-10.1237
▁http	-10.1243
complete	-10.1251
▁where	-10.1258
ive	-10.1263
cur	-10.127
▁cms	-10.1271
option	-10.1273
Payload	-10.128
Paths	-10.1298
dest	-10.1302
forName	-10.1304
range	-10.1305
NumberFormat	-10.1307
▁JAXBElement	-10.1308
▁CmsResource	-10.1317
keys	-10.1317
ff	-10.1318
destination	-10.1319
Trace	-10.1324
Comparator	-10.1334
▁payload	-10.1337
▁body	-10.134
Insert	-10.1342
Con	-10.1348
Attachment	-10.1357
Present	-10.1363
parser	-10.1367
▁multi	-10.1369
MESSAGE	-10.137
ol	-10.1372
▁?>	-10.1376
Uuid	-10.1379
INFO	-10.1385
▁raw	-10.1387
()];	-10.141
getS	-10.1416
cl	-10.143
],	-10.143
Objects	-10.1432
Processing	-10.1445
Authorization	-10.1452
StringUtil	-10.1454
Display	-10.1466
ies	-10.1478
Any	-10.1481
ro	-10.1485
▁distance	-10.1487
short	-10.1488
Language	-10.1496
Instances	-10.1504
cause	-10.1513
▁proxy	-10.1517
Driver	-10.152
separator	-10.1524
▁system	-10.1529
▁mapper	-10.1529
template	-10.1551
describe	-10.1556
global	-10.1568
▁Simple	-10.1569
intValue	-10.157
xff	-10.157
("/	-10.158
▁loader	-10.1581
getWidth	-10.1583
include	-10.1584
getAll	-10.1587
Plan	-10.1588
Arguments	-10.1589
▁"\"	-10.1591
Worker	-10.1599
raw	-10.1605
▁trace	-10.1605
lib	-10.1615
Transformer	-10.1626
Split	-10.1634
14	-10.1641
FilePath	-10.1645
▁'\	-10.1653
Utility	-10.1654
▁variable	-10.1656
metadata	-10.1659
▁ensure	-10.1671
Monitor	-10.1682
Criteria	-10.1691
▁partition	-10.1693
pi	-10.1694
children	-10.1698
warning	-10.17
▁main	-10.1703
getY	-10.1704
Writable	-10.1708
ompletableFuture	-10.1711
Events	-10.1717
setName	-10.1719
Static	-10.1723
IF	-10.174
▁tokens	-10.1743
fill	-10.1746
getElement	-10.1747
Pipeline	-10.1747
act	-10.1754
conn	-10.176
Structure	-10.1782
MAP	-10.1782
assert	-10.1784
meta	-10.1786
attributes	-10.1788
▁supported	-10.1795
function	-10.18
Agent	-10.1812
READ	-10.1818
▁descriptor	-10.1819
Zip	-10.1833
▁replace	-10.1838
Init	-10.1841
▁added	-10.1846
AL	-10.1848
Edit	-10.1849
ab	-10.1867
my	-10.1869
test	-10.1872
visit	-10.1873
con	-10.1876
▁Log	-10.1877
1;	-10.1879
extract	-10.1888
▁pool	-10.189
▁cell	-10.1894
▁LinkedList	-10.1904
▁created	-10.1908
style	-10.1908
getNum	-10.1923
▁arr	-10.193
External	-10.1938
NONE	-10.1943
("\\	-10.1945
Background	-10.1947
▁sequence	-10.1947
Subject	-10.1951
comp	-10.1958
tp	-10.1961
AND	-10.1963
▁part	-10.1968
▁cur	-10.197
▁compare	-10.1971
ELEMENT	-10.1971
Year	-10.1974
la	-10.1982
▁some	-10.199
24	-10.1998
compiler	-10.2003
color	-10.2004
▁best	-10.2004
manager	-10.2005
▁back	-10.2006
▁device	-10.2007
rec	-10.2008
sFor	-10.2014
▁given	-10.2029
|=	-10.2029
▁real	-10.2038
sp	-10.204
lv	-10.2042
Valid	-10.2045
ByteArray	-10.2058
queue	-10.2058
Can	-10.2065
▁cursor	-10.2069
▁URI	-10.2073
▁charset	-10.2083
atom	-10.2084
CACHE	-10.2086
RequestContext	-10.2087
ve	-10.209
scale	-10.2107
Capacity	-10.2113
▁dst	-10.2118
prev	-10.2123
▁BigDecimal	-10.2138
▁script	-10.2142
▁fieldName	-10.2144
▁possible	-10.2147
begin	-10.2152
checkArgument	-10.2155
STATUS	-10.2164
▁newValue	-10.2168
▁active	-10.2175
-1	-10.2185
fields	-10.2192
▁exec	-10.2198
▁chunk	-10.2201
Mask	-10.2203
▁DEFAULT	-10.2213
merge	-10.2215
Sample	-10.2216
OS	-10.222
bind	-10.2228
impl	-10.2236
▁self	-10.224
，	-10.2242
Available	-10.2244
FileSystem	-10.2247
▁encode	-10.2248
ant	-10.2256
Visible	-10.2259
HEADER	-10.2281
condition	-10.2299
EL	-10.2301
Weight	-10.2305
Flags	-10.2319
▁groupId	-10.2332
LE	-10.2336
"),	-10.2337
by	-10.2341
tokens	-10.2344
▁counter	-10.2348
Packet	-10.236
getService	-10.2382
DAY	-10.2391
NODE	-10.2399
<?,	-10.2404
Site	-10.2405
21	-10.2408
▁color	-10.2412
TimeZone	-10.2417
addBody	-10.2424
▁attr	-10.2436
Follow	-10.2439
Deployment	-10.2439
▁meta	-10.2444
Bit	-10.2446
▁Function	-10.2452
0)	-10.2453
save	-10.2458
▁Calendar	-10.2468
▁our	-10.2472
▁DateTime	-10.2473
Use	-10.2482
▁StringUtils	-10.249
ME	-10.2497
DataType	-10.25
▁folder	-10.25
found	-10.2506
Const	-10.2509
▁render	-10.251
wrap	-10.2513
▁html	-10.2513
Zone	-10.2518
▁decode	-10.252
Master	-10.2522
▁over	-10.2526
▁my	-10.2547
▁happen	-10.2552
Bind	-10.2552
▁filename	-10.2553
▁form	-10.2555
MS	-10.2555
▁condition	-10.2557
subscriptionId	-10.2566
currentThread	-10.2569
getLength	-10.2574
device	-10.2576
callback	-10.2578
Gen	-10.2595
ul	-10.2595
▁namespace	-10.2598
▁calculate	-10.2611
subscribe	-10.2617
[]>	-10.2622
pt	-10.2625
GROUP	-10.2631
▁sum	-10.2632
▁"\	-10.2636
Stage	-10.2641
distance	-10.2643
fileName	-10.2645
▁Character	-10.2648
▁cached	-10.2648
>>()	-10.2649
Cert	-10.2658
per	-10.2658
Conversion	-10.2662
▁[{}]	-10.2672
Exists	-10.2676
Separator	-10.2677
getConnection	-10.2678
ROOT	-10.2682
Assignment	-10.2682
ping	-10.269
Tab	-10.27
MODE	-10.271
▁registry	-10.2719
prop	-10.2729
enable	-10.2731
se	-10.2734
FS	-10.2734
Upload	-10.2735
Schedule	-10.2735
getSource	-10.2742
getContent	-10.2743
rv	-10.2748
CPDefinition	-10.2752
Children	-10.2758
▁convertTo	-10.2763
的	-10.2764
toUpperCase	-10.2764
▁var	-10.2764
isDirectory	-10.2765
Expressions	-10.2771
▁classes	-10.2775
newValue	-10.2781
POS	-10.2785
Owner	-10.2796
Random	-10.2804
Expected	-10.2806
Setting	-10.2813
▁Repository	-10.2813
EventListener	-10.2815
▁word	-10.2819
ErrorCode	-10.282
▁its	-10.2825
▁through	-10.2834
Geo	-10.2844
▁fs	-10.2847
HashMap	-10.2848
EDEFAULT	-10.2862
Complete	-10.2866
▁retval	-10.287
>");	-10.2876
getHeight	-10.2882
getStatus	-10.2883
RESOURCE	-10.2884
pre	-10.2884
Dynamic	-10.2888
▁Json	-10.2892
Renderer	-10.2893
cas	-10.2915
ize	-10.2917
rt	-10.2929
509	-10.2934
▁plugin	-10.2938
Native	-10.2953
Association	-10.2962
getCause	-10.2964
▁env	-10.2964
▁character	-10.2968
▁member	-10.2972
Axis	-10.2972
Modifier	-10.2974
co	-10.2977
previous	-10.298
Features	-10.2981
formatter	-10.2982
▁Interrupted	-10.2987
Export	-10.2999
[0]);	-10.3006
[0].	-10.3006
Backup	-10.3015
Slot	-10.3017
▁two	-10.3018
auth	-10.3019
▁tile	-10.3019
ok	-10.3019
Has	-10.3021
Login	-10.3023
Seq	-10.3026
Editor	-10.3027
module	-10.3031
▁""	-10.3036
STATE	-10.3057
Envelope	-10.3057
OBJECT	-10.3057
Interceptor	-10.306
SC	-10.306
TypeName	-10.3062
props	-10.3066
▁tags	-10.3071
domain	-10.3075
ResourceBundle	-10.3085
Escape	-10.3086
▁verify	-10.3089
INVALID	-10.3099
Back	-10.3101
Diff	-10.3101
Parse	-10.3101
quote	-10.3104
Pass	-10.3106
▁topic	-10.3115
▁push	-10.3122
apache	-10.3142
▁control	-10.3143
elements	-10.3152
ARN	-10.3156
▁package	-10.3159
An	-10.3168
▁"."	-10.3172
Created	-10.3183
just	-10.3183
▁support	-10.3184
ibm	-10.3185
▁con	-10.3195
▁0.0	-10.3198
Scan	-10.3201
bar	-10.3202
▁cls	-10.3206
na	-10.3209
ParseException	-10.3211
Top	-10.3214
Proto	-10.3221
show	-10.323
isValid	-10.3233
▁want	-10.3233
60	-10.3236
COUNT	-10.327
▁delta	-10.3274
can	-10.3275
▁>>>	-10.3276
▁fail	-10.3279
▁invoke	-10.328
Chars	-10.3281
bundle	-10.3284
▁bit	-10.3287
round	-10.3297
▁selected	-10.3301
Merge	-10.3301
MediaType	-10.3306
Allowed	-10.3311
MONTH	-10.3315
Collectors	-10.3316
▁executor	-10.3317
SinglePage	-10.332
TEXT	-10.3321
OP	-10.3322
dm	-10.3326
release	-10.3328
original	-10.3336
groupId	-10.334
ra	-10.3344
ENTITY	-10.3348
▁XML	-10.3354
▁initial	-10.3358
EVENT	-10.3358
▁scan	-10.337
▁listeners	-10.3373
random	-10.3376
continue	-10.3381
▁go	-10.3387
CmsObject	-10.3389
FileOutputStream	-10.3389
Full	-10.339
flow	-10.3392
Cipher	-10.3402
Example	-10.3402
Loop	-10.3402
Marker	-10.3412
▁Ovh	-10.3417
Direct	-10.342
▁title	-10.3421
Render	-10.3431
Tasks	-10.3434
il	-10.3436
getFile	-10.3452
Ok	-10.3463
getSession	-10.3465
▁visit	-10.3465
Raw	-10.3471
NaN	-10.3491
getEntity	-10.3502
pair	-10.3514
setText	-10.3521
checkNotNull	-10.3536
commit	-10.3539
▁cal	-10.3543
Pointer	-10.3556
NoSuch	-10.3569
▁storage	-10.3574
"+	-10.358
hi	-10.3583
▁changed	-10.3591
Basic	-10.3594
ling	-10.3599
▁full	-10.36
tz	-10.361
Hex	-10.3614
getLogger	-10.3616
▁rows	-10.3622
ity	-10.3623
(0).	-10.3623
Parts	-10.3632
▁alt	-10.3636
Literal	-10.3638
Callable	-10.3638
EEnum	-10.3643
Validate	-10.3647
getState	-10.3656
▁them	-10.3658
Management	-10.3667
ck	-10.3675
▁called	-10.3681
mi	-10.3686
cursor	-10.369
▁sort	-10.369
▁consumer	-10.3693
getTarget	-10.3695
▁interval	-10.3695
HTML	-10.3704
ARRAY	-10.3715
Delta	-10.3715
INDEX	-10.3715
batch	-10.3732
▁trigger	-10.3735
provider	-10.3737
▁op	-10.3747
ut	-10.3749
endpoint	-10.3752
getP	-10.3754
Statistics	-10.3755
='	-10.3755
Wait	-10.3757
consume	-10.3758
▁graph	-10.3758
Debug	-10.3759
getBundle	-10.3767
Sum	-10.3778
Js	-10.3789
▁ioe	-10.379
▁parts	-10.3795
BASE	-10.38
Delay	-10.3806
Animation	-10.3806
▁wait	-10.381
top	-10.3835
names	-10.3844
Services	-10.3849
DEBUG	-10.3852
ag	-10.3857
▁duration	-10.3862
▁endpoint	-10.3868
Begin	-10.3878
Codec	-10.3884
readLine	-10.389
self	-10.3897
LINE	-10.3898
lat	-10.3927
▁doesn	-10.3927
Register	-10.3927
40	-10.3927
▁needed	-10.393
where	-10.3931
pr	-10.3941
▁contain	-10.3942
ting	-10.3942
Commit	-10.3942
CONTENT	-10.3944
ResultSet	-10.3945
▁1];	-10.3951
▁repository	-10.3953
▁fetch	-10.3964
getFirst	-10.3964
▁dependency	-10.3966
submit	-10.3975
copyOf	-10.4
▁ns	-10.4006
▁indent	-10.4008
extension	-10.4009
<?>)	-10.4013
It	-10.4016
▁propertyName	-10.4027
scroll	-10.4028
ATTRIBUTE	-10.4028
▁tx	-10.4032
factory	-10.4039
Finder	-10.4042
ci	-10.4047
(1,	-10.4049
database	-10.4049
EN	-10.4057
ui	-10.4068
stack	-10.4068
ne	-10.4068
pop	-10.4072
▁formatter	-10.4076
Pipe	-10.4083
▁edge	-10.4088
exec	-10.409
("%	-10.4091
PER	-10.4092
HttpClient	-10.4093
ring	-10.4099
stats	-10.4103
▁solution	-10.4112
mapping	-10.4118
▁removed	-10.412
protected	-10.4122
▁Runnable	-10.4129
METHOD	-10.4131
Depth	-10.4132
Reply	-10.4132
Disk	-10.4135
getRecord	-10.4136
▁term	-10.4147
▁No	-10.415
ers	-10.4158
fe	-10.416
ServiceCallback	-10.4161
CR	-10.4168
Assert	-10.417
fieldName	-10.4174
==0	-10.4175
remote	-10.4176
▁never	-10.4181
ther	-10.4189
▁socket	-10.4207
▁flags	-10.4209
Ip	-10.4214
tx	-10.4216
Secret	-10.4216
ACTION	-10.4223
LONG	-10.4227
=\"	-10.4227
Closed	-10.4234
ta	-10.4251
cmd	-10.4256
reparedStatement	-10.4259
getApplication	-10.4264
Clause	-10.4267
▁tr	-10.4268
▁execution	-10.4268
Drawable	-10.4268
DELETE	-10.4268
▁import	-10.4269
destroy	-10.4274
peek	-10.4274
▁avoid	-10.4277
ri	-10.4283
proxy	-10.4284
arr	-10.4287
Cached	-10.4289
IR	-10.429
Retry	-10.4293
Issue	-10.4301
part	-10.4305
▁zero	-10.4306
▁move	-10.4307
Success	-10.431
Visitor	-10.431
Boundary	-10.4315
loc	-10.4318
▁Locale	-10.4326
▁single	-10.4348
cd	-10.4351
ie	-10.4352
▁attempt	-10.4359
▁signature	-10.4359
Send	-10.4362
direct	-10.4362
▁pass	-10.4365
St	-10.4369
NS	-10.438
bb	-10.4381
23	-10.4387
":	-10.4392
▁always	-10.4393
alias	-10.4393
AT	-10.4394
cc	-10.4397
▁iv	-10.4407
Audit	-10.441
▁FileInputStream	-10.4413
▁custom	-10.4416
SEPARATOR	-10.4419
Tango	-10.4419
▁running	-10.4425
▁calendar	-10.4434
▁comment	-10.4442
system	-10.4443
0);	-10.4444
▁retry	-10.4448
▁exists	-10.4452
Total	-10.4454
access	-10.4455
USE	-10.446
graph	-10.4465
Sheet	-10.4468
sleep	-10.4468
WIDTH	-10.4468
ls	-10.447
▁lookup	-10.4479
real	-10.4486
▁mask	-10.4494
Rows	-10.4497
▁prepare	-10.4499
▁timestamp	-10.4501
Accessor	-10.4508
Replace	-10.4518
▁see	-10.4518
Ad	-10.4523
Fast	-10.4525
ds	-10.4536
▁tableName	-10.4536
Rel	-10.4536
Collections	-10.454
ty	-10.4543
▁points	-10.4545
web	-10.455
change	-10.4553
▁M	-10.4557
Seconds	-10.4562
items	-10.4566
MBean	-10.4578
feature	-10.4582
▁down	-10.4583
IC	-10.4584
df	-10.4586
ReturnType	-10.4593
ho	-10.4595
toByteArray	-10.4601
Tx	-10.4609
Infos	-10.4613
edge	-10.4615
Home	-10.4616
isLoggable	-10.4616
mark	-10.4617
processException	-10.4618
initialize	-10.4621
opt	-10.4625
▁transport	-10.4627
▁nextPageLink	-10.463
payload	-10.463
day	-10.4632
thread	-10.4639
isPresent	-10.464
▁perform	-10.4652
▁weight	-10.4656
Zero	-10.4665
ob	-10.4665
Connector	-10.4665
idBagConstraints	-10.4666
casFeat	-10.4666
isTraceOn	-10.4666
et	-10.4671
▁checkNotNull	-10.4676
dn	-10.4679
CA	-10.4686
Scroll	-10.4687
synchronized	-10.4687
▁ds	-10.4688
PI	-10.4693
▁Point	-10.4697
/"	-10.471
▁BufferedReader	-10.4711
gauge	-10.4716
SSL	-10.4719
ssl	-10.4722
▁lines	-10.4725
toList	-10.4728
▁bucket	-10.4731
▁join	-10.4739
Errors	-10.4741
▁owner	-10.4744
step	-10.4745
▁bits	-10.4748
Email	-10.4748
poll	-10.4759
DE	-10.476
Head	-10.4761
Elem	-10.4764
PATTERN	-10.4766
TRUE	-10.4766
mo	-10.477
relation	-10.477
ized	-10.477
▁identifier	-10.4782
EntityManager	-10.4783
▁ApiException	-10.4786
▁escape	-10.479
profile	-10.4792
Connect	-10.4796
Extensions	-10.4797
Permissions	-10.4798
getIndex	-10.4799
BigDecimal	-10.4801
propertyName	-10.481
▁defined	-10.4814
om	-10.4815
Delivery	-10.4817
3:	-10.4834
▁OpenCms	-10.4836
filtered	-10.4836
Without	-10.4845
Accept	-10.4856
lookup	-10.4857
now	-10.4859
[1];	-10.4862
▁nothing	-10.4867
Card	-10.4867
StringBundler	-10.4868
Rect	-10.4871
getTask	-10.4871
protocol	-10.4878
sh	-10.4881
ISO	-10.4882
render	-10.4884
▁'%	-10.4893
CE	-10.4896
AsString	-10.4897
200	-10.4901
50	-10.4905
▁clear	-10.4907
▁updated	-10.4908
ee	-10.4918
Lookup	-10.4918
Parameterized	-10.4923
words	-10.4935
Filters	-10.4939
FORMAT	-10.4943
▁opt	-10.4948
Immutable	-10.4951
Runnable	-10.4955
Save	-10.4957
▁getAll	-10.496
TypeReference	-10.4961
getEnd	-10.4971
CmsResource	-10.4978
000	-10.4979
▁role	-10.4998
Stat	-10.5014
▁algorithm	-10.5017
▁settings	-10.5034
Serialization	-10.5035
Src	-10.5036
getProperties	-10.504
emptyList	-10.5041
frame	-10.5041
▁diff	-10.505
Illegal	-10.5051
Blank	-10.5059
Definitions	-10.5064
▁expr	-10.5066
▁look	-10.5067
FINE	-10.5068
▁commit	-10.5069
Admin	-10.5071
CHAR	-10.5072
SESSION	-10.5073
▁co	-10.5073
Dis	-10.5074
getLong	-10.5074
grid	-10.5074
ads	-10.5077
getComponent	-10.5085
Bad	-10.5086
▁getIfc	-10.5091
▁st	-10.5101
▁ClassLoader	-10.5102
Virtual	-10.5102
dialog	-10.5106
gr	-10.5109
▁artifact	-10.511
▁retrieve	-10.5117
ES	-10.5117
www	-10.5125
Dependencies	-10.5125
Dispatcher	-10.5128
po	-10.513
Polygon	-10.514
▁fire	-10.5141
Dao	-10.5146
dst	-10.5149
▁determine	-10.5149
def	-10.5153
getConfig	-10.5154
enc	-10.5154
skip	-10.5155
Print	-10.5158
IllegalA	-10.5169
ORDER	-10.517
▁did	-10.5173
▁got	-10.5174
Analysis	-10.5177
Move	-10.5178
getClassLoader	-10.5179
PublicKey	-10.5182
▁manager	-10.5185
▁matrix	-10.5189
▁messages	-10.519
um	-10.5197
allocate	-10.5201
31	-10.5205
Temp	-10.5206
▁classLoader	-10.5216
concat	-10.522
▁failure	-10.5223
MASK	-10.523
Execute	-10.523
Env	-10.523
over	-10.5235
Logging	-10.5237
AN	-10.5238
rate	-10.524
▁auth	-10.5249
▁allowed	-10.5253
▁interface	-10.5257
schedule	-10.5263
less	-10.5272
Border	-10.5273
remaining	-10.5278
Priority	-10.5282
Skip	-10.5282
OutOfBounds	-10.5283
desc	-10.5284
▁converter	-10.5295
classes	-10.5296
Do	-10.5297
▁lower	-10.5314
Jar	-10.5316
▁MAX	-10.5317
doubleValue	-10.532
▁protocol	-10.5324
▁Float	-10.5324
▁notify	-10.5324
Attempt	-10.5329
ct	-10.5333
Bitmap	-10.5335
Completion	-10.5335
WITH	-10.5336
02	-10.534
▁without	-10.5341
▁predicate	-10.5347
weight	-10.5348
results	-10.535
TargetException	-10.5353
▁extra	-10.5354
▁chars	-10.5356
Facet	-10.5356
chain	-10.5358
bin	-10.5358
▁errors	-10.5363
▁8)	-10.5369
Publish	-10.5376
▁os	-10.5379
img	-10.5379
▁display	-10.5383
▁environment	-10.5386
Compare	-10.5388
SERVER	-10.5389
▁InternalXbase	-10.539
pool	-10.5392
restore	-10.5397
headers	-10.54
collection	-10.5412
site	-10.5412
methodName	-10.5419
sip	-10.5421
RS	-10.5421
▁layer	-10.5422
25	-10.543
finally	-10.5434
Fixed	-10.5434
▁uuid	-10.5435
[0],	-10.5439
▁high	-10.5444
Extractor	-10.5444
NEXT	-10.5445
userAgent	-10.5448
JMS	-10.5452
IAtomContainer	-10.5453
▁window	-10.5459
RA	-10.5459
▁Describe	-10.5462
▁timer	-10.5463
BigInteger	-10.5466
ay	-10.5467
▁JsonObject	-10.548
jar	-10.5494
square	-10.5497
cell	-10.5506
sResult	-10.5507
Cause	-10.5508
isBlank	-10.5511
Active	-10.5513
▁Java	-10.5516
AS	-10.5519
▁ClassNotFound	-10.552
▁registered	-10.5522
center	-10.5538
▁additional	-10.554
PARAMETER	-10.5542
red	-10.555
Equals	-10.5551
▁activity	-10.5551
RETURN	-10.5552
UPDATE	-10.5552
tableName	-10.5553
ify	-10.5557
▁Opcode	-10.5563
2:	-10.5564
getLast	-10.5567
Unsupported	-10.5568
▁vector	-10.5572
▁reading	-10.5582
listeners	-10.5584
cancel	-10.5596
▁configure	-10.5597
BYTE	-10.5597
▁domain	-10.5604
Encoder	-10.5604
Threshold	-10.5606
activity	-10.5607
▁present	-10.5608
sha	-10.5611
Named	-10.5612
--)	-10.5614
▁too	-10.5615
▁export	-10.5622
ColumnName	-10.5636
▁0.0;	-10.5643
score	-10.5643
getInputStream	-10.5654
Down	-10.566
iferay	-10.5661
WARNING	-10.5661
Observer	-10.5662
getBase	-10.5664
kind	-10.5665
FieldName	-10.5668
▁invalid	-10.5668
selected	-10.5682
▁setup	-10.5684
getVersion	-10.5691
tags	-10.5695
▁profile	-10.5697
getTable	-10.5699
username	-10.57
Ext	-10.57
▁archive	-10.5701
Platform	-10.5704
Charset	-10.5711
ization	-10.5712
Main	-10.5713
bit	-10.5715
Runner	-10.5716
Suffix	-10.5716
sync	-10.5718
encoding	-10.572
▁delegate	-10.5724
▁space	-10.5728
▁bind	-10.5731
SP	-10.5741
JS	-10.5744
fine	-10.5751
getC	-10.5751
inputStream	-10.5753
Compound	-10.5764
connect	-10.5764
19	-10.5771
Patch	-10.5772
▁elem	-10.5774
PE	-10.5776
▁"");	-10.5777
Dimension	-10.5778
hand	-10.5781
▁pending	-10.5788
getColumn	-10.5789
ByName	-10.5794
▁3)	-10.5799
▁missing	-10.58
▁def	-10.5805
&	-10.5808
br	-10.5808
points	-10.581
compute	-10.5811
digit	-10.5817
Redirect	-10.5817
Solution	-10.5827
▁symbol	-10.5827
SOURCE	-10.5827
FALSE	-10.5828
▁would	-10.5828
▁least	-10.5828
PAGE	-10.5829
Receiver	-10.5831
filename	-10.5834
URLConnection	-10.5836
ca	-10.5838
33	-10.584
available	-10.5842
rb	-10.5843
notify	-10.5848
▁center	-10.585
processor	-10.5852
▁criteria	-10.5852
Behavior	-10.5858
▁cp	-10.586
reduce	-10.5866
work	-10.5872
ating	-10.5872
Composite	-10.5876
▁"]	-10.5879
▁information	-10.5884
Serializable	-10.5884
17	-10.5887
▁another	-10.5891
()){	-10.5897
expected	-10.5902
partition	-10.5906
Jvm	-10.5911
▁childNode	-10.5918
Bar	-10.5921
js	-10.5922
ub	-10.5929
▁resourceName	-10.593
Unique	-10.5932
▁vertex	-10.5932
ERR	-10.5932
FOUND	-10.5941
backtracking	-10.5941
LEFT	-10.5941
flatMap	-10.5944
escape	-10.5944
cert	-10.5949
getLocal	-10.595
▁curr	-10.5959
▁alias	-10.596
draw	-10.5965
▁Screen	-10.5969
▁serverName	-10.5972
javax	-10.5977
Shared	-10.5977
nextToken	-10.5981
▁comp	-10.5988
ClassNotFound	-10.5998
▁accept	-10.6001
▁exp	-10.6005
Include	-10.6017
▁tuple	-10.602
metric	-10.6028
clientResponse	-10.6028
*/	-10.6031
▁inputStream	-10.6038
Roles	-10.604
▁groups	-10.6042
CharSequence	-10.6049
transaction	-10.6054
YEAR	-10.6055
Forward	-10.6055
ATION	-10.6061
getStart	-10.6071
Labels	-10.6074
▁relation	-10.6086
custom	-10.6094
getRoot	-10.6095
Lines	-10.6097
pa	-10.6105
Reason	-10.6105
▁bounds	-10.6106
Workspace	-10.6107
▁jar	-10.6108
3);	-10.6111
APPLICATION	-10.6112
Bootstrap	-10.6112
Indicator	-10.6112
▁complete	-10.6113
<?>[]	-10.6114
▁nodeList	-10.6114
▁yet	-10.6115
entries	-10.6115
Comp	-10.6121
UP	-10.6122
apiClient	-10.6126
free	-10.6129
256	-10.6135
space	-10.6142
trans	-10.6145
storage	-10.6156
▁separator	-10.6166
Asset	-10.6179
▁CharSequence	-10.618
▁\""	-10.6182
DataSet	-10.6184
pack	-10.6188
GL	-10.6188
▁route	-10.6188
sym	-10.6192
ang	-10.62
▁language	-10.6206
▁region	-10.6206
▁auto	-10.6207
▁sign	-10.6207
responses	-10.621
year	-10.6213
Digest	-10.6214
SERVICE	-10.6228
▁resolved	-10.6229
Extended	-10.6231
▁username	-10.6231
▁UnsupportedOp	-10.6236
mapper	-10.6246
▁jcasType	-10.6247
▁closed	-10.6253
▁Validate	-10.626
▁BigInteger	-10.6264
INIT	-10.6265
▁network	-10.6266
255	-10.6267
Digits	-10.6268
NoSuchMethod	-10.6268
States	-10.627
Words	-10.6273
fc	-10.6276
CP	-10.6278
Fetch	-10.6281
CommandLine	-10.6288
layer	-10.6288
erationException	-10.6291
Actions	-10.6304
feat	-10.6306
Person	-10.6308
Ops	-10.6309
Unexpected	-10.6314
>\	-10.6319
4:	-10.632
Mark	-10.633
Credential	-10.6333
nextElement	-10.6339
7:	-10.634
▁flag	-10.6342
canonical	-10.6345
Trans	-10.6348
▁between	-10.6353
ServletContext	-10.6358
▁validation	-10.6363
Decl	-10.6366
▁":"	-10.6369
rpc	-10.6374
KeyValue	-10.6375
Li	-10.6376
▁suffix	-10.6381
comment	-10.6382
▁requested	-10.6392
Portlet	-10.6394
cls	-10.6397
▁processing	-10.6397
▁objects	-10.64
Clazz	-10.6403
Instant	-10.6403
Specific	-10.6404
Diagnostic	-10.6404
AM	-10.6407
Members	-10.6415
▁score	-10.6428
▁API	-10.6438
rw	-10.6439
md	-10.6441
▁lo	-10.6441
GroupName	-10.6448
product	-10.6448
Filename	-10.645
settings	-10.6453
putAll	-10.6458
Appender	-10.6459
Based	-10.6459
zip	-10.6462
Scheduler	-10.6473
fix	-10.6476
▁controller	-10.6479
OUT	-10.6483
▁slot	-10.6502
tl	-10.6509
getAttributes	-10.6511
ADD	-10.6517
valid	-10.6517
▁definition	-10.6521
ignore	-10.6523
role	-10.6541
columns	-10.6543
EventType	-10.6547
TS	-10.6547
▁fetchBy	-10.6547
▁clean	-10.6555
folder	-10.6556
Cancel	-10.656
dev	-10.6562
▁^	-10.6564
▁"'");	-10.6572
Peer	-10.6585
▁desc	-10.6586
numRows	-10.659
Decoder	-10.659
▁subject	-10.6595
Center	-10.6595
Exit	-10.6595
▁comparator	-10.6603
sec	-10.6611
▁featureID	-10.6617
Matches	-10.6619
jj	-10.6619
getPort	-10.6628
▁you	-10.6638
Initial	-10.6645
▁connect	-10.6648
BE	-10.6649
GUI	-10.665
ness	-10.6651
readInt	-10.6655
Rpc	-10.6658
▁encoded	-10.6661
future	-10.6665
fsp	-10.6666
existing	-10.6667
▁shift	-10.6667
CC	-10.6667
media	-10.6687
pw	-10.6689
eval	-10.6691
BY	-10.6691
▁day	-10.6695
ById	-10.6697
▁progress	-10.6701
Remaining	-10.6703
FINDER	-10.6706
NUMBER	-10.6706
Variant	-10.6706
Distribution	-10.6706
▁still	-10.6706
Injection	-10.6706
Safe	-10.6708
▁maximum	-10.6709
admin	-10.6711
Tick	-10.6716
▁authentication	-10.6718
▁site	-10.6718
Coordinate	-10.672
▁orig	-10.672
getHost	-10.6723
SUB	-10.6726
getDescription	-10.6729
digest	-10.673
Selected	-10.6732
millis	-10.6732
statement	-10.6735
owner	-10.6738
▁pair	-10.6742
▁ImmutableList	-10.6742
▁getPersistence	-10.6745
▁4)	-10.675
Marshaller	-10.6752
TableName	-10.6763
Scheme	-10.6765
SVG	-10.6767
plus	-10.6768
▁they	-10.6777
elem	-10.6777
jdbc	-10.6777
EC	-10.6799
driver	-10.6802
shutdown	-10.6803
▁/**	-10.6804
reg	-10.6807
▁origin	-10.6808
Face	-10.6811
ServiceException	-10.6816
▁memory	-10.6819
Transfer	-10.682
stmt	-10.6824
getMin	-10.6828
CSS	-10.6828
Entities	-10.6829
hasMoreElements	-10.6829
▁flow	-10.6833
ence	-10.6834
sWith	-10.6836
▁keep	-10.6836
▁zone	-10.6837
Generated	-10.6838
Pixel	-10.6843
1:	-10.6846
bits	-10.6847
files	-10.6849
serve	-10.6849
inv	-10.6856
typeName	-10.6859
▁variables	-10.6861
▁paths	-10.6861
Click	-10.6872
Preference	-10.6875
▁recover	-10.6875
controller	-10.6876
Opt	-10.6876
Exp	-10.6876
duration	-10.6877
▁deleted	-10.6887
so	-10.6888
drools	-10.689
DISPLAY	-10.6891
▁during	-10.6891
Struct	-10.6892
ens	-10.69
Days	-10.6911
Amount	-10.6914
▁Matrix	-10.6914
di	-10.6918
Running	-10.6925
trigger	-10.6925
ncodingException	-10.6926
Bus	-10.6932
▁OutputStream	-10.6936
Throw	-10.6939
▁override	-10.6946
▁know	-10.6946
ensure	-10.695
▁Tuple	-10.6951
▁different	-10.6953
addChild	-10.6954
pkg	-10.6958
setAccessible	-10.6959
▁digest	-10.696
Arr	-10.6962
import	-10.6969
PROP	-10.6977
▁DevFailed	-10.6983
UnsupportedE	-10.6989
getItem	-10.6989
getResources	-10.701
CREATE	-10.701
security	-10.7012
era	-10.7016
FILTER	-10.7016
Manifest	-10.7016
orElse	-10.7017
Old	-10.702
▁might	-10.702
SHA	-10.7022
Getter	-10.7023
▁Basic	-10.7027
Sorted	-10.7029
div	-10.703
rc	-10.7031
writeLock	-10.7042
▁hour	-10.7043
▁substitution	-10.7047
getChildren	-10.705
sBy	-10.7056
▁ParseException	-10.706
CS	-10.7063
Modified	-10.7067
▁describe	-10.7068
▁product	-10.7072
Broker	-10.708
OFFSET	-10.708
Matching	-10.708
Other	-10.7084
Compiler	-10.7085
second	-10.7085
▁2);	-10.7087
getServer	-10.709
getLocalized	-10.7091
chunk	-10.7094
▁proc	-10.7097
expr	-10.7107
WS	-10.7112
cat	-10.7114
\"");	-10.7115
go	-10.7116
auto	-10.712
▁global	-10.7131
▁until	-10.7131
route	-10.7131
ax	-10.7132
▁being	-10.7135
▁amount	-10.7142
FormalParameter	-10.7143
sqrt	-10.7143
authorization	-10.7143
Pending	-10.7148
Segments	-10.7151
back	-10.7151
▁Document	-10.7153
MP	-10.7158
▁take	-10.7163
▁direction	-10.7163
variable	-10.7164
[3]	-10.7166
▁media	-10.7168
▁1));	-10.717
▁enabled	-10.7176
▁eDataType	-10.7176
Completed	-10.7177
Used	-10.7179
px	-10.718
FieldType	-10.7183
span	-10.7184
dispatch	-10.7201
▁candidate	-10.7202
SELECT	-10.7205
Break	-10.7206
FROM	-10.7207
Lazy	-10.7207
Alert	-10.7207
CONTEXT	-10.7207
mp	-10.7214
▁editor	-10.7214
MO	-10.7214
Show	-10.7217
▁cancel	-10.7226
DIR	-10.7227
Evaluation	-10.7231
_1,	-10.7232
▁LinkedHashMap	-10.7237
▁credentials	-10.724
regex	-10.7241
isNot	-10.7246
▁ignored	-10.7248
wrapped	-10.7265
Revision	-10.7265
Currency	-10.7268
▁'0'	-10.7272
XPath	-10.7272
Producer	-10.7273
annotationType	-10.7275
ATTR	-10.7277
parts	-10.7277
▁remaining	-10.7278
▁correct	-10.7279
RG	-10.728
display	-10.7282
sessionId	-10.7283
serialize	-10.7289
invalid	-10.7289
lp	-10.729
Addresses	-10.729
ance	-10.7301
Padding	-10.7304
runtime	-10.7313
ION	-10.7314
nn	-10.732
Note	-10.7322
alert	-10.7325
da	-10.7328
▁unique	-10.7329
Branch	-10.7334
MethodName	-10.734
fp	-10.7343
Bindings	-10.7343
singleton	-10.7356
login	-10.7364
Ready	-10.737
▁release	-10.7385
Candidate	-10.7386
nb	-10.7388
▁deployment	-10.739
shape	-10.739
▁matches	-10.7394
ContentType	-10.7399
inject	-10.74
Origin	-10.7401
Mail	-10.7402
Modify	-10.7402
▁also	-10.7402
Dump	-10.7405
messages	-10.7408
▁provided	-10.741
▁inner	-10.7411
setId	-10.742
▁Matcher	-10.7426
Configurations	-10.7426
loader	-10.7432
mem	-10.7436
getM	-10.7436
checkState	-10.7438
hostname	-10.7438
▁sorted	-10.7441
removeAll	-10.7443
▁publish	-10.7453
▁events	-10.7453
ParameterTypes	-10.7454
▁fill	-10.7465
▁JSONArray	-10.7466
bucket	-10.7466
Scanner	-10.7468
▁multiple	-10.7469
▁sync	-10.7469
▁wrap	-10.747
ter	-10.7472
Encoded	-10.7478
Dev	-10.7479
rollback	-10.7482
▁Pair	-10.7482
Ring	-10.7482
▁changes	-10.7485
Versions	-10.7486
Relationship	-10.75
JSONObject	-10.7507
Contents	-10.7509
Month	-10.7518
lb	-10.7518
tile	-10.7523
AttributeValue	-10.7524
pow	-10.7533
RIGHT	-10.7534
Problem	-10.7534
Modification	-10.7534
FAILED	-10.7534
cf	-10.7536
MD	-10.7536
projectId	-10.7539
▁binary	-10.7543
pp	-10.7544
jvm	-10.7549
▁intent	-10.7553
▁optional	-10.7554
methodBuilder	-10.7561
updateresources	-10.7563
setDefault	-10.7565
should	-10.7566
package	-10.7566
▁like	-10.7567
getOwner	-10.7569
Convert	-10.7571
dr	-10.7573
dist	-10.7577
▁simple	-10.7586
plain	-10.7586
Pa	-10.7599
*=	-10.7603
Checksum	-10.7605
▁Update	-10.7605
-1)	-10.7609
finder	-10.7609
getSystem	-10.7612
(0));	-10.7615
dl	-10.7619
Regex	-10.7621
own	-10.7621
ep	-10.7624
language	-10.7626
region	-10.7627
writeInt	-10.763
IAtom	-10.7635
Sets	-10.7635
▁4;	-10.7637
accessToken	-10.7637
▁EOF	-10.7638
LT	-10.7639
Mappings	-10.764
mul	-10.7648
Operations	-10.7649
prob	-10.7651
dd	-10.7655
ST	-10.7656
ByteString	-10.7661
low	-10.7662
▁ids	-10.7666
▁Buffered	-10.7667
Catalog	-10.7668
Refresh	-10.7668
scan	-10.7669
Qualifier	-10.7669
Handlers	-10.7669
Mgr	-10.7671
Existing	-10.7673
sign	-10.768
TypeEnum	-10.7698
consumer	-10.7699
Public	-10.7703
▁ruleJvm	-10.7704
dependency	-10.7704
nextInt	-10.7705
after	-10.7706
0.	-10.7706
before	-10.7707
getResult	-10.771
Supported	-10.7714
emit	-10.7715
▁mark	-10.7716
Hint	-10.772
Super	-10.7726
▁transition	-10.773
Angle	-10.7735
Complex	-10.7736
Free	-10.7737
Download	-10.7738
lastModified	-10.7741
▁msgs	-10.7741
utils	-10.775
netSocketAddress	-10.775
RequestBuilder	-10.775
▁shutdown	-10.7763
flags	-10.7766
identifier	-10.7781
allow	-10.7784
pixel	-10.779
▁Internal	-10.7791
getGroup	-10.7791
▁serialize	-10.7794
▁screen	-10.7797
getBoolean	-10.7797
Surface	-10.78
Instruction	-10.7804
Since	-10.7804
Slice	-10.7804
▁implementation	-10.7804
acceptLanguage	-10.7805
Over	-10.7805
WRITE	-10.781
Where	-10.781
Sp	-10.7813
ack	-10.7821
▁dbc	-10.7821
▁Objects	-10.7827
▁place	-10.783
pass	-10.7843
sep	-10.7844
curr	-10.7849
getChild	-10.785
▁button	-10.7857
Pane	-10.7869
▁parsed	-10.787
audit	-10.7872
SHORT	-10.7872
DOCUMENT	-10.7872
getClient	-10.7872
numCols	-10.7873
rd	-10.7878
Resolved	-10.7881
getResponse	-10.7887
▁accountName	-10.7887
writeObject	-10.7889
cx	-10.7889
named	-10.7892
Vars	-10.7893
Append	-10.7899
▁qPath	-10.7906
FileNotFound	-10.7926
fw	-10.7926
fragment	-10.793
Cost	-10.7931
Tables	-10.7932
Constraints	-10.7939
book	-10.794
EJB	-10.7941
isNullOrEmpty	-10.7941
Workflow	-10.7942
descriptor	-10.7944
▁layout	-10.7948
awt	-10.7948
▁radius	-10.7951
required	-10.7953
ObjectName	-10.7964
▁dialog	-10.7966
Off	-10.7969
updateresource	-10.7975
ass	-10.7978
Css	-10.7978
und	-10.7993
chars	-10.8005
Pure	-10.801
Sarl	-10.8011
▁about	-10.8012
AR	-10.8018
QNAME	-10.8019
getLocale	-10.8021
sig	-10.8022
fire	-10.8022
Dataset	-10.8027
▁wrapper	-10.8029
Dest	-10.8031
▁both	-10.8033
icon	-10.8043
▁(0	-10.8046
▁)?	-10.8047
▁se	-10.8055
Links	-10.8061
▁INDArray	-10.8064
▁started	-10.8066
HttpMethod	-10.807
Bi	-10.8071
preference	-10.8071
ace	-10.8074
0;	-10.8076
getPoint	-10.8079
Focus	-10.808
TIMEOUT	-10.8081
PUT	-10.8081
Mismatch	-10.8082
Ignore	-10.8087
Arn	-10.809
▁initialValue	-10.8091
category	-10.8098
▁obtain	-10.8099
are	-10.8104
ally	-10.8109
any	-10.8112
actual	-10.8112
▁BufferedImage	-10.8122
interval	-10.813
ated	-10.814
Detector	-10.8147
Reset	-10.8147
oid	-10.815
Conversation	-10.8151
Instantiation	-10.8151
Using	-10.8152
country	-10.8154
▁again	-10.8154
publish	-10.8154
setStatus	-10.8159
▁web	-10.8163
orderBy	-10.8165
getTag	-10.8167
▁head	-10.8179
MPS	-10.8179
MimeType	-10.8182
▁cipher	-10.8184
StackTrace	-10.819
Inline	-10.8192
mask	-10.8195
getOutput	-10.8197
Bound	-10.82
mm	-10.8201
▁equal	-10.8204
▁ip	-10.8206
▁adapter	-10.8211
=");	-10.8212
variant	-10.8213
catalog	-10.8221
TASK	-10.8222
literal	-10.8222
▁"]");	-10.8222
Difference	-10.8227
control	-10.8228
▁success	-10.8238
▁seconds	-10.8239
waitFor	-10.8246
Codes	-10.8246
▁annotations	-10.8248
▁Build	-10.8249
ue	-10.825
APP	-10.8255
▁way	-10.8264
LIMIT	-10.8266
GroupId	-10.8267
executor	-10.8267
topic	-10.827
directory	-10.8271
▁reason	-10.8271
mac	-10.8273
Install	-10.8283
wait	-10.8286
help	-10.8286
enabled	-10.8289
tion	-10.8292
Persistent	-10.8293
lhs	-10.8294
Keyword	-10.8299
Cmd	-10.8299
move	-10.8315
▁engine	-10.8316
tok	-10.8316
)){	-10.8317
▁evaluate	-10.8319
=2;	-10.8319
mol	-10.8328
features	-10.8341
inc	-10.8341
non	-10.8354
Tracker	-10.8355
▁metric	-10.8358
network	-10.8359
</	-10.836
Lifecycle	-10.8363
Push	-10.8364
Blocks	-10.8365
acc	-10.8365
Violation	-10.8365
STREAM	-10.8365
Ldap	-10.8365
▁HtmlTree	-10.8366
▁trans	-10.8366
▁":	-10.8367
tab	-10.8373
pEntity	-10.8381
Paint	-10.8382
▁year	-10.8392
recovery	-10.8393
eGet	-10.8399
Ch	-10.8399
Locked	-10.84
Addr	-10.8401
26	-10.8404
▁were	-10.8408
Sec	-10.8409
QName	-10.8415
Warning	-10.8417
▁Annotation	-10.8425
detail	-10.8427
Track	-10.8432
rp	-10.8434
Measure	-10.8435
▁cookie	-10.8436
GENERIC	-10.8438
Shift	-10.8438
Contact	-10.8438
▁every	-10.8438
ENABLED	-10.8439
MILLISECONDS	-10.844
Ctx	-10.8448
ABLE	-10.8451
EntityType	-10.8459
dim	-10.8467
cal	-10.8468
toHex	-10.8468
addListener	-10.8471
Chart	-10.8474
ROW	-10.8479
▁upper	-10.8482
▁Try	-10.849
▁free	-10.8491
34	-10.8492
getSize	-10.8492
45	-10.8492
▁metrics	-10.8495
▁processor	-10.8498
Multiple	-10.8501
Numeric	-10.8504
(""))	-10.8505
oc	-10.8506
▁dis	-10.8508
Blob	-10.8509
lf	-10.8509
Relative	-10.851
Library	-10.8511
Repeat	-10.8511
bulk	-10.8511
PrintStream	-10.8515
▁variant	-10.8516
Closure	-10.8517
ElementDecl	-10.8517
▁ResultSet	-10.8518
▁once	-10.8518
LocalDate	-10.8524
RO	-10.8528
WebSocket	-10.853
US	-10.853
Availability	-10.8533
getClassName	-10.8534
our	-10.8539
▁policy	-10.8541
▁enable	-10.8542
getHeader	-10.8545
FailedException	-10.8548
readObject	-10.855
getCache	-10.8556
ExecutorService	-10.8556
forward	-10.8557
note	-10.8563
sheet	-10.8569
DS	-10.8569
normalized	-10.8574
age	-10.8575
persist	-10.8582
Aware	-10.8584
Contract	-10.8584
ified	-10.8585
Tr	-10.8585
▁rules	-10.8586
toCharArray	-10.8586
▁createOrUpdate	-10.8586
▁FFDCFilter	-10.8587
▁period	-10.8587
DOM	-10.8588
extended	-10.8591
lo	-10.8591
▁structure	-10.8608
JC	-10.8611
ise	-10.8623
getID	-10.8625
only	-10.8632
▁Charset	-10.8636
▁columnName	-10.864
▁modify	-10.8645
NE	-10.8653
▁bond	-10.8657
Indices	-10.8658
▁instead	-10.8658
FEATURE	-10.8658
UNKNOWN	-10.8658
Clear	-10.8658
FOR	-10.8658
opencms	-10.8661
▁primary	-10.8662
ReadOnly	-10.8663
▁icon	-10.8664
SECONDS	-10.8666
isNotEmpty	-10.8666
let	-10.8669
edit	-10.867
InetAddress	-10.8676
Transformation	-10.8676
seg	-10.8688
multi	-10.8694
Real	-10.8709
Bond	-10.8716
LI	-10.872
addContent	-10.8723
ary	-10.8724
▁shared	-10.8724
TE	-10.8725
Ms	-10.8726
force	-10.8726
Creation	-10.8732
Dictionary	-10.8733
UNIT	-10.8733
▁findBy	-10.8733
discard	-10.8734
▁either	-10.8735
ks	-10.8735
Annotated	-10.8738
setType	-10.874
▁round	-10.8743
▁shape	-10.8744
▁keyArea	-10.8746
▁TreeMap	-10.8748
inner	-10.8752
Conditions	-10.8757
Indexes	-10.8761
TER	-10.8762
lt	-10.8764
▁account	-10.8767
[1]);	-10.8771
ii	-10.8773
Side	-10.8775
getInput	-10.8775
▁rest	-10.8775
geometry	-10.8776
SO	-10.8791
Started	-10.8793
▁ca	-10.8794
Publisher	-10.8795
Help	-10.8799
▁localVar	-10.8806
CONFIG	-10.8808
LEVEL	-10.8808
klass	-10.8808
Browser	-10.881
ier	-10.8811
plugin	-10.8816
geom	-10.8818
▁cb	-10.882
=1;	-10.8822
longValue	-10.8823
Subscriber	-10.8825
8)	-10.8826
setColor	-10.883
errorMessage	-10.8832
▁permission	-10.8834
▁"_"	-10.8834
Gr	-10.8834
▁month	-10.8843
Received	-10.8845
There	-10.8851
▁Rectangle	-10.8851
▁stat	-10.8853
Sparse	-10.8854
▁exclude	-10.8855
▁deserialize	-10.8858
▁generator	-10.886
norm	-10.886
▁Color	-10.8862
bo	-10.8863
menu	-10.8864
▁resolver	-10.8865
transport	-10.8868
Invoke	-10.8869
▁--	-10.8872
iz	-10.8874
DBID	-10.8877
Users	-10.8883
BUFFER	-10.8884
JOB	-10.8884
Ratio	-10.8884
Phase	-10.8884
getParam	-10.8894
▁Assert	-10.8895
▁numberOf	-10.8898
Sip	-10.8901
▁labels	-10.8903
advance	-10.8906
▁serializer	-10.8907
window	-10.8911
OAuth	-10.8911
(",");	-10.8912
▁notification	-10.8919
▁stats	-10.8923
matrix	-10.8932
▁what	-10.8933
configure	-10.8943
▁PrintWriter	-10.8946
Windows	-10.8949
layout	-10.8953
quality	-10.8953
▁seq	-10.8956
dc	-10.8958
cloud	-10.896
INTERNAL	-10.896
Sentence	-10.896
phase	-10.896
adaptor	-10.8962
floor	-10.8963
servlet	-10.8966
getConfiguration	-10.897
sink	-10.8976
unregister	-10.898
Projection	-10.8984
tran	-10.8984
...");	-10.8986
▁driver	-10.8988
Checker	-10.8995
Prev	-10.8999
My	-10.9003
Parsed	-10.9004
▁ps	-10.9006
Pid	-10.9012
full	-10.9014
Deleted	-10.9015
cached	-10.9016
setContent	-10.9019
▁constant	-10.9022
▁regex	-10.9025
HOUR	-10.9027
nl	-10.9028
Jobs	-10.9029
Watch	-10.9029
cycle	-10.903
Video	-10.9031
32)	-10.9033
Program	-10.9035
Hook	-10.9036
Executable	-10.9037
Checked	-10.9038
SimpleDateFormat	-10.904
AC	-10.904
Find	-10.9042
▁startTime	-10.9046
getParameters	-10.9051
button	-10.9051
hashCode	-10.9054
▁classpath	-10.9061
▁contents	-10.9069
DN	-10.907
https	-10.9071
▁servlet	-10.9073
Setup	-10.9076
▁delay	-10.9077
lease	-10.9081
Reserved	-10.9081
▁Make	-10.9084
▁replacement	-10.9084
35	-10.9085
▁sample	-10.9089
Units	-10.9089
▁negative	-10.9096
ClassInfo	-10.9097
groupName	-10.9097
▁received	-10.91
offer	-10.9104
Components	-10.9109
▁factor	-10.9111
addParameter	-10.9113
Bottom	-10.9114
Choice	-10.9114
WHERE	-10.9115
transfer	-10.9115
("-	-10.9117
Jdbc	-10.9118
03	-10.9118
▁priority	-10.9124
INode	-10.9129
Shard	-10.9131
▁SQL	-10.9136
perform	-10.9138
mimeType	-10.9139
▁pid	-10.9142
PRE	-10.9143
SE	-10.9144
socket	-10.9145
Redis	-10.9146
ix	-10.9148
pk	-10.9149
diff	-10.9152
▁runtime	-10.9153
)*	-10.9157
vars	-10.9158
▁Mutable	-10.9167
ten	-10.9169
export	-10.9183
getModel	-10.9184
More	-10.919
Place	-10.9191
Cloud	-10.9192
ONLY	-10.9193
DRL	-10.9193
Exchange	-10.9193
logging	-10.9193
ONE	-10.9193
▁otherwise	-10.9193
QualifiedName	-10.9197
fr	-10.9197
▁populate	-10.9211
▁iteration	-10.9214
Providers	-10.9215
▁increment	-10.9217
rel	-10.9218
addresource	-10.9221
home	-10.9222
capacity	-10.9223
qs	-10.9224
sequence	-10.9225
5,	-10.9225
getProject	-10.9226
▁getLog	-10.9232
vec	-10.9233
SS	-10.9239
Gateway	-10.9254
going	-10.9257
declaration	-10.9257
decoded	-10.926
seq	-10.9265
NUM	-10.9265
Creator	-10.9268
QUERY	-10.9271
behavior	-10.9271
COLOR	-10.9272
okhttp	-10.9273
ft	-10.9276
par	-10.928
▁schedule	-10.9287
equal	-10.9296
Urls	-10.9302
dom	-10.9306
monitor	-10.9311
▁JSONException	-10.9318
▁'/'	-10.9318
retval	-10.9321
initial	-10.9322
▁Re	-10.9328
▁strategy	-10.9328
2));	-10.933
:2:	-10.934
▁worker	-10.9341
CmsException	-10.9342
Fallback	-10.9351
▁pipeline	-10.9352
Done	-10.9353
BAD	-10.9354
▁merged	-10.9357
resolved	-10.9358
redirect	-10.936
▁CmsException	-10.936
seek	-10.9364
Acl	-10.9366
▁3;	-10.9375
▁operator	-10.9377
Sent	-10.9378
Singleton	-10.9379
uid	-10.9382
FF	-10.9385
▁forward	-10.9387
metaData	-10.9394
Preferences	-10.9398
▁javax	-10.94
reverse	-10.9401
increment	-10.9405
parsed	-10.941
getAtom	-10.9412
CH	-10.9421
seconds	-10.9425
▁instanceValue	-10.9427
▁means	-10.9431
Promise	-10.9431
('/'	-10.9431
▁monitor	-10.9431
tenant	-10.9431
strict	-10.9435
term	-10.9437
▁ext	-10.9437
ident	-10.9439
▁login	-10.944
()]);	-10.9443
▁Web	-10.9444
getLog	-10.9445
Vec	-10.9452
mt	-10.9457
bp	-10.9462
++){	-10.9475
Threads	-10.9475
proc	-10.9479
httpClient	-10.9481
ann	-10.9483
uc	-10.9486
▁Database	-10.949
▁category	-10.9491
44	-10.9493
dns	-10.9497
Mod	-10.9499
fa	-10.9502
priority	-10.9502
email	-10.9508
SUCCESS	-10.9511
Migration	-10.9511
Procedure	-10.9511
Terminal	-10.9511
Topology	-10.9511
▁necessary	-10.9511
Implementation	-10.9511
NORMAL	-10.9511
ACCESS	-10.9512
half	-10.9512
Meter	-10.9512
▁following	-10.9512
Partial	-10.9512
▁force	-10.9525
getTableName	-10.9525
addresources	-10.9528
▁sentence	-10.9535
newArrayList	-10.9539
▁tail	-10.9539
▁generated	-10.9541
charset	-10.9543
eventType	-10.9547
acl	-10.955
TreeNode	-10.9551
fail	-10.9552
gl	-10.9552
▁expand	-10.9564
▁normalize	-10.9567
▁dump	-10.9573
activate	-10.9578
normalize	-10.9578
actor	-10.958
crc	-10.9582
▁finish	-10.9588
SCREEN	-10.9593
video	-10.9593
CONSTRAINT	-10.9593
DOUBLE	-10.9593
Substitution	-10.9593
▁parsing	-10.9593
▁assume	-10.9593
Csv	-10.9595
rhs	-10.9595
0000	-10.9599
Multimap	-10.9603
BYTES	-10.9607
Tool	-10.9608
Clock	-10.9609
play	-10.962
QueryUtil	-10.9621
▁caller	-10.9623
▁mat	-10.9625
▁configured	-10.9628
General	-10.963
▁It	-10.9632
▁minimum	-10.9633
artifact	-10.9636
encoded	-10.9642
Registered	-10.9646
ml	-10.9647
Nanos	-10.9648
▁oldValue	-10.9653
Closeable	-10.9655
▁Notification	-10.9659
Sid	-10.966
topology	-10.9662
currency	-10.9668
services	-10.9669
attach	-10.9673
Operand	-10.9674
fieldType	-10.9674
ocpDate	-10.9675
Translation	-10.9675
verbose	-10.9675
▁declared	-10.9675
IMAGE	-10.9675
unused	-10.9677
DataManager	-10.9678
deployment	-10.9691
▁initialized	-10.9695
heap	-10.9695
▁'.'	-10.9696
fis	-10.9698
▁canvas	-10.9699
▁md	-10.9705
GC	-10.9716
▁modified	-10.9716
sa	-10.9725
▁throwable	-10.9728
statistics	-10.9738
▁portlet	-10.9739
▁span	-10.9741
^	-10.9742
▁external	-10.9747
lu	-10.9748
Finish	-10.9748
▁fix	-10.9749
Material	-10.9757
CHECK	-10.9757
nt	-10.9757
Handshake	-10.9757
Overlay	-10.9757
addPostParam	-10.9757
android	-10.9758
framework	-10.976
Assertion	-10.976
ServletException	-10.9762
▁bottom	-10.9763
▁"-	-10.9763
WebApplication	-10.9769
52	-10.9771
entityClass	-10.9773
RES	-10.9776
▁Coordinate	-10.9778
▁"%	-10.9779
REST	-10.978
slot	-10.9786
IDs	-10.9787
getModifiers	-10.9787
OPEN	-10.9788
suffix	-10.979
LS	-10.9791
gc	-10.9795
setEnabled	-10.9796
▁TypeToken	-10.9797
notification	-10.9804
ResourceInner	-10.981
cnt	-10.9811
▁issue	-10.9811
▁principal	-10.9812
▁Enumeration	-10.9817
Scheduled	-10.9819
▁operations	-10.982
▁special	-10.9822
EList	-10.9822
▁setter	-10.9824
exp	-10.9826
SAX	-10.9828
invalidate	-10.9838
FULL	-10.984
Shell	-10.9841
family	-10.9841
CLIENT	-10.9841
Flush	-10.9841
Retrieve	-10.9841
▁paint	-10.9841
popup	-10.9842
DateFormat	-10.9842
Defined	-10.9843
Restriction	-10.9844
Membership	-10.9847
dow	-10.9848
▁InternalX	-10.9849
▁Invocation	-10.9851
vm	-10.9852
Apply	-10.9854
dfs	-10.986
pointer	-10.9865
▁rc	-10.9866
500	-10.9874
▁err	-10.9879
getStatusCode	-10.9879
Connections	-10.9879
construct	-10.9883
Added	-10.9886
8:	-10.9889
▁transformer	-10.9889
ver	-10.9891
enter	-10.9891
▁SA	-10.9892
▁datasource	-10.9894
candidate	-10.9895
▁matching	-10.9897
coordinates	-10.9903
▁fn	-10.9911
Classifier	-10.9914
Big	-10.9918
rgb	-10.9922
Extra	-10.9922
Increment	-10.9922
License	-10.9924
DESCRIPTION	-10.9925
Journal	-10.9925
`	-10.9925
Fault	-10.9926
fraction	-10.9926
▁characters	-10.9927
▁due	-10.9928
Bug	-10.9929
27	-10.993
Jsp	-10.9932
bus	-10.9933
fetch	-10.9934
responseFields	-10.9939
sender	-10.9943
▁completed	-10.9947
prepare	-10.9951
ptr	-10.9952
Loading	-10.9952
FromString	-10.9952
Second	-10.9953
▁Short	-10.9955
▁1000	-10.9955
▁swap	-10.9956
]))	-10.9963
▁cf	-10.9963
▁constraint	-10.9963
▁answer	-10.9964
▁Remove	-10.9964
▁SAXException	-10.9971
MessageFormat	-10.9978
hour	-10.9979
▁returned	-10.9981
▁certificate	-10.9981
engine	-10.9982
calendar	-10.9984
registry	-10.9985
▁attrs	-10.9986
success	-10.9989
▁rec	-10.999
fx	-10.9992
LOCAL	-10.9993
▁dot	-10.9995
executeUpdate	-10.9997
codec	-10.9998
SECOND	-11
validation	-11.0005
FormatException	-11.0006
CommercePrice	-11.0007
("</	-11.0008
dp	-11.0009
Numbers	-11.0009
mapped	-11.001
mod	-11.001
tick	-11.0011
▁ApiResponse	-11.0013
nodes	-11.0014
getLocation	-11.0019
Utilities	-11.002
▁hex	-11.0021
[4]	-11.0021
49	-11.0022
getFirstChild	-11.0024
▁fragment	-11.0024
Changes	-11.0024
▁packageName	-11.0024
Jms	-11.0026
▁menu	-11.0027
face	-11.0031
sNext	-11.0034
angle	-11.0034
getDate	-11.0037
▁refresh	-11.0037
▁delimiter	-11.0038
ite	-11.0042
▁16)	-11.0042
apiKey	-11.0049
getIdentifier	-11.005
operationType	-11.0055
▁security	-11.0057
receiver	-11.0058
()+"	-11.0072
dimension	-11.0082
delegate	-11.0083
-8");	-11.0084
launch	-11.0088
delta	-11.009
Curve	-11.0092
Cast	-11.0093
Deserializer	-11.0093
▁acc	-11.0093
OWL	-11.0095
▁MozuUrl	-11.0095
ACTIVE	-11.0095
Quick	-11.0095
SEVERE	-11.0095
registration	-11.0095
Ssl	-11.0097
Feat	-11.0098
Resolution	-11.0098
▁")");	-11.0102
80	-11.0107
xpath	-11.0113
mkdirs	-11.0115
▁dependencies	-11.0125
_0=	-11.0127
printf	-11.0132
getR	-11.0136
Final	-11.0136
contentType	-11.0145
cookie	-11.0146
GrayF	-11.0158
Updates	-11.0161
StringBuffer	-11.0162
arguments	-11.0164
▁whe	-11.0167
interrupt	-11.0172
▁Logger	-11.0174
jcas	-11.0174
Organization	-11.0179
eUnset	-11.0179
history	-11.018
▁gbc	-11.0181
FacesContext	-11.0181
Mapped	-11.0182
dispose	-11.0182
pipeline	-11.0182
vertex	-11.0183
vector	-11.0183
PrivateKey	-11.0188
getCanonicalName	-11.0188
RECORD	-11.0193
▁buff	-11.0198
dao	-11.02
Dist	-11.0204
inline	-11.0204
▁zip	-11.0204
writeAttribute	-11.0206
▁Use	-11.022
Same	-11.0222
▁Note	-11.0229
cmp	-11.0239
Release	-11.0252
Generate	-11.0255
getTitle	-11.0256
LOCK	-11.0264
instant	-11.0267
STYLE	-11.0268
Categories	-11.0268
Chronology	-11.0268
HEIGHT	-11.0268
When	-11.0268
su	-11.0268
▁later	-11.0269
Additional	-11.027
Discovery	-11.0271
▁pd	-11.0274
▁setting	-11.0276
▁selection	-11.0278
▁identity	-11.0278
parameterType	-11.028
spec	-11.0281
XAException	-11.0283
Lower	-11.0283
Atlas	-11.0292
signal	-11.0293
Sources	-11.0293
dbc	-11.03
▁alpha	-11.0317
getImage	-11.0328
▁mod	-11.0331
("/"))	-11.0331
Secure	-11.0332
rawtype	-11.0332
▁NOT	-11.0333
▁cert	-11.0337
loadClass	-11.0342
cr	-11.0342
additional	-11.0345
adapt	-11.0346
dynamic	-11.0353
Hierarchy	-11.0356
ZERO	-11.0356
ancestor	-11.0356
▁members	-11.0364
▁versionId	-11.0365
▁words	-11.0368
▁filters	-11.0369
▁digits	-11.0373
virtual	-11.038
external	-11.0382
▁cos	-11.0383
Replica	-11.0384
evaluate	-11.0385
ru	-11.0386
zero	-11.0387
timestamp	-11.0387
LineString	-11.0389
JarFile	-11.0391
▁geometry	-11.0393
font	-11.0393
46	-11.0401
(1.0	-11.0401
tail	-11.0401
▁Do	-11.0403
Family	-11.0405
▁section	-11.0405
Fix	-11.0409
keyword	-11.041
war	-11.0414
srcOffset	-11.0415
Requested	-11.0419
getDocument	-11.0427
Compute	-11.0429
rand	-11.0431
week	-11.0441
ENCODING	-11.0444
Orientation	-11.0444
association	-11.0444
为	-11.0444
runnable	-11.0444
Google	-11.0444
Negative	-11.0444
Encryption	-11.0445
flip	-11.0445
evt	-11.0448
card	-11.0448
cap	-11.0449
▁waiting	-11.0453
lower	-11.0453
reserved	-11.0454
MSG	-11.0458
▁UUID	-11.046
gp	-11.046
qr	-11.046
ld	-11.0463
▁cs	-11.0467
getReference	-11.047
listFiles	-11.0478
cu	-11.0478
OperationStatus	-11.0479
func	-11.0482
servletContext	-11.0485
missing	-11.0489
43	-11.0489
errors	-11.0492
▁HTTP	-11.0497
Enable	-11.0497
EOF	-11.05
simple	-11.0503
appId	-11.0503
FileStatus	-11.0504
fromJson	-11.0506
Policies	-11.0508
currentValue	-11.0508
36	-11.051
getDouble	-11.0512
MM	-11.0513
▁selector	-11.0514
▁'{}'	-11.0514
getNumberOf	-11.0516
SH	-11.0517
Ordering	-11.0518
Username	-11.0521
Locator	-11.0522
PC	-11.0524
▁enum	-11.0532
Special	-11.0534
lambda	-11.0534
Reflection	-11.0534
Groovy	-11.0534
PUBLIC	-11.0534
rank	-11.0534
Sink	-11.0534
isInfoEnabled	-11.0534
Replacement	-11.0535
▁standard	-11.0551
▁","	-11.0553
nodeId	-11.0562
holder	-11.0563
getQuery	-11.0569
Linked	-11.0573
cv	-11.0581
JsonObject	-11.0588
Requests	-11.0593
(0))	-11.0594
65	-11.0595
refresh	-11.0595
▁0.0)	-11.0601
▁features	-11.0603
▁NULL	-11.0606
▁js	-11.0613
Launch	-11.0616
deploy	-11.0616
compress	-11.0616
Private	-11.0617
ordered	-11.0617
NA	-11.0619
zoom	-11.0621
▁mean	-11.0623
MATCH	-11.0624
Semantic	-11.0624
license	-11.0624
▁above	-11.0624
upload	-11.0624
large	-11.0624
是	-11.0624
RULE	-11.0624
Capture	-11.0624
UTC	-11.0624
ldap	-11.0624
protobuf	-11.0624
Iteration	-11.0626
renderer	-11.0626
▁Parse	-11.0631
JsonArray	-11.0634
Hour	-11.0636
cpDefinition	-11.0639
▁companyId	-11.064
Pairs	-11.0641
workspace	-11.0644
▁needs	-11.0646
References	-11.0648
fo	-11.0653
VM	-11.0659
ratio	-11.0661
NEW	-11.0661
constructor	-11.0666
▁scheme	-11.0669
be	-11.0671
Me	-11.0674
PARENT	-11.0676
izer	-11.0678
Charsets	-11.0678
▁dist	-11.0681
▁assignment	-11.0688
▁exc	-11.0691
getNamespace	-11.0692
▁safe	-11.0692
▁relative	-11.0693
pn	-11.0693
statusCode	-11.0694
toJson	-11.0694
TypeElement	-11.0695
subject	-11.0697
authentication	-11.0699
iterable	-11.0705
Fail	-11.0705
▁candidates	-11.071
▁within	-11.0711
Decimal	-11.0712
calc	-11.0713
kill	-11.0713
argument	-11.0714
Switch	-11.0715
locator	-11.0715
manifest	-11.0715
OUTPUT	-11.0715
sib	-11.0716
anno	-11.0716
ql	-11.0719
rammarAccess	-11.072
INPUT	-11.0721
amount	-11.0726
codePoint	-11.0727
▁sym	-11.073
▁small	-11.073
▁branch	-11.0735
ServletRequest	-11.0752
MenuItem	-11.0754
LocalDateTime	-11.0755
29	-11.076
Acc	-11.0765
Artifacts	-11.0766
accountId	-11.0767
bytesRead	-11.0771
▁dy	-11.0773
▁stage	-11.0778
▁edit	-11.0779
▁permissions	-11.0781
txt	-11.0781
connected	-11.0782
attachment	-11.0785
▁recursive	-11.0785
NodeType	-11.0788
▁Write	-11.0793
serial	-11.0793
WithHttp	-11.0797
fit	-11.0798
▁font	-11.0806
Drop	-11.0806
FIRST	-11.0806
envelope	-11.0806
compareAndSet	-11.0806
wave	-11.0806
▁such	-11.0807
divide	-11.0807
28	-11.0807
Fire	-11.081
Actor	-11.0811
▁contentType	-11.0815
getBean	-11.0816
utf	-11.0817
CL	-11.0817
down	-11.082
track	-11.082
arc	-11.0821
minutes	-11.0822
NotificationImpl	-11.0823
Nav	-11.0824
getError	-11.0824
groups	-11.0824
getSuperclass	-11.0826
Mem	-11.083
▁cc	-11.0834
▁sc	-11.0836
▁depth	-11.0838
90	-11.084
▁Paged	-11.0842
saved	-11.0845
zipFile	-11.0847
▁instances	-11.0851
place	-11.0853
Streams	-11.0854
safe	-11.0858
▁StringWriter	-11.0859
NumberOf	-11.086
isNull	-11.0862
59	-11.0862
▁Security	-11.0863
▁flush	-11.0868
▁components	-11.0869
inst	-11.0875
]");	-11.0879
packages	-11.0887
▁normal	-11.0887
▁async	-11.0892
Epoch	-11.0893
Pdf	-11.0894
symbol	-11.0895
▁packet	-11.0896
Extract	-11.0896
PROJECT	-11.0899
UserSegmentRel	-11.0899
Audio	-11.0899
FLOAT	-11.0899
volume	-11.0899
Bulk	-11.0899
Oracle	-11.0899
ticket	-11.0899
nanoTime	-11.0899
setMax	-11.09
Framework	-11.09
writeByte	-11.0902
JVM	-11.0903
UIComponent	-11.0904
setData	-11.0905
gram	-11.0906
zone	-11.0907
ToAdd	-11.091
resize	-11.091
▁arrays	-11.0912
▁#	-11.0912
▁details	-11.0914
ITEM	-11.0925
("",	-11.0927
OFF	-11.0928
disk	-11.0935
ext	-11.0939
Pro	-11.0942
▁isn	-11.0943
propertyValue	-11.0946
Images	-11.0948
Best	-11.0949
getDeclaredField	-11.0951
getFrom	-11.0959
endTime	-11.0971
way	-11.0971
LayoutParams	-11.0971
▁these	-11.0972
Targets	-11.0972
requires	-11.0973
▁endIndex	-11.0973
>>>()	-11.0975
implement	-11.098
You	-11.098
Need	-11.0983
Repo	-11.0984
getCode	-11.0984
shard	-11.0984
▁sw	-11.0986
getConstructor	-11.099
we	-11.0991
Sibling	-11.0992
findBy	-11.0992
不	-11.0992
RESPONSE	-11.0992
Mutation	-11.0992
Feed	-11.0993
▁integer	-11.0999
Country	-11.0999
Symbols	-11.1001
▁TreeSet	-11.1002
PRO	-11.1009
Configs	-11.1015
Req	-11.1017
Mutable	-11.102
(-1);	-11.1021
loop	-11.1023
DO	-11.1023
booleanValue	-11.1024
pay	-11.1025
Enumeration	-11.1034
▁Comparable	-11.1038
aster	-11.1042
attributeName	-11.1043
▁per	-11.1043
UR	-11.1047
getRow	-11.1048
▁entityType	-11.1051
0.0	-11.1061
Navigation	-11.1065
RM	-11.108
dec	-11.108
Insn	-11.1081
Concept	-11.1087
choose	-11.1087
FRAME	-11.1087
ordinal	-11.1087
Histogram	-11.1087
pageContext	-11.1089
ByteBuf	-11.109
Finished	-11.1097
aw	-11.1098
▁HttpResponse	-11.1099
▁outer	-11.111
▁SDVariable	-11.1115
("}");	-11.1115
>>();	-11.1118
sys	-11.1122
none	-11.1123
▁commerce	-11.1131
beanName	-11.1135
getB	-11.1145
0:	-11.1149
▁clientId	-11.115
Into	-11.1153
identity	-11.1157
Resolve	-11.1158
relationship	-11.1164
PropertyName	-11.1167
httpRequest	-11.1172
▁bound	-11.1172
getRemote	-11.1172
▁strings	-11.1174
>(_	-11.1175
UserInfo	-11.1176
▁EObject	-11.1178
▁-1);	-11.1178
Digit	-11.118
Inventory	-11.1182
anchor	-11.1182
JAVA	-11.1182
Delimiter	-11.1182
Known	-11.1182
broker	-11.1182
Monomer	-11.1182
dot	-11.1186
see	-11.1186
▁sent	-11.1188
bi	-11.1189
accessor	-11.119
("[	-11.1191
SL	-11.1192
conversion	-11.1193
ry	-11.1196
ture	-11.1196
▁cost	-11.1198
getReturnType	-11.1199
CT	-11.1199
Atomic	-11.12
▁seed	-11.12
▁attributeName	-11.1202
▁assign	-11.1206
Dirs	-11.1212
▁currently	-11.1215
▁panel	-11.122
coll	-11.1222
constraint	-11.1224
isEnabled	-11.1226
Dep	-11.1232
resourceId	-11.1232
CmsProperty	-11.1233
sf	-11.1234
getApp	-11.1235
▁maybe	-11.1235
shift	-11.1243
datastore	-11.1244
▁IAtom	-11.125
escaped	-11.1252
▁snapshot	-11.1256
Atoms	-11.1257
Week	-11.1258
ge	-11.1258
columnName	-11.126
readLock	-11.1261
ng	-11.1261
▁checksum	-11.1262
Alignment	-11.1264
CO	-11.1265
5);	-11.1267
▁bitmap	-11.1271
revision	-11.1272
detect	-11.1275
Replication	-11.1275
eq	-11.1275
Malformed	-11.1276
INFINITY	-11.1278
INTEGER	-11.1278
summary	-11.1278
SCOPE	-11.1278
leaf	-11.1278
patch	-11.1278
secure	-11.1278
MENT	-11.1279
billingAccount	-11.1279
QueryResult	-11.1281
Subnet	-11.1284
sorted	-11.1284
▁graphics	-11.1285
("\"	-11.1288
▁chart	-11.1293
▁based	-11.1294
parseLong	-11.1299
dx	-11.1302
NodeData	-11.1304
Terms	-11.1304
bs	-11.1306
▁StringTokenizer	-11.1307
Hosts	-11.1309
direction	-11.1317
ical	-11.1318
▁compiler	-11.1318
▁instantiate	-11.1323
Edges	-11.1326
withParam	-11.1327
Classpath	-11.1328
MPSString	-11.1336
Indent	-11.1338
getRaw	-11.1338
getOffset	-11.1345
▁spec	-11.1348
RGB	-11.1353
TODO	-11.1358
encrypt	-11.1365
Mouse	-11.137
▁blocks	-11.1371
▁Random	-11.1372
SUFFIX	-11.1375
Tenant	-11.1375
DMatrixRMaj	-11.1375
handshake	-11.1375
REFERENCE	-11.1375
▁ifNoneMatch	-11.1375
Radius	-11.1375
slice	-11.1375
click	-11.1375
Setter	-11.1376
Reg	-11.1377
MalformedURL	-11.1377
hole	-11.1381
▁times	-11.1384
PhoneNumber	-11.1386
("&	-11.1386
▁your	-11.1391
▁getter	-11.1393
IM	-11.1394
▁ok	-11.1394
▁collect	-11.1397
Ident	-11.1401
gis	-11.1409
days	-11.1413
Indexed	-11.1413
SiteRoot	-11.1417
ready	-11.1417
cos	-11.1419
BLOCK	-11.1421
▁Transformer	-11.1422
logical	-11.1424
Equal	-11.1429
nodeName	-11.1439
ZipFile	-11.1439
▁dep	-11.1445
ever	-11.1453
que	-11.1455
isArray	-11.1456
eNotification	-11.1458
[2];	-11.1465
bottom	-11.1466
Temporal	-11.1473
Money	-11.1473
CHANNEL	-11.1473
pAddParam	-11.1473
Two	-11.1473
closeQuietly	-11.1474
grant	-11.1474
Exclude	-11.1475
▁common	-11.1475
cannot	-11.1475
formatted	-11.148
▁','	-11.1483
Tracking	-11.1485
failure	-11.1486
Classification	-11.1495
bmd	-11.1506
▁Predicate	-11.1508
▁del	-11.1509
▁2.0	-11.1512
▁1:	-11.1512
▁CLASS	-11.1518
elm	-11.1518
ServiceName	-11.152
▁Void	-11.1524
terms	-11.1531
tuple	-11.1537
Records	-11.1542
▁primitive	-11.1546
▁mc	-11.1546
eak	-11.1551
Go	-11.1554
getCms	-11.1557
▁cr	-11.1559
Animator	-11.1561
qu	-11.1562
RESULT	-11.1563
▁even	-11.1569
▁reach	-11.1569
SPACE	-11.1569
isAnnotation	-11.157
6:	-11.157
▁MessageDigest	-11.1571
txn	-11.1571
xid	-11.1571
PA	-11.1572
qualifier	-11.1572
▁DOM	-11.1576
▁ssl	-11.1578
DocumentBuilder	-11.1579
TRACE	-11.1579
EDataType	-11.1584
DD	-11.1584
unique	-11.1591
perm	-11.1594
▁2]	-11.1597
TypeInfo	-11.1599
AD	-11.1602
getTotal	-11.1604
▁outputStream	-11.1606
▁visible	-11.1608
▁adjust	-11.1609
Coordinates	-11.1612
GenericType	-11.1614
▁upload	-11.1619
▁appro	-11.162
▁pt	-11.1625
▁define	-11.1628
getAction	-11.1632
▁capacity	-11.1634
Syntax	-11.1641
attrName	-11.1644
getSub	-11.1645
lines	-11.1658
▁invocation	-11.1659
2*	-11.1659
UCH	-11.1664
Decode	-11.1666
aggregate	-11.167
decimal	-11.1671
Already	-11.1672
eIsSet	-11.1672
SYSTEM	-11.1672
Tail	-11.1672
TEMPLATE	-11.1672
Embedded	-11.1672
▁LinkedHashSet	-11.1672
browser	-11.1672
CENTER	-11.1672
rotation	-11.1673
runner	-11.1673
▁download	-11.1674
hasMore	-11.1677
▁processed	-11.1679
associated	-11.1681
getUrl	-11.1683
getStyle	-11.1685
Partitions	-11.1686
addAttribute	-11.1687
repository	-11.1693
bl	-11.1698
:9:	-11.1699
parameterIndex	-11.1699
LAST	-11.17
PS	-11.1702
tracker	-11.1702
Se	-11.1706
dump	-11.1707
closest	-11.1711
▁appId	-11.1715
▁positive	-11.1716
spaceId	-11.1721
formatUrl	-11.1726
setRequest	-11.1729
Concurrent	-11.1736
VIEW	-11.174
▁partial	-11.1745
classLoader	-11.1748
predicate	-11.1749
rename	-11.1756
FileUtils	-11.1756
tagName	-11.176
generated	-11.176
href	-11.1761
dependent	-11.1761
neighbor	-11.1762
roll	-11.1762
disconnect	-11.1766
GVR	-11.1773
FAILURE	-11.1773
▁occurred	-11.1773
SCHEMA	-11.1774
directive	-11.1774
▁userName	-11.1775
mult	-11.1775
Jcr	-11.1778
KeyStore	-11.1779
Anno	-11.178
getDatabase	-11.1781
visited	-11.1781
locations	-11.1783
▁widget	-11.1784
Pr	-11.1788
producer	-11.1789
AccessToken	-11.1798
NOTE	-11.18
solution	-11.1802
の	-11.1804
closed	-11.1808
Under	-11.1809
extend	-11.181
Loaded	-11.181
css	-11.1812
private	-11.1817
Band	-11.1825
▁box	-11.1828
CacheKey	-11.1835
cn	-11.1842
▁rel	-11.1845
Initialize	-11.1849
unset	-11.1853
▁startIndex	-11.1857
Interfaces	-11.1858
successful	-11.1861
MINUTE	-11.1866
Allow	-11.1866
links	-11.1866
Unicode	-11.1869
Wrap	-11.1875
slash	-11.1875
Shutdown	-11.1875
world	-11.1875
LoadBalancer	-11.1875
library	-11.1875
accumulator	-11.1875
Between	-11.1875
JDBC	-11.1875
数	-11.1875
Rank	-11.1875
CONNECTION	-11.1875
baos	-11.1875
Placeholder	-11.1875
ResourceAsStream	-11.1875
Zoom	-11.1876
placeholder	-11.1876
FACTORY	-11.1877
▁0.5	-11.188
getEvent	-11.188
▁segments	-11.1881
▁inside	-11.1882
JavaScript	-11.1884
WithAnnotations	-11.1886
cookies	-11.1892
BufferedWriter	-11.1892
lineNumber	-11.1894
=%	-11.1898
getLabel	-11.1899
▁matched	-11.1902
Reporter	-11.1903
▁padding	-11.1908
PropertyType	-11.1909
ord	-11.1912
ous	-11.1918
bos	-11.1921
▁jedis	-11.1929
isPrimitive	-11.1929
mail	-11.1931
Duplicate	-11.1934
▁userId	-11.1937
panel	-11.1937
timer	-11.1939
getAs	-11.1939
eSet	-11.1949
her	-11.1949
bound	-11.1958
account	-11.1959
isFile	-11.196
▁8;	-11.1962
Prepare	-11.1966
TypeVariable	-11.1967
getJob	-11.197
mb	-11.1972
VALUES	-11.1973
Clean	-11.1973
signed	-11.1975
▁tasks	-11.1978
Comparison	-11.1978
TARGET	-11.1978
supplier	-11.1978
CONFIGURATION	-11.1978
▁MojoExecution	-11.1979
META	-11.1979
Authority	-11.1979
unicode	-11.1979
▁1024	-11.1982
stub	-11.1982
ClientException	-11.1987
Iterate	-11.1989
▁fallback	-11.199
▁calling	-11.1993
objectClass	-11.1994
IL	-11.1996
Dim	-11.1996
eNotify	-11.1996
▁jsonObject	-11.1998
Primary	-11.2002
ai	-11.2003
guid	-11.2007
Estimate	-11.201
getAddress	-11.2011
▁temporary	-11.2013
calculate	-11.2014
53	-11.2018
▁WS	-11.2022
getValues	-11.2025
!",	-11.2026
Force	-11.2028
▁seen	-11.2028
Removed	-11.2029
issuer	-11.2037
excluded	-11.2037
▁low	-11.2039
▁scanner	-11.2043
beta	-11.2044
▁grid	-11.2055
progress	-11.2056
09	-11.2058
▁usage	-11.2059
▁ts	-11.2062
helper	-11.2063
StrUtil	-11.2064
pending	-11.2065
Initialized	-11.2066
managed	-11.2066
running	-11.207
cross	-11.2071
getBody	-11.2072
Sdk	-11.2075
getOptions	-11.2076
Hadoop	-11.2083
BEGIN	-11.2083
Deferred	-11.2083
broadcast	-11.2083
▁creating	-11.2083
▁Otherwise	-11.2083
Enforcer	-11.2083
FacesConfig	-11.2083
Gradient	-11.2083
Compression	-11.2083
Mock	-11.2083
Texture	-11.2086
outputFile	-11.2088
gson	-11.2089
SortedSet	-11.2092
stat	-11.2093
OrderBy	-11.2093
▁itself	-11.2093
interrupted	-11.2094
Mo	-11.2097
retry	-11.2097
▁tab	-11.2102
▁basic	-11.2102
GEN	-11.2108
setTime	-11.211
▁master	-11.2113
att	-11.2116
getDeclared	-11.2116
sin	-11.2124
▁embedded	-11.2126
beanClass	-11.2131
ApiException	-11.2134
▁databaseName	-11.2142
Trie	-11.2147
ke	-11.2147
▁br	-11.2149
dataset	-11.215
▁tolerance	-11.2152
("{}	-11.2152
~	-11.216
▁problem	-11.2162
▁dx	-11.2164
ou	-11.217
Visibility	-11.217
▁fast	-11.217
selection	-11.2171
ACL	-11.2177
author	-11.2179
boot	-11.2179
acquire	-11.218
static	-11.2183
BIT	-11.2184
▁require	-11.2186
audio	-11.2187
Queries	-11.2187
Volume	-11.2188
parallel	-11.2188
Canvas	-11.2188
Lambda	-11.2188
Temporary	-11.2188
▁leaving	-11.2188
INTERVAL	-11.2188
Keep	-11.2188
decrypt	-11.2189
DAO	-11.219
Exist	-11.2193
&=	-11.2202
+1]	-11.2207
vserver	-11.221
}";	-11.2211
QR	-11.2211
▁less	-11.2211
SequenceNumber	-11.2215
hex	-11.2217
filePath	-11.2222
resolver	-11.2224
98	-11.2226
done	-11.2228
▁peer	-11.2229
__0	-11.2239
▁draw	-11.2243
▁replica	-11.2244
DOT	-11.2244
idle	-11.2246
","	-11.2247
Helpers	-11.2247
Caller	-11.2249
Ticket	-11.225
56	-11.225
events	-11.2253
▁home	-11.2255
▁agent	-11.2257
▁trying	-11.2258
ged	-11.2262
Readable	-11.2265
ChangeEvent	-11.2267
dic	-11.2267
getPage	-11.2272
cut	-11.2276
>"	-11.2286
Low	-11.2289
▁history	-11.2291
SARL	-11.2292
Compact	-11.2294
corner	-11.2294
Spatial	-11.2294
Payment	-11.2294
completion	-11.2294
vaultBaseUrl	-11.2294
Dialect	-11.2294
nz	-11.2295
getView	-11.2295
boundary	-11.2296
deep	-11.23
Inbound	-11.2301
algorithm	-11.2302
Ranges	-11.2302
vpn	-11.2307
dy	-11.2307
BitSet	-11.231
Soy	-11.2313
/**	-11.2314
coords	-11.2315
▁expect	-11.2319
dict	-11.2323
DefinitionInner	-11.2324
▁connections	-11.2334
▁dt	-11.2335
Cor	-11.2344
=\""	-11.2345
await	-11.235
ient	-11.235
▁FFDC	-11.235
▁KeyStore	-11.2358
▁visitor	-11.2359
combine	-11.2361
Inputs	-11.2367
period	-11.2373
▁Find	-11.2374
getTimestamp	-11.2377
▁closure	-11.2379
WebElement	-11.2385
methods	-11.2385
using	-11.2386
(4);	-11.2392
▁inputs	-11.2392
increase	-11.2395
each	-11.24
DM	-11.24
Should	-11.2402
Aggregation	-11.2402
Corner	-11.2402
Horizontal	-11.2402
Datum	-11.2402
TITLE	-11.2402
Jedis	-11.2402
upgrade	-11.2402
OptionRel	-11.2404
environment	-11.2407
Many	-11.2408
▁localName	-11.2415
▁':'	-11.2416
Initializer	-11.2416
transformation	-11.242
Spi	-11.2422
▁retVal	-11.2425
ChangeListener	-11.2425
backup	-11.2425
▁entities	-11.2426
▁Don	-11.2427
verify	-11.2428
STR	-11.2434
Buckets	-11.2435
getEntry	-11.2436
▁jarFile	-11.2436
CastException	-11.244
StartTime	-11.2442
Git	-11.2444
▁person	-11.2451
▁install	-11.2452
blocking	-11.2459
setVisible	-11.246
assigned	-11.2461
(".")	-11.2463
credentials	-11.2466
▁subscription	-11.2468
-1,	-11.2471
ities	-11.2472
ErrorMessage	-11.2473
Dto	-11.2475
Evaluator	-11.2475
converter	-11.2476
InMillis	-11.2486
▁loaded	-11.2488
▁let	-11.249
ian	-11.2493
Cl	-11.2495
isIn	-11.2496
deserialize	-11.2497
Functions	-11.2501
getChannel	-11.2503
BOOLEAN	-11.251
Slash	-11.251
composite	-11.251
writing	-11.251
▁druidG	-11.251
WEB	-11.251
LOCATION	-11.251
payment	-11.2511
Clone	-11.2511
isInstance	-11.2517
LF	-11.2522
▁most	-11.2523
Fill	-11.2527
▁starting	-11.2528
timezone	-11.2529
pause	-11.2532
WithHeaders	-11.2533
getRef	-11.2534
MB	-11.2534
▁checked	-11.2535
signature	-11.2536
Identifiers	-11.2537
coordinate	-11.2539
▁~	-11.2539
lab	-11.2544
PdfName	-11.2547
numberOf	-11.2547
PR	-11.2548
▁getOrCreate	-11.255
agent	-11.255
PM	-11.2551
▁track	-11.2556
para	-11.2556
JSONArray	-11.2558
▁consume	-11.2559
readResource	-11.2561
▁plan	-11.2567
issues	-11.2571
▁border	-11.258
▁specific	-11.2585
baseUrl	-11.2591
defaultValue	-11.2592
PK	-11.2592
geo	-11.2597
ANY	-11.2598
IVE	-11.2599
Inclusive	-11.2602
eat	-11.2603
meter	-11.2603
propName	-11.2604
Share	-11.2606
Backend	-11.2609
absolute	-11.2613
Slots	-11.2615
ade	-11.2615
Idle	-11.2616
Updater	-11.2617
Aggregator	-11.2618
hook	-11.2619
Maven	-11.2619
ARGUMENT	-11.262
Answer	-11.262
Alpha	-11.262
Amazon	-11.262
queries	-11.262
Kernel	-11.262
LABEL	-11.262
promise	-11.262
▁dim	-11.2623
DEV	-11.2627
Buffers	-11.2629
▁coreType	-11.263
Watermark	-11.263
▁IOUtils	-11.2631
Theme	-11.2632
▁middle	-11.2632
vert	-11.2635
▁dimensions	-11.2636
isEvent	-11.2637
findAll	-11.264
selector	-11.264
▁RemoteException	-11.2642
Tier	-11.2645
STORE	-11.2646
backend	-11.2647
▁offsets	-11.2652
▁helper	-11.2653
Counts	-11.2654
Weights	-11.2655
▁DTM	-11.2655
lowerBound	-11.2657
▁isValid	-11.2659
NextToken	-11.266
keyStore	-11.2661
▁greater	-11.2662
▁construct	-11.2665
▁filePath	-11.2666
PAREN	-11.2669
HttpResponse	-11.2672
▁credential	-11.2672
▁'\\'	-11.2673
border	-11.2676
supports	-11.2676
reply	-11.268
getSchema	-11.2685
background	-11.2685
▁written	-11.2686
alg	-11.2691
Stored	-11.2694
getTypeName	-11.2695
getF	-11.2697
setS	-11.2703
Notify	-11.2714
au	-11.2714
▁fld	-11.2714
unmodifiable	-11.2715
54	-11.2719
ACC	-11.2721
▁Comparator	-11.2722
ClassNode	-11.2723
CLOSE	-11.2725
mer	-11.2726
common	-11.273
▁XMLStream	-11.273
Wave	-11.273
COMMA	-11.2731
guess	-11.2731
multiply	-11.2731
TRANSACTION	-11.2731
BetaApi	-11.2732
Preview	-11.2733
userId	-11.2734
▁threshold	-11.274
dispatcher	-11.2743
ObjectMapper	-11.2747
asString	-11.2752
light	-11.2758
entities	-11.2763
exclude	-11.2765
▁atoms	-11.2765
ops	-11.2772
Pages	-11.2776
union	-11.2777
▁threads	-11.2778
setParent	-11.278
▁big	-11.2781
ElementType	-11.2784
Eval	-11.2786
▁kernel	-11.279
fully	-11.2793
▁stored	-11.2794
FileReader	-11.2794
finish	-11.2798
UserId	-11.28
Dns	-11.2801
Updated	-11.2802
▁bs	-11.2803
bonds	-11.2807
unknown	-11.2807
>>>>()	-11.2811
DTM	-11.2814
Literals	-11.2822
▁difference	-11.283
▁TRACE	-11.2836
▁redirect	-11.2837
Recovery	-11.2838
install	-11.2841
RI	-11.2842
keystore	-11.2842
Coding	-11.2842
lazy	-11.2843
▁area	-11.2843
Azure	-11.2843
incoming	-11.2843
Arc	-11.2843
compound	-11.2844
Hierarchical	-11.2844
CONTROL	-11.2844
Ledger	-11.2844
Activation	-11.2844
LINK	-11.2844
Adjustment	-11.2844
pull	-11.2844
JsonElement	-11.2844
putIfAbsent	-11.2846
Locations	-11.2847
setCurrent	-11.2847
▁mappings	-11.2847
▁nested	-11.2849
ill	-11.2852
XAResource	-11.2852
upperBound	-11.2856
Attrs	-11.286
Sender	-11.2863
onError	-11.2869
▁indexes	-11.287
blue	-11.2873
lon	-11.2877
DT	-11.2878
isTrace	-11.2884
Stmt	-11.2884
overwrite	-11.2892
DBException	-11.2893
63	-11.2893
Packages	-11.2894
Loc	-11.2907
▁cfg	-11.2911
Fl	-11.2912
TimeUnit	-11.2913
setup	-11.2917
align	-11.2921
wd	-11.2921
▁Logging	-11.2925
setString	-11.2929
unexpected	-11.2932
▁thrown	-11.2934
▁backup	-11.2935
delay	-11.2936
decl	-11.2939
radius	-11.2941
▁example	-11.2948
FLAG	-11.2948
Grant	-11.2949
require	-11.295
99	-11.295
▁jobId	-11.2952
Thrift	-11.2957
TierPriceEntry	-11.2957
machine	-11.2957
▁anything	-11.2957
OPERATION	-11.2957
preferred	-11.2957
snmp	-11.2958
HttpSession	-11.2958
routing	-11.2958
Unchecked	-11.2958
optional	-11.2958
Draw	-11.2959
bc	-11.296
▁asset	-11.2961
decoder	-11.2961
Restore	-11.2963
▁actually	-11.2964
factor	-11.2966
▁bi	-11.2967
trie	-11.2967
Mac	-11.2969
URISyntax	-11.2971
96	-11.2975
BoundingBox	-11.298
openConnection	-11.2987
"})	-11.2991
ServiceInterface	-11.2991
▁rev	-11.2991
▁exceptions	-11.2993
1.1	-11.2994
Descriptors	-11.2999
pad	-11.3004
▁prevent	-11.3011
-----------	-11.3013
Templates	-11.3019
Leaf	-11.3024
newLine	-11.3028
problems	-11.3049
rl	-11.3052
▁pointer	-11.3052
filters	-11.306
AtomContainer	-11.3065
▁generic	-11.307
Popup	-11.3072
Suite	-11.3072
Explicit	-11.3072
▁correspond	-11.3072
Utf	-11.3072
Coord	-11.3073
▁how	-11.3073
Exact	-11.3074
phoneNumber	-11.3074
NAMESPACE	-11.3075
callable	-11.3077
MILLIS	-11.3079
Signal	-11.3079
tip	-11.3081
▁drop	-11.3083
CREATED	-11.3084
▁indices	-11.3084
▁exchange	-11.3085
pid	-11.3088
mean	-11.3095
_0));	-11.3099
outputStream	-11.31
▁sin	-11.3102
parameterName	-11.3103
mc	-11.3105
ARG	-11.3107
85	-11.3119
pageSize	-11.312
Then	-11.3123
FL	-11.3123
Issuer	-11.3124
Reduce	-11.3126
LastModified	-11.3126
pane	-11.3129
std	-11.3129
42	-11.3129
▁compressed	-11.3131
isStatic	-11.3142
ApiKey	-11.3147
attributeValue	-11.3156
getLanguage	-11.3158
Tran	-11.3162
▁checking	-11.3167
exc	-11.3174
watch	-11.3177
locate	-11.3178
Ws	-11.3187
Recursive	-11.3187
Machine	-11.3188
creation	-11.3188
▁CmsUUID	-11.3188
EXTENSION	-11.3189
FOLDER	-11.3189
QUOTE	-11.3189
Reliability	-11.3189
▁something	-11.3189
EXPRESSION	-11.3189
Routing	-11.3189
CommerceDiscount	-11.3189
alignment	-11.3189
letter	-11.319
SIGN	-11.3192
CSV	-11.3193
Notation	-11.3194
Offer	-11.3198
▁primaryKey	-11.3199
RESULTS	-11.32
▁mid	-11.3202
▁Convert	-11.3202
lot	-11.3205
cleanup	-11.3207
Joiner	-11.3209
Connected	-11.3211
side	-11.3211
Formats	-11.3214
PrintWriter	-11.3214
OVER	-11.3215
Was	-11.3217
notation	-11.3218
ind	-11.3219
drawer	-11.3222
clean	-11.3223
getCount	-11.3223
▁ii	-11.3224
archive	-11.3225
▁disabled	-11.3226
deviceName	-11.3226
▁BpsimPackage	-11.3228
▁secret	-11.3229
used	-11.323
KeyField	-11.3231
setSelected	-11.3231
logp	-11.3237
▁interfaces	-11.3237
InputSource	-11.3238
▁rm	-11.3238
subList	-11.3239
best	-11.3241
amp	-11.3241
tempFile	-11.3242
changed	-11.3243
▁polygon	-11.3249
▁Ignore	-11.325
▁targetClass	-11.326
▁loading	-11.3266
fn	-11.3266
obs	-11.3272
EE	-11.3273
Sq	-11.3276
scheduled	-11.3278
pin	-11.3279
▁reverse	-11.328
pq	-11.3283
▁buffers	-11.3286
97	-11.3288
dep	-11.3288
Breakpoint	-11.3289
cli	-11.3293
Aggregate	-11.3293
▁writeW	-11.3293
Scene	-11.3294
Hours	-11.3294
exiting	-11.3295
Volt	-11.3303
analysis	-11.3303
Phrase	-11.3304
Physical	-11.3304
CDK	-11.3305
ML	-11.3305
program	-11.3305
PORT	-11.3306
▁occur	-11.3306
Parallel	-11.3306
IGNORE	-11.3306
PACKAGE	-11.3306
leave	-11.3306
SDK	-11.3306
stopped	-11.3306
Initialization	-11.3307
created	-11.331
reportError	-11.3315
asset	-11.3324
CommonTree	-11.3324
columnIndex	-11.3327
Quote	-11.333
++,	-11.3334
EntityMetadata	-11.3335
▁provide	-11.3335
soft	-11.3336
assignment	-11.3341
61	-11.3343
git	-11.3343
▁unknown	-11.3345
▁email	-11.3346
principal	-11.3346
EX	-11.3347
getExtension	-11.3349
▁iterable	-11.3349
deriv	-11.3349
ithIndent	-11.3351
getRuntime	-11.3357
Triple	-11.3362
▁serialized	-11.3363
sample	-11.3365
getDimension	-11.3369
2))	-11.3369
▁disable	-11.337
EndPoint	-11.3379
nr	-11.3382
▁cmp	-11.3385
('\	-11.339
getApi	-11.3391
beans	-11.3391
Encode	-11.3396
="+	-11.3397
HttpStatus	-11.3397
der	-11.3401
Sig	-11.3404
ber	-11.3405
NetworkInterface	-11.3406
appName	-11.3412
▁partitions	-11.3415
▁inter	-11.3418
></	-11.3419
▁Gr	-11.3419
Rectangle	-11.3419
tm	-11.3421
Tracing	-11.3422
Construct	-11.3423
16)	-11.3423
▁currentNode	-11.3425
DataStore	-11.3425
explicit	-11.3425
EXCEPTION	-11.3425
equivalent	-11.3425
ANNOTATION	-11.3425
DeclaringClass	-11.3425
Maybe	-11.3425
DDRM	-11.3425
BEAN	-11.3426
Injector	-11.3427
Bo	-11.3427
▁handled	-11.3429
CASE	-11.3432
ending	-11.3432
-1;	-11.3433
ht	-11.3434
[0])	-11.3435
▁dataSource	-11.3438
fmt	-11.3446
projection	-11.3451
Monitoring	-11.3452
player	-11.3454
CmsResourceType	-11.3455
76	-11.346
expire	-11.3462
Ca	-11.3463
Offsets	-11.347
PolicyRequest	-11.347
moveTo	-11.3473
DESC	-11.3477
imag	-11.3482
kernel	-11.3483
scheme	-11.3485
AST	-11.3485
modified	-11.3486
cipher	-11.3488
plan	-11.3492
▁proto	-11.3496
Binder	-11.3499
pub	-11.35
Sh	-11.3501
marker	-11.3504
▁receive	-11.3507
▁marker	-11.3509
▁mv	-11.3511
CmsContainer	-11.3515
▁side	-11.3527
byteBuffer	-11.3528
high	-11.3531
getSymbol	-11.3533
▁See	-11.3533
JSType	-11.3538
CPInstance	-11.3542
replication	-11.3545
hadoop	-11.3546
Must	-11.3546
HOST	-11.3546
nd	-11.3546
Plus	-11.3546
getUri	-11.3546
REMOVE	-11.3546
Func	-11.3547
ceil	-11.3548
1=	-11.3548
team	-11.3548
getSelected	-11.3549
Unavailable	-11.3549
ZIP	-11.355
PackageName	-11.3551
Net	-11.3553
▁really	-11.3555
▁tables	-11.3561
Probe	-11.3561
▁scheduler	-11.3564
▁many	-11.3567
128	-11.3568
▁ModelNode	-11.3571
getCommand	-11.3571
month	-11.3574
▁angle	-11.3575
resourceName	-11.3577
!"	-11.3584
modifier	-11.3585
▁fixed	-11.3586
EM	-11.3586
dup	-11.3591
sax	-11.3592
visible	-11.3594
executeQuery	-11.3597
▁reply	-11.3603
DBObject	-11.3621
repo	-11.3626
delimiter	-11.3627
secret	-11.3627
depth	-11.3627
operator	-11.3627
modifiers	-11.3628
▁annotated	-11.3634
MXBean	-11.3639
spi	-11.364
▁Pdf	-11.3654
led	-11.3657
Now	-11.3657
authenticate	-11.3658
InputType	-11.3661
▁precision	-11.3661
currentTime	-11.3663
getContainer	-11.3663
cont	-11.3664
WORD	-11.3666
High	-11.3667
▁JS	-11.3667
serialization	-11.3668
Upgrade	-11.3668
heartbeat	-11.3668
Sketch	-11.3668
Synchronization	-11.3668
blank	-11.3668
dialect	-11.3668
▁EFapsException	-11.3668
blob	-11.3669
related	-11.3669
assign	-11.3669
ability	-11.367
Exec	-11.367
InternalSARL	-11.3671
▁their	-11.3672
Expired	-11.3675
Channels	-11.3676
RequestMethod	-11.3678
▁below	-11.368
▁native	-11.3681
drawable	-11.3686
▁extensions	-11.3687
▁ss	-11.3689
▁collector	-11.369
getCluster	-11.369
StateHandle	-11.3692
Prefixes	-11.3697
getFormatted	-11.3697
getPartition	-11.3697
HS	-11.3702
SIMP	-11.3702
atoms	-11.3705
Arns	-11.3708
JsonNode	-11.3709
▁pad	-11.3711
basePath	-11.3713
(1));	-11.3715
TextField	-11.3716
Grammar	-11.372
Health	-11.372
▁bootstrap	-11.3725
initialized	-11.3726
registered	-11.3727
▁cols	-11.373
FORM	-11.3741
lifecycle	-11.3742
Flat	-11.3744
vis	-11.3744
Starting	-11.3762
CF	-11.3765
rr	-11.3766
platform	-11.3766
exchange	-11.3767
orig	-11.3771
companyId	-11.3772
▁cleanup	-11.3773
▁strip	-11.3779
centroid	-11.378
ToFile	-11.3785
master	-11.3787
Ajax	-11.379
PROCESS	-11.379
Jinx	-11.379
▁nvae	-11.379
highLowContainer	-11.3791
Alarm	-11.3791
False	-11.3791
VISIBLE	-11.3791
PRIORITY	-11.3791
WINDOW	-11.3791
Determine	-11.3791
alarm	-11.3791
EOL	-11.3791
SCRIPT	-11.3791
series	-11.3791
respond	-11.3792
FINEST	-11.3792
Compat	-11.3794
fetchBy	-11.3798
CLOSED	-11.3799
raf	-11.38
ClassDescriptor	-11.38
AttributeName	-11.3802
gene	-11.3805
isTrue	-11.3807
getMethods	-11.3811
addProperty	-11.3813
entityId	-11.3819
Dot	-11.3825
semantics	-11.3828
Tmp	-11.3829
▁conditions	-11.3836
stringBuilder	-11.3837
▁'/')	-11.3843
▁pm	-11.3848
isClosed	-11.3855
convertTo	-11.3855
>0)	-11.3858
disable	-11.3861
management	-11.3867
▁repeat	-11.3868
▁propName	-11.3869
classInfo	-11.387
▁references	-11.3871
getFeature	-11.3873
mime	-11.3879
ug	-11.388
["	-11.3882
character	-11.3883
blockLength	-11.3888
addStatement	-11.389
▁So	-11.389
containing	-11.3893
▁choice	-11.3901
doPrivileged	-11.3905
du	-11.3908
Dispatch	-11.391
JAXB	-11.3915
Tools	-11.3916
Micro	-11.3916
Possible	-11.3916
ALIGN	-11.3916
observable	-11.3916
CmsXmlContent	-11.3916
▁better	-11.3916
▁duplicate	-11.3917
swing	-11.3919
workflow	-11.3919
structure	-11.3919
Insets	-11.3921
getProtocol	-11.3922
specification	-11.3922
putInt	-11.3924
projectIdOrPath	-11.3924
Disabled	-11.3924
▁via	-11.3925
screen	-11.3929
▁conversation	-11.393
IBond	-11.3932
getShort	-11.3933
Invoker	-11.394
▁platform	-11.3942
▁finished	-11.3944
insets	-11.3944
Afp	-11.3946
▁contentLength	-11.3947
▁xa	-11.3953
Contain	-11.3954
ResponseInner	-11.3958
customer	-11.3958
Absolute	-11.3959
getting	-11.3964
123	-11.3964
▁translate	-11.3965
appender	-11.3967
▁Now	-11.3968
▁parentNode	-11.3969
Patterns	-11.3971
▁numeric	-11.3971
▁dataset	-11.3972
readOnly	-11.3973
was	-11.3977
csv	-11.3978
▁records	-11.3979
QueryParam	-11.398
TYPES	-11.3981
▁"\\	-11.3982
ump	-11.3988
IRI	-11.3991
RequestBody	-11.3993
▁known	-11.3994
getToken	-11.4003
Plain	-11.4007
hm	-11.4009
Cap	-11.401
bounds	-11.401
channels	-11.4012
caption	-11.4012
ka	-11.4013
AttributeType	-11.4016
Serial	-11.402
throwable	-11.4025
analyze	-11.403
startup	-11.4032
Predicates	-11.4033
Expand	-11.4035
VO	-11.4039
byteArray	-11.4039
AUTH	-11.4042
Voice	-11.4042
CURRENT	-11.4043
GitLabApi	-11.4043
SINGLE	-11.4043
decorator	-11.4043
vertices	-11.4043
population	-11.4043
iFieldSeq	-11.4043
▁virtualNetwork	-11.4043
Raid	-11.4043
Percent	-11.4043
▁successfully	-11.4043
▁directly	-11.4043
▁AssertionError	-11.4043
Multipart	-11.4044
Directive	-11.4044
▁executeDescribe	-11.4047
resume	-11.4048
JPA	-11.4048
strCommand	-11.405
recycle	-11.4054
▁4);	-11.4056
:5:	-11.4056
▁constraints	-11.4056
▁executeGet	-11.4056
scaled	-11.4057
shared	-11.4057
ROLE	-11.4059
PARAMETERS	-11.4065
hr	-11.4065
bitmap	-11.4067
Reload	-11.4067
qPos	-11.4073
adapter	-11.4074
CPDefinitionId	-11.4081
executorService	-11.4083
ElementException	-11.4097
BufferSize	-11.4098
Minutes	-11.4098
CON	-11.41
ErrorException	-11.4103
async	-11.4107
▁minute	-11.4108
getVariable	-11.4114
Beans	-11.4119
mq	-11.4125
appendable	-11.4125
SearchResult	-11.4127
TT	-11.413
rawType	-11.4132
▁itr	-11.4137
NotEmpty	-11.4142
getModule	-11.4142
Cols	-11.4146
▁fromIndex	-11.4158
solve	-11.4159
navigation	-11.416
\":	-11.4171
board	-11.4171
WORK	-11.4171
Integration	-11.4171
TaxFixedRate	-11.4171
reject	-11.4171
ALGORITHM	-11.4171
Camera	-11.4171
gradient	-11.4171
Elasticsearch	-11.4171
Lightweight	-11.4171
▁specify	-11.4171
GrayU	-11.4173
transpose	-11.4174
prepareStatement	-11.4177
STOP	-11.4179
EDIT	-11.4181
UrlFormatter	-11.4181
EXP	-11.4184
combined	-11.4186
▁fall	-11.419
▁under	-11.4196
▁clusters	-11.4197
▁hit	-11.4201
superClass	-11.4204
▁'\\	-11.4208
execution	-11.4211
generator	-11.4212
SecurityGroup	-11.4213
Realm	-11.4214
deleted	-11.4218
▁sigma	-11.4219
getRootPath	-11.4221
▁mse	-11.4225
1[	-11.4226
stage	-11.4227
sun	-11.4233
writeEnd	-11.4233
initialValue	-11.4237
Previous	-11.4237
Xid	-11.4242
▁operand	-11.4244
getTemplate	-11.4245
rest	-11.4245
RSA	-11.4249
ThreadPool	-11.4261
▁roles	-11.4265
updated	-11.4269
cld	-11.4273
band	-11.4285
delim	-11.4293
▁mg	-11.4297
Collect	-11.4298
GREATER	-11.4301
Excel	-11.4301
Proposal	-11.4301
MAPPING	-11.4301
Velocity	-11.4301
quick	-11.4301
Abort	-11.4301
Jenkins	-11.4301
writable	-11.4301
AUTO	-11.4301
ableAltException	-11.4301
COMMENT	-11.4301
GP	-11.4301
lazyGet	-11.4302
predict	-11.4303
▁hql	-11.4303
statementBuilder	-11.4303
▁bug	-11.4306
▁tokenizer	-11.4307
AccessController	-11.4308
▁bad	-11.4309
CW	-11.431
75	-11.4313
PrivilegedAction	-11.4314
leading	-11.4315
▁connector	-11.4316
Live	-11.4318
declared	-11.432
he	-11.4321
workspaceName	-11.4325
ServiceInstance	-11.4329
ible	-11.4332
stamp	-11.4332
87	-11.4333
dateTime	-11.4338
▁well	-11.4341
toAdd	-11.4343
SuccessResponse	-11.4345
79	-11.4353
("--	-11.4353
PT	-11.4358
Alg	-11.4361
▁closing	-11.4362
like	-11.4365
ActionEvent	-11.4366
84	-11.4371
JavaType	-11.4376
prototype	-11.4377
tive	-11.438
patterns	-11.4381
Dec	-11.4381
colon	-11.4383
setTarget	-11.4383
NoV	-11.4391
-1]	-11.4402
Unsigned	-11.4403
enum	-11.4403
samples	-11.4405
Executors	-11.4405
SAXException	-11.4409
getHeaders	-11.4412
stackTrace	-11.4418
▁clock	-11.4419
getStackTrace	-11.4424
flag	-11.4429
ClassDoc	-11.4431
pipe	-11.4432
ha	-11.4432
PROPERTIES	-11.4432
POSITION	-11.4432
comparison	-11.4432
Dense	-11.4432
histogram	-11.4432
ANCHOR	-11.4432
取	-11.4432
Related	-11.4433
Cpu	-11.4433
Seen	-11.4434
intersection	-11.4434
▁ImmutableSet	-11.4434
Soft	-11.4436
Hub	-11.4436
CheckBox	-11.4441
WorkUnit	-11.4446
▁edges	-11.4447
dead	-11.4447
BL	-11.445
AndGet	-11.4454
opcode	-11.4454
TimeoutException	-11.4454
QueryBuilder	-11.4457
Su	-11.4461
▁repo	-11.4461
getDestination	-11.4463
processed	-11.4465
den	-11.4466
Ret	-11.4467
:"))	-11.4472
getURI	-11.4476
NN	-11.4482
bufferSize	-11.4484
lr	-11.4489
maxSize	-11.4492
-"	-11.4492
getNew	-11.4493
getRepository	-11.4496
Conditional	-11.45
AP	-11.4507
▁handlers	-11.4509
generic	-11.4509
AddOn	-11.4509
addHeader	-11.4514
PrimaryKey	-11.4516
▁animation	-11.4516
supported	-11.4517
Statements	-11.4519
38	-11.4519
getPackage	-11.4521
Observable	-11.4522
GroupManager	-11.4528
tasks	-11.4534
PathParam	-11.4538
gap	-11.4539
ong	-11.4545
▁appl	-11.4555
▁numbers	-11.4556
")));	-11.4557
Poll	-11.4558
LOAD	-11.4559
enclosing	-11.4559
ERT	-11.456
Look	-11.4565
Positive	-11.4565
Drools	-11.4566
Exclusive	-11.4566
Reverse	-11.4566
ADDRESS	-11.4566
Bracket	-11.4566
DayOfWeek	-11.4566
Solver	-11.4566
conflict	-11.4566
DELIMITER	-11.4566
Isotope	-11.4566
desired	-11.4566
SEGMENT	-11.4566
reflect	-11.4566
touch	-11.4566
Outbound	-11.4567
unwrap	-11.4567
getResourceType	-11.4573
Recommendation	-11.4574
GrayS	-11.4574
encrypted	-11.4578
▁10)	-11.4582
isWhitespace	-11.4582
Sha	-11.4584
55	-11.4586
Ordered	-11.459
CacheSize	-11.459
grow	-11.4591
jobs	-11.4591
())));	-11.4591
We	-11.4592
redis	-11.4596
▁won	-11.4597
▁injector	-11.4599
Tax	-11.4599
CODES	-11.4603
CB	-11.4608
MF	-11.4613
1.0	-11.4615
▁cons	-11.4619
getOrder	-11.4627
Price	-11.4631
pl	-11.464
entityType	-11.4641
criteria	-11.4642
▁expressions	-11.4644
Contains	-11.4653
▁rotate	-11.4655
partitionId	-11.4655
voice	-11.4655
mit	-11.4659
interface	-11.4661
templates	-11.4662
TypeDesc	-11.4662
imageType	-11.4664
Tokenizer	-11.4665
compact	-11.4666
installed	-11.4669
binary	-11.4671
startIndex	-11.4675
could	-11.4676
Opcode	-11.468
EQUAL	-11.4685
Hidden	-11.4686
ble	-11.4689
://"	-11.469
VirtualMachine	-11.4691
▁bd	-11.4693
Upper	-11.4694
Abs	-11.4699
Representation	-11.4701
WAIT	-11.4701
privilege	-11.4701
procedure	-11.4701
Ascii	-11.4701
syntax	-11.4701
wildcard	-11.4701
question	-11.4701
Photo	-11.4701
Android	-11.4701
effective	-11.4701
▁finderArgs	-11.4701
Reservation	-11.4701
Weak	-11.4702
▁trailing	-11.4703
latest	-11.4704
Associated	-11.4707
getDomain	-11.4708
Serialized	-11.4709
userName	-11.471
MR	-11.4711
FLAGS	-11.4712
DBIDs	-11.4715
▁"-"	-11.472
RPC	-11.4721
equ	-11.4721
mix	-11.4723
AccountId	-11.4725
viewport	-11.4728
▁jsonArray	-11.473
ttl	-11.4731
displayName	-11.4735
Datastore	-11.4747
▁jobName	-11.475
HttpHeaders	-11.4751
▁"]"	-11.4756
MessageType	-11.4762
getMetaData	-11.4766
Ns	-11.4766
Router	-11.4773
Canonical	-11.4774
Maximum	-11.4775
▁adding	-11.4776
rdf	-11.4783
DA	-11.4788
pred	-11.4801
▁iterate	-11.4802
($	-11.4807
zk	-11.4808
setInt	-11.4811
setHeader	-11.4822
widget	-11.4827
IgnoreCase	-11.4832
faces	-11.4832
1/	-11.4832
PID	-11.4833
origin	-11.4835
pref	-11.4837
balance	-11.4838
consistent	-11.4838
hidden	-11.4838
Cardinality	-11.4838
MIME	-11.4838
Implicit	-11.4838
translation	-11.4838
incrementAndGet	-11.4838
observer	-11.4841
Divider	-11.4842
DataInputStream	-11.4843
GeoPoint	-11.4845
leader	-11.4848
▁resultSet	-11.4853
commercePrice	-11.4854
▁"\""	-11.4854
AWS	-11.4858
-8	-11.4864
getRe	-11.4871
Futures	-11.4873
writeTo	-11.4876
swap	-11.4876
rid	-11.4878
sess	-11.4879
▁alluxio	-11.488
ListItem	-11.4881
InstanceId	-11.489
▁-1,	-11.4892
share	-11.4892
readLong	-11.4897
++];	-11.4899
findFirst	-11.49
▁streams	-11.4903
ted	-11.4903
ULocale	-11.4906
Descr	-11.4907
hasText	-11.4907
("^	-11.4909
▁Chrono	-11.4915
getSite	-11.4915
Validity	-11.4919
jobId	-11.4928
UserSegmentEntry	-11.4928
getA	-11.493
contents	-11.4931
subscription	-11.4931
[3];	-11.4935
Characters	-11.4935
Mean	-11.4943
urn	-11.4947
▁longer	-11.4947
intersect	-11.4949
▁vals	-11.4949
xy	-11.4956
fd	-11.4967
/=	-11.4971
▁wrong	-11.4975
hostName	-11.4976
MOVE	-11.4976
Preparation	-11.4977
LANGUAGE	-11.4977
AFTER	-11.4977
BODY	-11.4977
Capabilities	-11.4977
INSERT	-11.4977
Verification	-11.4977
▁enough	-11.4977
▁supplied	-11.4977
terminal	-11.4977
▁consider	-11.4977
maven	-11.4977
Nothing	-11.4977
Caption	-11.4977
material	-11.4977
Self	-11.4977
SIErrorException	-11.4977
Moment	-11.4977
tcp	-11.4978
ejb	-11.4979
Heap	-11.498
ATOR	-11.4983
-8"));	-11.4988
▁rect	-11.4991
override	-11.4994
BufferedReader	-11.4994
compose	-11.4995
RandomVariable	-11.4997
[5]	-11.4998
rnd	-11.5006
NamingException	-11.5006
Err	-11.5009
Modules	-11.5012
keyValue	-11.5012
_1);	-11.5015
projects	-11.5016
calVarReturnType	-11.5017
superclass	-11.5018
FullName	-11.5024
getDevice	-11.5029
FT	-11.5032
Once	-11.5033
ClickListener	-11.5041
setContext	-11.5043
baseDir	-11.5054
ame	-11.507
writeLong	-11.5072
Hit	-11.5072
]]	-11.5072
("#	-11.5075
ATT	-11.5085
▁"&	-11.5085
("/");	-11.5091
associate	-11.5094
inf	-11.5098
▁calls	-11.5101
74	-11.5112
cols	-11.5112
docs	-11.5113
Inject	-11.5115
XExpression	-11.5116
outputDir	-11.5117
Simulation	-11.5118
ASCII	-11.5118
Decorator	-11.5118
POSITIVE	-11.5118
RUNNING	-11.5118
thrift	-11.5118
DEVICE	-11.5118
Question	-11.5118
detach	-11.5118
margin	-11.5118
retain	-11.5118
Accumulator	-11.5118
Quota	-11.5118
commandLine	-11.5119
06	-11.5125
ima	-11.5125
training	-11.5126
Rec	-11.5126
Views	-11.5131
nonce	-11.5133
SSH	-11.5138
IPv	-11.5139
Fn	-11.5141
TypeArguments	-11.5143
getPosition	-11.5144
▁retValue	-11.5144
conv	-11.5145
TypeEClass	-11.5147
CALL	-11.5149
TH	-11.5149
commerceDiscount	-11.5151
▁around	-11.5157
upper	-11.5158
FX	-11.5161
Interior	-11.5167
bucketName	-11.5169
toURI	-11.5172
ArrayIndex	-11.5173
lc	-11.5174
EXT	-11.5175
interceptor	-11.518
Endpoints	-11.5181
ttpURLConnection	-11.5185
train	-11.5185
BlockSize	-11.5187
▁encoder	-11.5193
annotations	-11.5195
stringValue	-11.5195
syn	-11.5198
pd	-11.52
getLeft	-11.5201
▁Scriptable	-11.5209
PersistenceUnit	-11.5211
Adding	-11.5212
spect	-11.5212
fold	-11.5218
RDF	-11.5222
DataOutputStream	-11.5225
rep	-11.5226
DataPoint	-11.5228
51	-11.523
SetException	-11.5232
xen	-11.5233
Subscribe	-11.5233
coord	-11.5235
Reading	-11.5235
80)	-11.5241
readByte	-11.5243
organization	-11.5246
+1)	-11.5247
Align	-11.5251
Attach	-11.5251
abort	-11.5251
Criterion	-11.5257
LOW	-11.5259
Except	-11.5259
MARK	-11.526
METRIC	-11.526
FETCH	-11.526
Bridge	-11.526
Destroy	-11.526
Heartbeat	-11.526
Power	-11.526
Ensure	-11.526
PRIVATE	-11.526
horizontal	-11.526
longitude	-11.526
regular	-11.526
sanitize	-11.526
violation	-11.526
Margin	-11.526
Vertices	-11.526
Outcome	-11.526
Correct	-11.526
Durable	-11.5261
scene	-11.5261
Pull	-11.5261
AndReleaseTask	-11.5261
capture	-11.5261
Logical	-11.5261
permission	-11.5262
NotSupported	-11.5263
Soap	-11.5263
getScheme	-11.5264
▁ImmutableMap	-11.5265
BC	-11.5265
▁jsonGenerator	-11.5268
addElement	-11.5269
UpperBound	-11.5269
sendMessage	-11.5271
Needed	-11.5273
resolution	-11.5275
elementAt	-11.5275
JAR	-11.5276
JCR	-11.5277
sToRemove	-11.5283
THE	-11.5284
crl	-11.5287
▁paramTypes	-11.5289
AutoCommit	-11.5289
primary	-11.5294
INF	-11.5294
MQ	-11.5296
▁ranges	-11.5299
getDisplayName	-11.5301
ordering	-11.5301
Indexable	-11.5314
/%	-11.5321
BufferedImage	-11.5324
alpha	-11.5324
FFDC	-11.5324
fixed	-11.5328
Participant	-11.5329
translate	-11.533
▁hold	-11.534
Precision	-11.5342
mgr	-11.5346
cred	-11.5346
ServiceReference	-11.5347
HtmlTag	-11.5347
primaryKey	-11.535
Ser	-11.5356
metrics	-11.5356
StartIndex	-11.5357
LEN	-11.5362
Dependent	-11.5364
rules	-11.5374
cb	-11.5374
getTransaction	-11.5379
Assign	-11.5383
rev	-11.5383
matched	-11.5385
Spans	-11.5387
Devices	-11.5387
Trust	-11.5393
Compile	-11.5393
marshal	-11.5396
Series	-11.5401
follow	-11.5403
+1);	-11.5404
Messaging	-11.5405
Console	-11.5405
Front	-11.5405
Milliseconds	-11.5405
Rotation	-11.5405
orientation	-11.5405
subtract	-11.5405
BINARY	-11.5405
temporal	-11.5405
rvOrm	-11.5405
UOW	-11.5405
Compatible	-11.5406
retries	-11.5406
Spliterator	-11.5406
purge	-11.5406
Calculator	-11.5406
WsByteBuffer	-11.5406
Thing	-11.5407
gml	-11.5416
writeStart	-11.5418
Pack	-11.5421
Statistic	-11.5436
InProgress	-11.5436
ency	-11.5442
JavaClass	-11.5446
▁"="	-11.5455
▁buckets	-11.5458
Datanode	-11.5459
take	-11.5464
▁6)	-11.5468
det	-11.5469
section	-11.547
getMain	-11.5472
cpu	-11.5474
getNodeName	-11.5475
DoubleVector	-11.5477
isInterface	-11.5482
RED	-11.5484
True	-11.5485
None	-11.5486
Commands	-11.549
OpenCms	-11.5503
expires	-11.5505
PropertyValue	-11.5506
AtIndex	-11.5506
86	-11.551
cy	-11.5511
FFFF	-11.5511
CollectionUtils	-11.5513
numBytes	-11.552
JobId	-11.5521
compatible	-11.553
95	-11.5532
marked	-11.5533
Keywords	-11.5534
most	-11.5539
Streaming	-11.5542
white	-11.5552
consistency	-11.5552
neighbour	-11.5552
storm	-11.5552
truncate	-11.5552
SCALE	-11.5552
Verify	-11.5552
struct	-11.5553
▁'\''	-11.5553
Discard	-11.5553
NEWLINE	-11.5553
MessagingEngine	-11.5553
▁modules	-11.5553
modification	-11.5553
LOGICAL	-11.5553
EFERRED	-11.5554
OrWhitespace	-11.5554
CWSI	-11.5555
detector	-11.5556
doclet	-11.5556
getCanonicalPath	-11.5558
Aliases	-11.5559
pathTo	-11.556
Union	-11.5563
packageName	-11.5564
minValue	-11.5565
9:	-11.5565
entering	-11.5567
berOfObjectives	-11.5569
isFirst	-11.5569
JobExecution	-11.557
RB	-11.5574
ForTest	-11.5575
▁users	-11.5575
foo	-11.5579
Crypto	-11.5582
FieldDescriptor	-11.5583
Tracer	-11.5586
EntityId	-11.5587
normal	-11.559
resourcePath	-11.559
Deque	-11.5604
setResource	-11.5616
Generation	-11.5619
targetType	-11.5622
Directories	-11.5629
▁"0"	-11.5629
mat	-11.5629
CommerceOrder	-11.563
produce	-11.5637
▁locked	-11.5639
▁scores	-11.5641
CD	-11.5658
▁Ap	-11.5659
ruleX	-11.5662
SecurityGroups	-11.5668
(":");	-11.5668
getColumns	-11.5671
NG	-11.5673
NT	-11.568
IOUtil	-11.5681
seen	-11.5683
Detect	-11.5689
Try	-11.5693
Dimensions	-11.5694
Naming	-11.5695
deliver	-11.5697
NodeUtil	-11.57
persistence	-11.57
corpus	-11.57
Na	-11.5701
messaging	-11.5701
Mojo	-11.5701
INITIAL	-11.5702
STATIC	-11.5702
BOUND	-11.5702
Business	-11.5702
SECURITY	-11.5702
instruction	-11.5702
sketch	-11.5702
Cassandra	-11.5702
Skipped	-11.5702
PROTOCOL	-11.5702
Touch	-11.5702
Parm	-11.5702
Transient	-11.5702
adjustment	-11.5705
CU	-11.5705
FLOW	-11.5706
graphic	-11.5706
Analyzer	-11.5707
▁JspException	-11.5709
▁Xbase	-11.5709
ear	-11.5709
VAR	-11.5711
▁executeList	-11.5718
preview	-11.5719
Raster	-11.5721
jcr	-11.5728
▁4,	-11.573
Seed	-11.5731
"".	-11.5735
neg	-11.5736
NL	-11.5741
allowed	-11.5743
toInt	-11.5747
Sep	-11.575
unsetresource	-11.5756
TaskStatus	-11.5758
HttpServer	-11.576
queryBuilder	-11.576
dataSource	-11.5762
Pixels	-11.5771
▁sources	-11.5774
getActivity	-11.5778
javaType	-11.5782
gallery	-11.5782
]*	-11.5786
getDuration	-11.5787
timeZone	-11.5801
man	-11.5805
Clustering	-11.5815
getStream	-11.5817
("\""	-11.5819
Customer	-11.5822
ipv	-11.5822
(0.0	-11.5824
▁actions	-11.5826
SourceFile	-11.5827
PG	-11.5832
Expiration	-11.5833
5:	-11.5836
indices	-11.5837
400	-11.5839
1]	-11.5841
integer	-11.5842
editor	-11.5843
Book	-11.5843
native	-11.5848
finished	-11.5849
、	-11.5853
Paragraph	-11.5853
TIMESTAMP	-11.5853
WEEK	-11.5853
dictionary	-11.5853
Artwork	-11.5853
deprecation	-11.5853
exclusive	-11.5853
Discriminator	-11.5853
learn	-11.5853
xctxt	-11.5853
radix	-11.5853
Interaction	-11.5854
Quad	-11.5854
▁initialization	-11.5854
▁probably	-11.5854
commonspec	-11.5855
▁24)	-11.5857
CHANGED	-11.5857
kam	-11.5858
▁nm	-11.5863
dirty	-11.5863
started	-11.5873
Cnt	-11.5875
Tri	-11.5877
gt	-11.5878
download	-11.5882
ctor	-11.5885
concurrent	-11.5888
DefinitionId	-11.5889
ByResourceGroup	-11.589
▁mVisitor	-11.5892
fld	-11.5903
getCell	-11.5905
rowKey	-11.5905
hdr	-11.5905
UL	-11.5906
NextOptions	-11.5908
DefaultValue	-11.5908
Normal	-11.5908
Bin	-11.5914
setParameter	-11.5918
mutation	-11.5924
PropertyKey	-11.5924
elt	-11.5926
Inv	-11.5927
ToIndex	-11.5929
Round	-11.5932
OrBuilder	-11.5934
BaseField	-11.5937
ViewGroup	-11.5938
▁sending	-11.5938
LogLevel	-11.594
Too	-11.5942
getPackageName	-11.5946
TOP	-11.5955
("-"	-11.5963
getPayload	-11.5972
getPrefix	-11.5974
ToLong	-11.5977
examples	-11.5983
Dom	-11.5992
expiration	-11.5994
drop	-11.5996
molecule	-11.6001
jp	-11.6003
Configure	-11.6004
FACTOR	-11.6005
traverse	-11.6006
HealthCheck	-11.6006
Compilation	-11.6006
alternative	-11.6006
一	-11.6007
ASCENDING	-11.6007
Balance	-11.6007
Tensor	-11.6007
Descendant	-11.6007
Facade	-11.6007
propagate	-11.6007
Summaries	-11.6007
JDK	-11.6007
IMPORT	-11.6007
whitespace	-11.6007
triple	-11.6007
▁interpreter	-11.6008
Gson	-11.6008
LESS	-11.6008
HASH	-11.6008
Factories	-11.6009
WebApp	-11.6012
MPP	-11.6013
Dirty	-11.6013
blk	-11.6014
precision	-11.6015
reaction	-11.6016
Ast	-11.6018
rewrite	-11.6019
transition	-11.6019
varName	-11.602
StrLen	-11.6024
CmsUUID	-11.6025
Frames	-11.6026
({"	-11.6027
grpc	-11.6028
GS	-11.6028
aliases	-11.6029
getAvailable	-11.6033
variables	-11.6035
portlet	-11.6039
getDescriptor	-11.6039
LY	-11.604
getTags	-11.6041
clip	-11.6044
getProxy	-11.6049
transformed	-11.6054
OptionValue	-11.6054
Warnings	-11.6055
REF	-11.6057
fullName	-11.6058
▁writeString	-11.6058
Wildcard	-11.6058
StatementBuilder	-11.6063
Generics	-11.6063
ActionListener	-11.6076
Enclosing	-11.6077
getSql	-11.6079
▁16);	-11.6081
SessionId	-11.6087
compression	-11.609
getN	-11.6091
KeyPair	-11.6094
getOutputStream	-11.6094
emptySet	-11.6103
BeanDefinition	-11.6105
rad	-11.6108
RequestListener	-11.6121
10:	-11.6122
Placement	-11.6126
workUnit	-11.6136
major	-11.614
getFields	-11.6147
Continue	-11.6152
years	-11.6154
OPTION	-11.6154
focus	-11.6154
BS	-11.6157
▁fl	-11.6161
foreign	-11.6163
Fraction	-11.6163
Guard	-11.6163
occurrence	-11.6163
IfNecessary	-11.6163
isotope	-11.6163
Longitude	-11.6163
SIGNATURE	-11.6163
RandomAccessFile	-11.6163
trimmed	-11.6163
Rtf	-11.6164
general	-11.6164
bookmark	-11.6164
bool	-11.6164
▁Calculate	-11.6164
addLast	-11.6164
Workbook	-11.6164
▁SIConnection	-11.6165
ln	-11.6166
Lexer	-11.6166
ComputeNode	-11.617
prime	-11.6171
sent	-11.6173
▁had	-11.6176
Editable	-11.6177
("/")	-11.6178
siteRoot	-11.6179
heckReturnValue	-11.618
getSegment	-11.6193
members	-11.6196
ToInt	-11.6196
▁'{}'",	-11.6197
snapshot	-11.6199
InputFormat	-11.62
usage	-11.62
Ovh	-11.6201
negative	-11.6201
attempt	-11.6202
constant	-11.6202
▁care	-11.6204
INDArray	-11.6204
Adj	-11.6207
Namespaces	-11.6212
componentType	-11.6215
IllegalState	-11.6218
strip	-11.6219
gold	-11.6223
relativePath	-11.6224
MessageStore	-11.6224
TextView	-11.6228
sim	-11.6229
CM	-11.623
trait	-11.6235
getStringValue	-11.6238
digester	-11.6241
▁------------	-11.6242
VersionRequest	-11.6252
Grouping	-11.6253
VER	-11.6256
NAMES	-11.626
Attachments	-11.6264
▁pairs	-11.6266
getAsString	-11.6271
CUD	-11.6275
Inf	-11.6279
▁parameterized	-11.6282
destDir	-11.6283
▁logic	-11.6283
LogRecord	-11.6284
seed	-11.6286
Al	-11.6289
prefs	-11.6294
wp	-11.6296
dbName	-11.6297
getRule	-11.6297
ValueExpression	-11.6301
+=	-11.6301
Saml	-11.6304
Refs	-11.6305
DeclaredMethod	-11.6309
getUnique	-11.6311
ErrorHandler	-11.6316
Discover	-11.6317
DecimalFormat	-11.6318
Alluxio	-11.632
getMetadata	-11.6321
][0]	-11.6321
Vertical	-11.6322
Traversal	-11.6322
alternate	-11.6322
分	-11.6322
Broadcast	-11.6322
Retries	-11.6322
directories	-11.6322
implicit	-11.6322
ESCAPE	-11.6322
NameValuePair	-11.6322
skipped	-11.6322
Performance	-11.6322
Failover	-11.6323
authority	-11.6323
TypeEnumEEnum	-11.6323
Markup	-11.6323
CHARSET	-11.6324
setupDefault	-11.6324
appear	-11.6325
TrustManager	-11.6326
Scalar	-11.6326
findByUuid	-11.6327
▁InvalidArgument	-11.6327
extent	-11.6329
definition	-11.6329
Sys	-11.633
paramType	-11.6331
TopLevel	-11.6331
wire	-11.6331
readFile	-11.6332
ByteOrder	-11.6333
CRL	-11.6333
Rfc	-11.6334
qualifiedName	-11.6336
Bonds	-11.6337
analyzer	-11.6338
Xsd	-11.6342
retrieve	-11.6344
matrixPosition	-11.6345
pat	-11.6345
periodInfo	-11.635
Gray	-11.6353
FTP	-11.6354
TP	-11.6356
win	-11.6359
example	-11.6361
PD	-11.6363
Sending	-11.6364
cid	-11.6365
EventAttributes	-11.6369
AdGroup	-11.6372
addresses	-11.6372
▁(%	-11.6378
StatusCode	-11.6383
written	-11.6387
ICU	-11.6391
kw	-11.6394
▁checkFor	-11.6395
nextIndex	-11.6399
readValue	-11.6404
Comparable	-11.6404
:"+	-11.6409
Red	-11.6409
▁FileWriter	-11.6411
classNameId	-11.6418
Descriptions	-11.642
getOriginal	-11.6422
appendChild	-11.6423
58	-11.6424
setLayout	-11.6424
worker	-11.6425
getGeneric	-11.6428
MainRecord	-11.6432
targetClass	-11.6437
getPlugin	-11.6437
unescape	-11.6442
linked	-11.6443
EST	-11.6445
Objective	-11.6446
getNodeType	-11.6453
COL	-11.6454
deactivate	-11.647
]));	-11.6472
trust	-11.6472
area	-11.6472
intent	-11.6473
Take	-11.6477
setLast	-11.648
(1000	-11.6481
measure	-11.6483
▁recurs	-11.6483
Neighbor	-11.6483
built	-11.6483
Benchmark	-11.6483
DESTINATION	-11.6483
Frequency	-11.6483
activation	-11.6483
alphabet	-11.6483
divisor	-11.6483
Ancestor	-11.6483
Creating	-11.6483
Rollback	-11.6483
Vendor	-11.6483
Incoming	-11.6483
REGEX	-11.6483
visibility	-11.6483
classifier	-11.6483
Docker	-11.6483
Jwt	-11.6483
epoch	-11.6483
gwt	-11.6484
Tooltip	-11.6484
probability	-11.6484
tango	-11.6484
price	-11.6484
Prediction	-11.6484
Like	-11.6484
juli	-11.6484
▁treat	-11.6485
getChildNodes	-11.6485
hide	-11.6486
1");	-11.6486
become	-11.6487
chrono	-11.6487
stylesheet	-11.6488
Normalized	-11.6488
WebDriver	-11.6488
delivery	-11.6489
inflate	-11.6489
Appendable	-11.6491
▁executeCreate	-11.6494
▁thing	-11.6495
Lang	-11.6496
need	-11.6498
paramName	-11.6501
ality	-11.6504
Linear	-11.6506
imply	-11.6506
▁resourceType	-11.6514
UpdateParameters	-11.6515
jarFile	-11.652
DAYS	-11.6522
issue	-11.6523
▁vc	-11.6527
Light	-11.6531
getProp	-11.6533
Checkpoint	-11.6536
parms	-11.6537
utc	-11.6537
70	-11.6537
▁pts	-11.6537
bond	-11.654
Cross	-11.6544
pro	-11.6544
DBParam	-11.6545
RATE	-11.6545
connections	-11.6546
▁registryName	-11.6546
che	-11.655
createQuery	-11.6554
Transactional	-11.6555
HashSet	-11.6562
JvmTypeReference	-11.6564
grammar	-11.6564
-2	-11.6564
adjusted	-11.6568
deleteresources	-11.6572
person	-11.6573
ItemStream	-11.6577
Deploy	-11.6579
components	-11.6588
('.');	-11.6588
indent	-11.6596
Preconditions	-11.6603
Authenticated	-11.6608
Written	-11.6609
CmsLog	-11.6611
setTitle	-11.6615
68	-11.6619
Within	-11.6625
getUn	-11.6625
declare	-11.6634
terminate	-11.6634
SIB	-11.6639
?");	-11.6641
avail	-11.6644
fin	-11.6645
Cookies	-11.6646
Until	-11.6647
Fingerprint	-11.6647
ENGLISH	-11.6647
cardinality	-11.6647
categories	-11.6647
fieldStuff	-11.6647
hierarchy	-11.6647
RoaringBitmap	-11.6647
SEARCH	-11.6647
though	-11.6647
▁carry	-11.6647
Strict	-11.6647
bDisplayOption	-11.6647
Nested	-11.6647
Small	-11.6648
POINT	-11.6648
IfNeeded	-11.6649
▁overflow	-11.6649
▁very	-11.6649
CProductId	-11.665
▁implemented	-11.665
Leading	-11.665
Keras	-11.665
▁those	-11.6652
gui	-11.6652
XMPP	-11.6654
▁raster	-11.6654
buff	-11.6655
terminated	-11.666
aux	-11.6662
JarEntry	-11.6663
baseName	-11.6663
regorianCalendar	-11.6666
IDENTITY	-11.6668
kn	-11.6671
GE	-11.6671
Ack	-11.6672
isAbsolute	-11.6674
FailureException	-11.6675
CmsSearch	-11.6679
prov	-11.6685
PackageManager	-11.6688
▁chunks	-11.6692
handlers	-11.6693
getMember	-11.6702
Tok	-11.6706
getGeometry	-11.6711
OfDay	-11.6716
keyspace	-11.6717
Behaviors	-11.6722
streamId	-11.6723
81	-11.6728
#"	-11.6728
LocalTime	-11.6728
cent	-11.673
Bag	-11.6759
▁bindings	-11.6764
dtm	-11.6764
getWriter	-11.6766
BACK	-11.6769
intervals	-11.6769
Stamp	-11.677
authorize	-11.6779
Specs	-11.678
DatabaseType	-11.6784
tv	-11.6786
overlay	-11.6787
wrapper	-11.6788
Whitespace	-11.6789
unc	-11.679
saw	-11.6792
projectName	-11.6798
qualified	-11.6799
Attached	-11.6801
Square	-11.6801
similar	-11.6802
walk	-11.6809
▁cclass	-11.6812
BIG	-11.6814
console	-11.6814
underlying	-11.6814
Arithmetic	-11.6814
('\\'	-11.6814
COMMAND	-11.6814
Cycle	-11.6814
Quantity	-11.6814
Slave	-11.6814
GAUGE	-11.6814
PROVIDER	-11.6814
drain	-11.6814
fatal	-11.6814
。	-11.6814
buildingFunction	-11.6814
▁'9'	-11.6814
Design	-11.6815
typedArray	-11.6816
Unsafe	-11.6816
Provisioning	-11.6816
MeasureEClass	-11.6817
▁""));	-11.6818
wise	-11.6819
Hdr	-11.6819
predicates	-11.682
Prob	-11.682
hp	-11.6821
facesContext	-11.6822
magic	-11.6825
▁cloned	-11.6826
▁metaModel	-11.6827
prod	-11.683
▁etc	-11.683
finderPath	-11.6832
▁"</	-11.6834
▁newValues	-11.6835
ative	-11.6836
Defaults	-11.6838
Costs	-11.6845
ProjectTask	-11.6845
getColor	-11.6858
setLength	-11.6858
eeName	-11.686
onSuccess	-11.6863
DST	-11.6865
portal	-11.6866
esourceException	-11.6869
('.')	-11.6875
ToRemove	-11.6875
variableName	-11.6879
imp	-11.6881
hose	-11.6884
closeSession	-11.6885
Room	-11.6892
mutations	-11.6894
abstract	-11.6901
unmarshal	-11.6904
attrs	-11.6911
getScope	-11.6911
ManagedObject	-11.6913
Watcher	-11.6915
outer	-11.6918
ANT	-11.6923
▁wb	-11.6929
GA	-11.6935
resourceBundle	-11.6936
66	-11.6944
▁5)	-11.6947
ProcessInstance	-11.6952
SitePath	-11.6954
rus	-11.6954
ces	-11.6954
Original	-11.6956
Letter	-11.6961
recover	-11.6966
▁1000)	-11.6968
ResourcePath	-11.6972
▁SIR	-11.6973
maximum	-11.6973
▁far	-11.6978
Alternative	-11.698
dh	-11.698
Anchor	-11.6981
Reflect	-11.6983
Retention	-11.6983
Assessment	-11.6983
already	-11.6983
mutable	-11.6983
CommerceWishList	-11.6983
用	-11.6983
Coverage	-11.6983
FUNCTION	-11.6983
campaign	-11.6983
CUSTOM	-11.6983
Ignoring	-11.6983
PERSISTENT	-11.6983
individual	-11.6983
observation	-11.6983
pojo	-11.6983
MEDIA	-11.6983
routine	-11.6983
下	-11.6983
Team	-11.6984
SOAP	-11.6984
texture	-11.6984
scaling	-11.6984
VoltDB	-11.6985
DATABASE	-11.6986
▁classloader	-11.6987
Perform	-11.6987
Steps	-11.6988
EndOf	-11.6988
Some	-11.6989
CN	-11.6989
ToBe	-11.6991
Samples	-11.6992
Pin	-11.6993
▁enumerator	-11.6997
Author	-11.7001
Kam	-11.7003
▁'['	-11.7007
soap	-11.701
setSize	-11.7013
SecretKey	-11.7016
▁JsonToken	-11.7018
57	-11.7021
Inside	-11.7023
▁working	-11.7023
Relationships	-11.7024
theme	-11.7027
addField	-11.7028
RFC	-11.7028
getLocalName	-11.703
88	-11.7034
▁artifactId	-11.7034
Outer	-11.7038
errorCode	-11.7043
Chunks	-11.705
minus	-11.7052
Continuation	-11.7052
▁findByC	-11.7054
▁?>>	-11.7055
setField	-11.7058
timeInterval	-11.7068
tid	-11.7082
Online	-11.7088
eal	-11.7088
Syn	-11.709
setOn	-11.7094
Matched	-11.7095
press	-11.7107
checkValid	-11.711
Graphic	-11.7112
collectionName	-11.7119
getEndpoint	-11.7121
setIs	-11.7121
ach	-11.7123
zz	-11.7125
Qualified	-11.7136
▁wi	-11.7146
Play	-11.7146
]=	-11.7151
Proc	-11.7155
duplicate	-11.7155
时	-11.7156
INCLUDE	-11.7156
JNDI	-11.7156
MODULE	-11.7156
overridden	-11.7156
pRqVs	-11.7156
(',');	-11.7156
SHIFT	-11.7156
pivot	-11.7156
shell	-11.7156
ActionPerformed	-11.7156
green	-11.7156
▁'|'	-11.7156
camera	-11.7156
有	-11.7156
Boot	-11.7156
Enter	-11.7156
MtasSolr	-11.7156
achmentFileEntry	-11.7156
8601	-11.7156
▁prior	-11.7156
Stopwatch	-11.7157
Sense	-11.7157
Vault	-11.7157
stride	-11.7159
compressed	-11.7159
CmsGallery	-11.7159
BinaryOperator	-11.716
▁outside	-11.7161
committed	-11.7162
packet	-11.7163
▁DMatrix	-11.7166
Taglet	-11.7166
power	-11.7169
▁documents	-11.7169
Configured	-11.7171
look	-11.7173
lit	-11.7177
blocks	-11.7179
ler	-11.7183
Iam	-11.7184
LU	-11.7186
War	-11.7187
▁views	-11.7187
▁bufferIndex	-11.7192
aintenanceWindow	-11.7199
indexName	-11.7203
▁listNext	-11.7204
inStream	-11.7204
ules	-11.7211
ommerceWarehouse	-11.7217
FIELDS	-11.7217
JobStatus	-11.7224
depend	-11.7224
41	-11.7227
+1;	-11.7231
oldValue	-11.7233
tools	-11.7236
derivX	-11.7236
ProcessInfo	-11.7238
parentOf	-11.7239
Ping	-11.7242
HostName	-11.7246
Offline	-11.7247
clause	-11.7249
copyFrom	-11.725
DataSegment	-11.7251
getWindow	-11.7253
Mime	-11.7253
lineTo	-11.7253
Tabs	-11.7253
serviceEndpoint	-11.7254
eol	-11.7256
WithCode	-11.7257
enumConstant	-11.7263
cells	-11.7263
ToMap	-11.7268
appendOptional	-11.727
:%	-11.7271
▁grouping	-11.7273
getAnnotations	-11.7287
TION	-11.7297
lm	-11.7299
TableModel	-11.7301
HA	-11.7301
62	-11.7304
secs	-11.7307
47	-11.7308
▁ArrayUtil	-11.731
serialized	-11.7317
itemId	-11.732
Fleet	-11.7321
XY	-11.7321
shortName	-11.7326
Circle	-11.7327
Motion	-11.7328
Mtas	-11.7329
Purchase	-11.7331
DECIMAL	-11.7331
Regular	-11.7331
aggregation	-11.7331
average	-11.7331
distribution	-11.7331
journal	-11.7331
overlap	-11.7331
▁further	-11.7331
IDENTIFIER	-11.7331
SKIP	-11.7331
Severity	-11.7331
FONT	-11.7331
jaxb	-11.7331
Jingle	-11.7331
vendor	-11.7331
optimize	-11.7331
Quality	-11.7331
BOX	-11.7332
\\\\	-11.7332
percent	-11.7333
Privileged	-11.7333
Inherited	-11.7334
Sym	-11.7335
ras	-11.7337
▁bw	-11.7338
-------------	-11.7339
CAT	-11.734
getAtomCount	-11.734
Launcher	-11.7344
Localization	-11.7344
▁imageSearch	-11.7344
tagged	-11.7346
1-	-11.7347
("$	-11.7349
branch	-11.735
VAL	-11.7354
ColumnNames	-11.7357
polygon	-11.7358
▁locks	-11.7358
elementName	-11.7359
modify	-11.7363
▁outline	-11.7366
[{}]	-11.7373
Trim	-11.7375
Spaces	-11.7376
Ssh	-11.7378
arameterizedHost	-11.7379
▁keyType	-11.738
centre	-11.7381
errorcode	-11.7382
reason	-11.7383
▁entityManager	-11.7385
createNew	-11.7387
Construction	-11.7392
photo	-11.7397
mon	-11.7397
Defines	-11.7401
MDC	-11.7401
ResourceRequest	-11.7402
styleClass	-11.7405
getActive	-11.7413
RUN	-11.7413
addError	-11.7419
EventHandler	-11.742
MA	-11.7428
destOffset	-11.7429
67	-11.7431
resultSet	-11.7431
04	-11.7441
readString	-11.7443
Processed	-11.7447
Tcp	-11.7447
getStorage	-11.745
dat	-11.7451
heading	-11.747
Gap	-11.7476
rootPath	-11.7482
vocab	-11.7485
Markers	-11.7486
▁scopes	-11.7492
docId	-11.7495
primitiveType	-11.7497
beginIndex	-11.7499
getIdentity	-11.7502
SB	-11.7506
=").	-11.7507
newCapacity	-11.7507
Stopped	-11.7509
Average	-11.751
Translator	-11.751
flickr	-11.751
remainder	-11.751
CONTAINER	-11.751
historic	-11.751
removing	-11.751
定	-11.751
Agreement	-11.751
DIRECTORY	-11.751
Good	-11.751
boundingBox	-11.751
Probability	-11.751
Lexicon	-11.751
Capability	-11.751
▁represent	-11.751
sibling	-11.751
Concat	-11.7511
Stub	-11.7511
Installation	-11.7512
Charge	-11.7512
ConnectGateway	-11.7513
uncompressed	-11.7514
Rev	-11.7515
mathContext	-11.7515
Mono	-11.7516
WAS	-11.7517
bytesWritten	-11.7517
WARN	-11.7519
▁defaultFlags	-11.7521
MAIN	-11.7522
DC	-11.7524
OrNull	-11.7525
extra	-11.7527
lineSeparator	-11.753
comma	-11.7534
toURL	-11.7534
httpMethod	-11.7537
(6);	-11.7541
parseBoolean	-11.7544
mInput	-11.7544
EntityRole	-11.7544
RC	-11.7547
itr	-11.7548
CmsWorkplace	-11.7548
78	-11.755
[1])	-11.755
SF	-11.7553
paint	-11.7556
PathElement	-11.7558
FINER	-11.756
MetricName	-11.756
bundleContext	-11.7561
AsLong	-11.7564
Working	-11.7565
COM	-11.7567
▁pages	-11.757
certificate	-11.7571
expand	-11.7576
fileContent	-11.7581
▁cacheName	-11.7581
:\	-11.759
SEC	-11.759
Mix	-11.7591
that	-11.7593
CacheEntry	-11.7603
extras	-11.7603
▁beginCreateOr	-11.7604
PoolSize	-11.7604
contextPath	-11.7605
chunkSize	-11.7608
parseDouble	-11.7614
Modifiers	-11.7616
SU	-11.7621
={	-11.7626
isSelected	-11.7629
Po	-11.763
▁clusterName	-11.7635
authenticated	-11.7635
argTypes	-11.7645
queryParam	-11.7652
then	-11.7658
IV	-11.7658
setDescription	-11.7666
tool	-11.7671
(":")	-11.7671
▁inputA	-11.7671
Visit	-11.7681
fax	-11.7682
discover	-11.7687
evaluation	-11.7689
estimate	-11.769
That	-11.7691
Suggest	-11.7691
Suppress	-11.7692
illegal	-11.7692
HORIZONTAL	-11.7692
NEGATIVE	-11.7692
bridge	-11.7692
front	-11.7692
mandatory	-11.7692
▁separate	-11.7692
行	-11.7692
▁exceed	-11.7692
如	-11.7692
Either	-11.7692
Footer	-11.7692
ledger	-11.7692
severe	-11.7692
Percentage	-11.7692
suite	-11.7692
contact	-11.7692
speed	-11.7692
Adjust	-11.7692
▁latch	-11.7693
Cleanup	-11.7693
LogFile	-11.7695
Deep	-11.7696
hasRemaining	-11.7701
AstNode	-11.7702
Javadoc	-11.7704
Colon	-11.7706
▁executeDelete	-11.7708
circuit	-11.7708
networkInterface	-11.7709
Produces	-11.7709
parentId	-11.771
dataOffset	-11.771
Nd	-11.7712
Counters	-11.7713
startTime	-11.7715
Startup	-11.7716
getRight	-11.7718
▁7;	-11.7721
setVisibility	-11.7722
▁"["	-11.7723
setState	-11.7731
CmsRole	-11.7737
ConfigurationKey	-11.7741
Submit	-11.7741
addMethod	-11.7741
AccountInner	-11.7743
toPath	-11.7747
MODEL	-11.7753
setUser	-11.7758
77	-11.7762
clustering	-11.7768
Building	-11.7771
Plural	-11.7775
dataBuffer	-11.7776
alloc	-11.7776
flat	-11.7783
minimum	-11.7784
DevFailed	-11.7792
mBean	-11.7802
300	-11.7804
present	-11.781
OLD	-11.782
Comments	-11.7841
caller	-11.7846
nodeList	-11.7846
jsp	-11.7849
getLock	-11.7855
Persist	-11.7862
ship	-11.7863
Checking	-11.7863
permissions	-11.7864
Viewer	-11.7867
▁mediaType	-11.7867
unable	-11.7868
ory	-11.7876
理	-11.7877
UNIQUE	-11.7877
World	-11.7877
elapsed	-11.7877
置	-11.7877
latitude	-11.7877
ACTIVITY	-11.7877
Individual	-11.7877
Interpreter	-11.7877
enumeration	-11.7877
isWarnEnabled	-11.7877
Have	-11.7877
▁reflection	-11.7877
flatten	-11.7877
footer	-11.7877
lemma	-11.7877
REQUIRED	-11.7878
mock	-11.7878
▁properly	-11.7878
Chat	-11.788
formula	-11.788
rowIndex	-11.7883
Acceptor	-11.7884
Vectors	-11.7885
DrawerItem	-11.7885
AccessControl	-11.7886
VC	-11.7888
mse	-11.7894
Triggers	-11.7894
BaseMessage	-11.7894
Hold	-11.7897
AnnotationValue	-11.7897
Filtered	-11.7898
DTD	-11.7901
tracer	-11.7902
rack	-11.7903
XA	-11.7903
getBuild	-11.7907
checkpoint	-11.7909
SyntaxException	-11.7912
▁"/";	-11.7916
▁statements	-11.792
mbr	-11.7921
Associations	-11.7922
toMillis	-11.7925
MESSAGES	-11.7926
FaxJob	-11.7927
ReturnCode	-11.7928
getByte	-11.793
DEF	-11.7936
ACK	-11.7937
getCanonical	-11.7942
TCP	-11.7943
Ignored	-11.7944
getBegin	-11.7946
▁itrans	-11.7946
ItemRequest	-11.7952
ZoneId	-11.7955
▁cbuf	-11.7955
Extend	-11.7966
Scoped	-11.7973
▁ms	-11.7975
openSession	-11.7983
reversed	-11.7989
Minute	-11.799
currentIndex	-11.799
addOn	-11.7995
ResultInner	-11.8
Minimum	-11.8002
Quotes	-11.8006
Coin	-11.8006
comparator	-11.8007
▁des	-11.8009
Restart	-11.8009
ioe	-11.8013
IfNot	-11.8016
EQ	-11.8018
basic	-11.8021
entityCache	-11.8022
setEntity	-11.8023
Folders	-11.8032
Got	-11.8037
WR	-11.8039
Recorder	-11.8046
07	-11.8047
windows	-11.805
edges	-11.8052
peer	-11.806
CmsUser	-11.8064
suggest	-11.8064
aggregator	-11.8065
Occur	-11.8065
Termination	-11.8065
201809.	-11.8065
PubSub	-11.8065
Campaign	-11.8066
SHOW	-11.8066
SYMBOL	-11.8066
BACKGROUND	-11.8066
CAPACITY	-11.8066
Wrong	-11.8066
movie	-11.8066
▁Just	-11.8066
Apptentive	-11.8066
ByUuidAnd	-11.8066
substitute	-11.8066
inverse	-11.8066
CANCEL	-11.8066
DOMAIN	-11.8066
▁performance	-11.8066
CPInstanceUuid	-11.8066
ALTER	-11.8067
Specified	-11.8068
▁whole	-11.8069
Planar	-11.807
▁feed	-11.807
factories	-11.8071
BiFunction	-11.8071
Kill	-11.8072
VOID	-11.8074
columnFamily	-11.8077
▁'>'	-11.8078
Receive	-11.8081
elab	-11.8081
SocketChannel	-11.8083
Clip	-11.8083
getWorkspace	-11.8084
=0	-11.8086
OrDefault	-11.809
SuperClass	-11.8094
ThreadContext	-11.8094
startElement	-11.8096
Prototype	-11.81
Player	-11.81
tex	-11.8101
Signing	-11.8111
Successful	-11.8116
uni	-11.8121
destFile	-11.8122
lst	-11.8134
Che	-11.8134
Datastream	-11.8137
DFS	-11.8139
Perm	-11.8144
addComponent	-11.8144
BundleContext	-11.8149
▁cond	-11.8153
▁nextPage	-11.8156
JA	-11.8161
ModelImpl	-11.8166
eras	-11.8167
getComponentType	-11.817
secondary	-11.817
getScript	-11.8171
getController	-11.8173
▁BuildException	-11.8181
getEncoding	-11.8186
▁vectors	-11.8186
structureId	-11.8188
PP	-11.8189
Shadow	-11.819
cover	-11.8193
RenderingHints	-11.8195
TableRow	-11.8197
▁{0}	-11.8201
plugins	-11.8203
MessageInfo	-11.8204
ze	-11.8206
getter	-11.8208
ute	-11.8208
addColumn	-11.8218
getQualifiedName	-11.8221
rg	-11.8221
onCreate	-11.8223
finalize	-11.8226
relative	-11.823
Suggestion	-11.8231
strParam	-11.8232
proto	-11.8232
must	-11.8233
Emit	-11.8234
keep	-11.8235
▁expired	-11.8236
collector	-11.8241
MBeanServer	-11.8243
Facebook	-11.8245
endOf	-11.8247
73	-11.8252
▁give	-11.8252
Jawr	-11.8253
▁checkResult	-11.8253
headerName	-11.8253
ClientId	-11.8257
Mongo	-11.8257
BEFORE	-11.8258
CONSTRUCTOR	-11.8258
POLICY	-11.8258
decrement	-11.8258
degree	-11.8258
having	-11.8258
three	-11.8258
MULTI	-11.8258
kunderaMetadata	-11.8258
attack	-11.8258
THREAD	-11.8258
Concurrency	-11.8259
liborPeriodIndex	-11.8259
backward	-11.826
('=')	-11.826
mouse	-11.826
accessible	-11.8261
Printer	-11.8262
Unix	-11.8262
Chooser	-11.8263
solver	-11.8265
Subscriptions	-11.8266
classification	-11.8267
HC	-11.827
(1)=='	-11.8271
▁findByG	-11.8274
JSONException	-11.8281
fade	-11.8285
ModuleMetaData	-11.8286
png	-11.8288
Thrown	-11.8289
TypeInformation	-11.829
svg	-11.829
ItemState	-11.8291
▁proper	-11.8293
spark	-11.8296
IQ	-11.8304
Relations	-11.8309
_0),	-11.8309
frames	-11.8313
isInitialized	-11.8315
SEP	-11.8316
getDryRun	-11.8317
months	-11.8317
QueryParameter	-11.8317
invert	-11.8321
▁1000;	-11.8328
isSuccess	-11.8328
GH	-11.833
evict	-11.8334
CodePoint	-11.8336
▁namespaces	-11.8339
inbound	-11.834
1_0	-11.8345
getSignature	-11.8346
HttpEntity	-11.8347
strKey	-11.8349
Negotiator	-11.8351
sendError	-11.8355
ption	-11.8358
Resp	-11.8365
180	-11.8372
repositoryName	-11.8376
rawData	-11.8381
preserve	-11.8382
Norm	-11.8383
getReal	-11.8384
='"	-11.8391
Qu	-11.8395
▁16;	-11.8398
fieldList	-11.8402
serializer	-11.8406
Large	-11.8408
lastIndex	-11.8412
▁generics	-11.8413
got	-11.8414
StyleName	-11.8415
rootDir	-11.8415
PropertyAccessor	-11.8416
Resize	-11.8421
void	-11.8425
LowerBound	-11.8428
Preferred	-11.8428
renderContext	-11.8428
CmsEntity	-11.843
columnType	-11.8432
setB	-11.8438
Interceptors	-11.8439
OrThrow	-11.8439
▁atomContainer	-11.844
▁attached	-11.8443
Expectation	-11.8444
GroupInner	-11.8447
readFrom	-11.8447
tokenizer	-11.8451
05	-11.8451
Wiki	-11.8454
ENTRY	-11.8454
DECODABET	-11.8454
Through	-11.8454
Attack	-11.8454
COMPONENT	-11.8454
Nucleotide	-11.8454
Pojo	-11.8454
Closing	-11.8454
Couchbase	-11.8454
Stale	-11.8454
creator	-11.8454
foreground	-11.8454
pagination	-11.8454
serializable	-11.8454
Distinct	-11.8454
GLOBAL	-11.8454
Gaussian	-11.8454
gamma	-11.8454
wsdl	-11.8454
Legacy	-11.8454
mpxj	-11.8454
PASSWORD	-11.8454
Catch	-11.8454
bank	-11.8454
▁beginning	-11.8454
HALF	-11.8454
EXPORT	-11.8454
vertical	-11.8454
dManagerServices	-11.8454
Trait	-11.8455
immutable	-11.8455
Secondary	-11.8455
inspection	-11.8455
BioPAXElement	-11.8455
▁']'	-11.8455
▁Canal	-11.8455
Will	-11.8457
basisFunction	-11.8458
REC	-11.846
JsonDeserializer	-11.846
syslog	-11.8461
+1];	-11.8462
RequestMapping	-11.8463
▁getAsync	-11.8464
gbc	-11.8465
▁previously	-11.8467
CmsJsp	-11.8468
>(){}	-11.8469
production	-11.8471
69	-11.8474
localized	-11.8474
Stylesheet	-11.8476
Sun	-11.8476
yes	-11.8481
Inst	-11.8481
jms	-11.8483
authorizer	-11.8484
GMT	-11.8484
getGlobal	-11.8485
animate	-11.8487
addItem	-11.849
[6]	-11.8491
OutputFile	-11.8493
COMPACT	-11.8494
attachments	-11.8502
▁queryParams	-11.8503
displayDate	-11.8505
_8);	-11.8505
SecurityManager	-11.8506
0.5	-11.8507
WComponent	-11.8508
live	-11.8509
completed	-11.8514
▁10;	-11.8514
getAsJson	-11.8519
Consumes	-11.852
recMessage	-11.8521
Aws	-11.8532
currentElement	-11.8532
%02	-11.8533
applicationName	-11.8534
classDesc	-11.8534
▁ParserException	-11.8538
ExecutionContext	-11.8543
dataSet	-11.8544
▁nfe	-11.8544
bytesTo	-11.8547
har	-11.8548
jedis	-11.855
AnnotationType	-11.8553
(3)	-11.8557
FileChannel	-11.8562
UserAgent	-11.8565
PageContext	-11.8566
Hits	-11.857
mapTo	-11.8573
ight	-11.8574
isSame	-11.8575
getCustom	-11.8576
mount	-11.8577
RecordOwner	-11.8578
IX	-11.858
Wrapped	-11.859
sentence	-11.8596
csr	-11.8606
StartDate	-11.8608
RowCount	-11.861
CommandClass	-11.861
hit	-11.8612
▁getWith	-11.8613
startDate	-11.8613
setC	-11.862
TypeDescriptor	-11.8623
TokenType	-11.8626
reuse	-11.8634
outBuff	-11.8634
▁automa	-11.8636
DOWN	-11.8637
Wire	-11.8647
89	-11.8647
mission	-11.865
rib	-11.8652
Effect	-11.8654
Hyper	-11.8654
POOL	-11.8654
对	-11.8654
BUILD	-11.8654
ZonedDateTime	-11.8654
concept	-11.8654
dayOfWeek	-11.8654
readFully	-11.8654
shuffle	-11.8654
RENDER	-11.8654
RoundingMode	-11.8654
alteredNode	-11.8654
expiry	-11.8654
polymer	-11.8654
Gauge	-11.8654
Latch	-11.8654
Lemma	-11.8654
Formula	-11.8654
DURATION	-11.8654
groovy	-11.8654
PROXY	-11.8654
proceed	-11.8654
PublicIPAddress	-11.8654
computeIfAbsent	-11.8654
PKCS	-11.8654
SIMPLE	-11.8655
Cart	-11.8655
Macro	-11.8655
SchedulerSupport	-11.8655
encryption	-11.8656
Near	-11.8658
immediately	-11.8658
IpAddress	-11.8659
VALID	-11.8659
createTempFile	-11.866
▁CDKException	-11.8661
▁'_'	-11.8663
unsafe	-11.8663
clearCache	-11.8665
checkstyle	-11.8665
REQ	-11.8666
PART	-11.8666
Alt	-11.8669
sound	-11.867
TypeMirror	-11.8672
Painter	-11.8672
CommonOp	-11.8673
eInverse	-11.8678
："	-11.868
memory	-11.868
negate	-11.868
projectFile	-11.8681
BIN	-11.8689
▁pixels	-11.8693
srec	-11.8693
defined	-11.8694
Bbox	-11.8696
partitions	-11.8697
PlanNode	-11.8698
▁nls	-11.87
Months	-11.8701
toJSON	-11.8703
setSource	-11.8709
setError	-11.8713
Merged	-11.8714
:1:	-11.8718
Timezone	-11.8721
toBytes	-11.873
Dst	-11.8732
COMP	-11.8733
92	-11.8739
gain	-11.8741
▁marshaller	-11.8742
getMaximum	-11.8747
getAbsolute	-11.8749
Baseline	-11.8753
isNew	-11.8753
startPos	-11.8757
▁propertyType	-11.876
indexes	-11.8767
currentState	-11.8769
RequestParam	-11.8769
createStatement	-11.8776
InsnNode	-11.8776
FromFile	-11.8786
▁"'"	-11.8789
nav	-11.8793
getActual	-11.8796
GT	-11.8802
IE	-11.8815
Accessible	-11.8822
Supplement	-11.8825
1000	-11.8829
queueName	-11.8842
requestId	-11.8843
synchronize	-11.8845
fh	-11.8846
TING	-11.8848
▁strValue	-11.8848
suppress	-11.8849
isVisible	-11.8852
getTopic	-11.8855
intercept	-11.8856
MT	-11.8856
localAddress	-11.8856
Poly	-11.8857
github	-11.8858
commerceWishList	-11.8858
Conflict	-11.8858
Ontology	-11.8858
到	-11.8858
ACCEPT	-11.8858
EXECUTION	-11.8858
PureXbase	-11.8858
SYNC	-11.8858
decision	-11.8858
legacy	-11.8858
LISTENER	-11.8858
ListUsageMetrics	-11.8858
NUMERIC	-11.8858
ignoring	-11.8858
intensity	-11.8858
loadBalancer	-11.8858
distinct	-11.8858
OBJ	-11.8858
synpred	-11.8858
TILE	-11.8858
OptionValueRel	-11.8858
Toolbar	-11.8859
privateKey	-11.8859
mutate	-11.8859
Calc	-11.8859
Spring	-11.8859
btn	-11.886
MeasureSpec	-11.886
MANAGER	-11.8861
Sound	-11.8861
Walker	-11.8861
▁correctly	-11.8863
ScreenRecord	-11.887
Couldn	-11.8871
CmsReport	-11.8879
HttpPost	-11.8886
PortalException	-11.8886
▁maxValue	-11.8888
71	-11.8896
VarQueryParams	-11.8898
acceptor	-11.8902
LogEntry	-11.8903
getRows	-11.8903
nil	-11.8913
define	-11.8913
placement	-11.8917
ste	-11.8917
checksum	-11.8921
invoice	-11.8921
StorageAccount	-11.8923
progressListener	-11.8925
VirtualNetwork	-11.8925
extensions	-11.8926
Md	-11.8932
assertion	-11.8946
ChannelHandler	-11.8953
nIndex	-11.8956
isActive	-11.8957
+1,	-11.8957
models	-11.8959
getNative	-11.8963
images	-11.8966
expectedValue	-11.897
ChildCount	-11.8971
merged	-11.8985
▁ServerException	-11.8986
getSecond	-11.899
orderId	-11.8994
ServiceFuture	-11.8994
DryRun	-11.9003
more	-11.9003
fast	-11.9003
urlPattern	-11.9007
STM	-11.9007
chk	-11.9009
91	-11.901
cacheKey	-11.9014
emp	-11.9015
Historic	-11.9019
lin	-11.9025
"'",	-11.9029
IDE	-11.903
Prepared	-11.9032
ColumnType	-11.9041
theta	-11.9043
InUse	-11.9047
numOf	-11.9047
confirm	-11.9054
health	-11.9065
IBM	-11.9066
MEMBER	-11.9066
sampling	-11.9066
CmsSelectWidget	-11.9066
Verbose	-11.9066
BLANK	-11.9066
SafeVarargs	-11.9066
benchmark	-11.9066
▁entire	-11.9066
LDAP	-11.9066
SEQUENCE	-11.9066
ambiguous	-11.9066
mojo	-11.9066
LITERAL	-11.9066
ListenableFuture	-11.9066
文件	-11.9066
ajax	-11.9066
Disable	-11.9066
GWT	-11.9066
naming	-11.9066
PatchBaseline	-11.9067
▁'&'	-11.9067
STATEMENT	-11.9067
Overflow	-11.9067
aClass	-11.9068
REPORT	-11.9068
DetectionJob	-11.9069
▁against	-11.9069
soapModel	-11.907
▁Flowable	-11.9071
Authorized	-11.9071
requirement	-11.9072
={}	-11.9072
EXISTS	-11.9072
indicator	-11.9073
HEX	-11.9073
▁near	-11.9073
LL	-11.9074
udp	-11.9074
Persisted	-11.9077
reshape	-11.9077
HtmlStyle	-11.9078
trusted	-11.9078
discount	-11.9079
OPTIONS	-11.9079
Fact	-11.9082
Swap	-11.9085
CmsPublish	-11.9087
errMsg	-11.9088
Than	-11.9088
hints	-11.9089
WorkItem	-11.9089
logError	-11.9091
baseURI	-11.9095
ParsingException	-11.9097
CRC	-11.9098
xsd	-11.9099
setBackground	-11.91
Cpo	-11.9101
CmsRelation	-11.9102
▁dstIndex	-11.9104
TZ	-11.9104
("["	-11.9107
Waiter	-11.9115
dsl	-11.9115
AppService	-11.9117
Candidates	-11.9119
TxId	-11.912
adj	-11.9121
Minor	-11.9125
▁siteName	-11.9126
candidates	-11.9128
getFull	-11.9132
tar	-11.9133
Major	-11.9134
tk	-11.9136
PropertyDesc	-11.9139
SEND	-11.9139
getFieldName	-11.914
please	-11.9143
setScale	-11.915
INST	-11.9151
addOption	-11.9155
leg	-11.9165
getRawType	-11.9165
Invoice	-11.9165
mag	-11.9168
PathVariable	-11.9177
cfg	-11.9185
tan	-11.9198
hasOption	-11.9207
getSubject	-11.9207
clock	-11.9208
fect	-11.9213
$")	-11.9217
documentId	-11.9217
KV	-11.9224
Pause	-11.9225
getArguments	-11.9227
tribut	-11.9231
SessionData	-11.9234
del	-11.9236
LoggerFactory	-11.924
Parsing	-11.9248
RR	-11.925
IZE	-11.9253
Inverse	-11.9253
ConnectionPool	-11.9254
newHashMap	-11.9256
tionAccountName	-11.9259
▁spaces	-11.9259
ServerSocket	-11.9262
HANDLE	-11.9263
▁py	-11.9263
Detection	-11.9263
threads	-11.9264
nextChar	-11.9265
setStyle	-11.9267
Encrypt	-11.9269
tuples	-11.927
getEncoded	-11.9271
CHANGE	-11.9273
ITY	-11.9273
2.0	-11.9276
nodeID	-11.9276
black	-11.9277
SUPPORTED	-11.9279
Billing	-11.9279
Applied	-11.9279
Scenario	-11.9279
Sleep	-11.9279
tensor	-11.9279
REMOTE	-11.9279
TENANT	-11.9279
dummy	-11.9279
gateway	-11.9279
serialVersionUID	-11.9279
PERMISSION	-11.9279
Stereo	-11.9279
guard	-11.9279
Kafka	-11.9279
caching	-11.9279
ComboBox	-11.9279
DONT	-11.9279
datum	-11.9279
TEMP	-11.928
Img	-11.928
Jmx	-11.928
Mat	-11.928
1024	-11.928
Solr	-11.928
Zxid	-11.9281
initiate	-11.9281
Stem	-11.9281
ENDPOINT	-11.9282
ZooKeeper	-11.9282
findByGroupId	-11.9283
listen	-11.9283
CasWebflowCon	-11.9284
CFG	-11.9284
enqueue	-11.9284
discovery	-11.9285
solr	-11.9287
Trailing	-11.9287
InfoInner	-11.9289
EditMode	-11.9289
_2_	-11.929
precondition	-11.929
JMF	-11.929
Imports	-11.9297
▁gs	-11.9301
OnError	-11.9303
adv	-11.9304
ECoordinate	-11.9305
ForeignKey	-11.9309
setLocation	-11.9312
Trying	-11.9314
outbound	-11.9314
Effective	-11.9318
LOCALE	-11.932
VFS	-11.9326
Included	-11.9328
Picker	-11.9329
▁";"	-11.9329
Plot	-11.933
nodeData	-11.9331
ule	-11.9338
needs	-11.9341
setProperties	-11.9345
InMemory	-11.935
ingletonList	-11.9355
roles	-11.9359
Hostname	-11.9359
recording	-11.9361
AES	-11.9363
Expire	-11.9366
RawData	-11.9367
ommerceCountryId	-11.9367
sourceMap	-11.9375
xx	-11.9387
Statuses	-11.939
lineno	-11.9392
getLastModified	-11.9398
notEmpty	-11.9402
interceptors	-11.9403
exe	-11.9405
refs	-11.9406
AsInt	-11.9407
FormField	-11.9413
Declared	-11.9414
getPrimaryKey	-11.9415
getProfile	-11.9415
diag	-11.9415
sigma	-11.9415
fireEvent	-11.9416
HeadName	-11.9417
getOrCreate	-11.9418
dependencies	-11.9419
embedded	-11.9421
ification	-11.9424
Ob	-11.9424
which	-11.9424
OutputHandler	-11.9431
ThreadLocal	-11.9432
isNotNull	-11.9444
RNA	-11.9449
Fax	-11.9454
getFileName	-11.9457
startPosition	-11.9463
pager	-11.9464
Pad	-11.9466
[0]));	-11.9474
FileInputStream	-11.9474
setOutput	-11.9478
getPortlet	-11.9482
Datatype	-11.9484
stants	-11.9485
NDArray	-11.9491
inx	-11.9492
Profiles	-11.9492
NOTIFICATION	-11.9496
数据	-11.9496
findViewById	-11.9496
を	-11.9496
Population	-11.9496
frequency	-11.9496
▁stuff	-11.9496
Centroid	-11.9496
Deletion	-11.9496
Latitude	-11.9496
OJB	-11.9496
REGISTER	-11.9496
executable	-11.9496
residue	-11.9496
toggle	-11.9496
ー	-11.9496
Detach	-11.9497
relevant	-11.9497
Consonant	-11.9497
Guild	-11.9497
business	-11.9497
introspect	-11.9497
SPECIFICATION	-11.9497
TRANSLATION	-11.9497
Interconnect	-11.9497
LinearRing	-11.9497
THAN	-11.9497
getInitParameter	-11.9497
!!!	-11.9497
persistent	-11.9498
stroke	-11.9498
▁anyway	-11.9499
membership	-11.9499
onComplete	-11.95
Normalizer	-11.9501
Assignable	-11.9501
timeStamp	-11.9502
bug	-11.9502
inherited	-11.9503
+1	-11.9504
Derived	-11.9505
STARTED	-11.9505
ASN	-11.9506
SIG	-11.9507
▁refer	-11.9508
SocketFactory	-11.9509
endDate	-11.951
TypeSignature	-11.9512
Seek	-11.9512
999	-11.9513
OpenMode	-11.9513
Fetcher	-11.9515
BITS	-11.9516
DocumentElement	-11.9517
Hive	-11.9518
getPassword	-11.9518
TraceEvent	-11.9518
rectF	-11.9521
putResult	-11.9534
listIterator	-11.9534
acquired	-11.9535
ClientConfig	-11.9535
Relational	-11.9536
NumberVector	-11.954
ATTRIBUTES	-11.9541
getSingle	-11.9544
XMLReader	-11.9551
JMX	-11.9551
QueryPos	-11.9551
InstanceInfo	-11.9554
activated	-11.9555
getLineNumber	-11.9556
▁sv	-11.956
▁")";	-11.9561
faxJob	-11.9569
▁deserializer	-11.9573
][1]	-11.9588
credential	-11.9591
▁ConcurrentHash	-11.9591
fromIndex	-11.9592
checked	-11.9593
getPrimary	-11.9598
clauses	-11.96
polling	-11.9604
▁startOffset	-11.9608
SecurityContext	-11.9614
CommerceAddress	-11.9616
Cli	-11.9616
cacheResult	-11.9617
▁3]	-11.9621
ector	-11.9629
logout	-11.9631
tau	-11.9635
ntp	-11.9637
DataFormat	-11.9637
prepend	-11.9646
padding	-11.965
comm	-11.9654
Actual	-11.9655
UniqueId	-11.9656
isLeaf	-11.9657
Activate	-11.9657
IdGenerator	-11.9658
intern	-11.9661
PAR	-11.9662
-8"	-11.9674
standard	-11.9675
ClientResponse	-11.9677
isOpen	-11.9678
DateRange	-11.9685
invokeMethod	-11.9686
CORE	-11.9689
SEG	-11.9693
Invalidate	-11.9694
disabled	-11.9695
LogManager	-11.9697
▁restriction	-11.9699
OpCode	-11.9706
suspend	-11.971
configured	-11.9713
atomic	-11.9716
Controllable	-11.9717
FAIL	-11.9718
DIRECT	-11.9718
Assembly	-11.9719
Acquire	-11.9719
Repositories	-11.9719
scenario	-11.9719
BRACKET	-11.9719
Guacamole	-11.9719
Handling	-11.9719
Mention	-11.9719
deprecated	-11.9719
possibly	-11.9719
Knowledge	-11.9719
purpose	-11.9719
Drag	-11.9719
zrk	-11.9719
TRANSPORT	-11.9719
ascii	-11.9719
▁'-')	-11.9719
SSLSocketFactory	-11.9719
eadUnsignedShort	-11.9719
▁'\"'	-11.9719
Jdk	-11.9719
▁explicitly	-11.9719
JsHdr	-11.9719
SIBUuid	-11.9719
paragraph	-11.9719
REPLACE	-11.9719
motion	-11.9719
generation	-11.9719
Dict	-11.972
Trail	-11.972
MENU	-11.9721
▁classPK	-11.9722
derivY	-11.9723
rowCount	-11.9725
crop	-11.9727
beanId	-11.9728
dense	-11.9732
HANDLER	-11.9736
reachable	-11.9736
DONE	-11.9737
ListResultInner	-11.9737
commons	-11.9737
getPublic	-11.9741
Oid	-11.9745
WeekDay	-11.9746
▁certs	-11.9746
hmac	-11.9748
mbean	-11.9748
auc	-11.9758
Minus	-11.9759
Rendering	-11.9762
logback	-11.9762
▁deal	-11.9763
relationshipType	-11.9763
NewLine	-11.9768
perPage	-11.977
ski	-11.9771
Budget	-11.9771
oauth	-11.9771
▁-->	-11.9773
TMP	-11.9775
needle	-11.9778
getGroupId	-11.9781
ParserRule	-11.9783
fromBytes	-11.9789
LocalVariable	-11.9793
DataTable	-11.9798
formatMessage	-11.9798
removeChild	-11.9799
poolId	-11.9799
newHashSet	-11.9804
currentLine	-11.9807
charCount	-11.9808
interfaces	-11.981
getRandom	-11.9812
WRAP	-11.9812
createResource	-11.9816
Includes	-11.9817
Outline	-11.9818
loaded	-11.9819
▁relations	-11.9821
▁counters	-11.9825
StatusLine	-11.9832
linear	-11.9832
Signer	-11.9833
▁computed	-11.9835
ItemData	-11.9836
ResourceManager	-11.9837
Polling	-11.9838
stackSize	-11.985
2_0	-11.9852
▁dto	-11.9864
ResponseHandler	-11.9865
TypeLiteral	-11.9868
SearchResults	-11.9874
endElement	-11.9883
getResourceId	-11.9887
typeElement	-11.989
PU	-11.9892
RP	-11.9893
▁sl	-11.9897
Comm	-11.9899
replacement	-11.9903
Sensitive	-11.9909
SocketAddress	-11.9909
Handled	-11.9912
▁usual	-11.9915
FileFilter	-11.9916
erAccess	-11.9917
binder	-11.9917
EXTRA	-11.992
Installed	-11.992
REL	-11.9921
CAP	-11.9921
Portal	-11.9929
▁"?"	-11.993
Slide	-11.9933
annotate	-11.9933
createOrUpdate	-11.9939
Workplace	-11.994
either	-11.994
conditional	-11.9941
when	-11.9943
Neighbour	-11.9945
potential	-11.9946
个	-11.9946
SQUARE	-11.9946
PRIMARY	-11.9946
Traffic	-11.9946
Appearance	-11.9946
migration	-11.9946
BOTTOM	-11.9946
Evidence	-11.9946
fingerprint	-11.9946
policies	-11.9946
pseudo	-11.9946
ALIAS	-11.9946
Audience	-11.9946
CREDENTIAL	-11.9946
DYNAMIC	-11.9946
termination	-11.9946
BUTTON	-11.9946
Explanation	-11.9946
pretty	-11.9946
NullPointer	-11.9946
isErrorEnabled	-11.9946
▁rather	-11.9946
CELL	-11.9946
article	-11.9947
BIGINT	-11.9947
HELP	-11.9947
claim	-11.9947
PLAIN	-11.9947
Colour	-11.9948
Most	-11.9949
collDef	-11.9949
keyPerson	-11.995
absent	-11.995
SETTINGS	-11.995
▁milliseconds	-11.9953
Guid	-11.9954
TimeSeries	-11.9954
Way	-11.9954
etrieveFromCache	-11.9955
▁asyncHandler	-11.9955
AttributeNames	-11.9958
▁smaller	-11.9959
CERT	-11.996
UnicodeSet	-11.996
Expanded	-11.9963
CDI	-11.9964
CharAt	-11.9966
spanStart	-11.9969
scheduler	-11.997
Cred	-11.9972
TaskAttempt	-11.9972
getPref	-11.9984
CAS	-11.9988
Waiting	-11.9989
anc	-11.9989
Pom	-11.9991
▁reporter	-11.9991
PropertyData	-11.9992
SECTION	-11.9997
repeat	-12.0002
getQPath	-12.0007
ServletConfig	-12.001
isPublic	-12.0012
insn	-12.0017
SUM	-12.002
DataBuffer	-12.0022
▁jsonConfig	-12.0025
CodeSource	-12.0026
Ec	-12.0036
tempDir	-12.0038
ResourceModel	-12.0042
DisplayName	-12.0046
pushObject	-12.0047
TaskListener	-12.0048
▁replaced	-12.0056
ipAddress	-12.0057
tyleable	-12.0061
")){	-12.0073
getErrorCode	-12.0075
bbox	-12.0079
Require	-12.0083
fun	-12.0084
Salt	-12.0088
ByKey	-12.0095
================	-12.0097
getContentType	-12.0098
Mixin	-12.01
MG	-12.0105
LeafNode	-12.0108
JobHandler	-12.0113
▁ListOperation	-12.0116
▁rx	-12.012
objectType	-12.0125
commerceAccount	-12.0126
("'"	-12.0148
bins	-12.0152
Serialize	-12.0155
ask	-12.0156
Company	-12.0161
todo	-12.0161
ful	-12.0166
{}",	-12.0169
Analyze	-12.0171
putLong	-12.0171
Deriv	-12.0171
QueryResponse	-12.0173
adjust	-12.0175
CONNECT	-12.0177
▁cri	-12.0177
AREA	-12.0178
prompt	-12.0178
asJena	-12.0179
DEFINITION	-12.0179
Surrogate	-12.0179
Intensity	-12.0179
phrase	-12.0179
é	-12.0179
////////////////	-12.0179
Occurrence	-12.0179
QUEUE	-12.0179
Recipient	-12.0179
INTERFACE	-12.0179
DISTRIBUTION	-12.0179
RANGE	-12.0179
出	-12.0179
Residue	-12.0179
Sftp	-12.0179
('.',	-12.0179
parameterToPair	-12.0179
▁bldr	-12.0179
Highlight	-12.0179
OWLAxiom	-12.0179
money	-12.0179
Emitter	-12.0179
ClientRequestId	-12.0179
RecyclerView	-12.0179
▁'*'	-12.0179
assoc	-12.018
tbn	-12.018
evaluator	-12.0181
enforce	-12.0182
▁'+'	-12.0182
▁nice	-12.0182
SAXParser	-12.0182
Protected	-12.0183
PhysicalEntity	-12.0183
Nonce	-12.0183
▁htmltree	-12.0184
Dead	-12.0184
Training	-12.0184
KNN	-12.0184
UnknownHost	-12.0184
Allocation	-12.0184
appfw	-12.0185
Insertion	-12.0185
currencyPair	-12.0186
ImageBorder	-12.0188
JobInfo	-12.0191
RDD	-12.0191
separatorChar	-12.0194
tsdb	-12.0194
Seg	-12.0196
waiting	-12.0199
unmodifiableMap	-12.0201
unpack	-12.0202
weak	-12.0202
organizationName	-12.0203
InitialContext	-12.0204
east	-12.0204
Aggregated	-12.0204
URLEncoder	-12.0206
difference	-12.0206
choice	-12.0207
PartitionId	-12.021
combo	-12.021
Ptr	-12.0211
BatchStatus	-12.0214
vy	-12.0214
star	-12.0218
setFont	-12.0219
setFill	-12.0222
tgt	-12.0222
fout	-12.0229
nanos	-12.0229
OutputFormat	-12.0235
strHTML	-12.0235
DNS	-12.0238
isDone	-12.0243
getFilename	-12.0245
cost	-12.0249
currentChar	-12.0256
RouteRequest	-12.0256
EndTag	-12.0258
Serv	-12.0259
▁tf	-12.0264
TypeDeclaration	-12.0267
blocksize	-12.0272
setAt	-12.0274
snap	-12.0277
fileExtension	-12.0279
MetaClass	-12.028
93	-12.0293
Iso	-12.0297
LineNumber	-12.0302
CompanyId	-12.0306
ErrorResponse	-12.0308
onFailure	-12.0312
HttpMessage	-12.0317
ric	-12.0321
DbContext	-12.0334
uf	-12.0335
512	-12.0337
WildcardType	-12.0337
Exclusion	-12.0338
AsList	-12.0344
SimpleAntlr	-12.0346
DomainName	-12.0347
outStream	-12.0357
▁toReturn	-12.0377
Foreign	-12.0379
1.5	-12.0387
ConfigProperty	-12.0388
CacheManager	-12.0393
oad	-12.0396
wanted	-12.0397
setFeature	-12.0397
Stroke	-12.0399
MUL	-12.0409
interpret	-12.041
Gallery	-12.0412
RegEx	-12.0412
08	-12.0413
ALLOW	-12.0416
Axiom	-12.0416
corpora	-12.0417
Distributed	-12.0417
BATCH	-12.0417
Caching	-12.0417
Embeddable	-12.0417
Equivalent	-12.0417
ROUND	-12.0417
ncluding	-12.0417
Introspector	-12.0417
Liberty	-12.0417
THRESHOLD	-12.0417
VARIABLE	-12.0417
determinant	-12.0417
physical	-12.0417
▁according	-12.0417
▁cellSizeInDp	-12.0417
Fluent	-12.0417
audience	-12.0417
octet	-12.0417
scalar	-12.0417
variance	-12.0417
Parallelism	-12.0417
▁blackHole	-12.0417
checkRequiredTag	-12.0417
stringTo	-12.0417
UDP	-12.0417
Hot	-12.0417
Cron	-12.0417
Interest	-12.0417
▁pRequestData	-12.0417
Nearest	-12.0417
Mesh	-12.0418
messagingEngine	-12.0418
FNC	-12.0418
Instantiat	-12.0418
Skipping	-12.0418
RelativeLayout	-12.0419
daylight	-12.042
ImmutableTerm	-12.042
▁hard	-12.042
ResponseWriter	-12.042
▁SSLContext	-12.0421
isInfinite	-12.0422
▁indicate	-12.0423
maxAge	-12.0425
SCHEME	-12.0425
DroppedException	-12.0429
OrEmpty	-12.043
SiteInner	-12.043
Slider	-12.043
MouseEvent	-12.0431
Lite	-12.0431
QPath	-12.0432
eigen	-12.0432
talResultSetSize	-12.0432
aborted	-12.0432
▁pathSegments	-12.0433
▁'='	-12.0433
EQUALS	-12.0433
Rename	-12.0434
Unlock	-12.0434
Pod	-12.0436
▁InvalidKey	-12.0438
setMin	-12.0439
RPT	-12.0441
pct	-12.0443
StartTag	-12.0444
setWidth	-12.0445
gzip	-12.0445
javascript	-12.0446
copyTo	-12.0447
CmsCategory	-12.0452
DefaultInstance	-12.0456
ProviderInfo	-12.0459
LING	-12.046
rth	-12.0461
CharBuffer	-12.0462
▁mass	-12.0464
QueryParams	-12.0465
ResourceMetric	-12.0467
JsonParser	-12.0472
▁mixin	-12.0473
Degrees	-12.0477
LeftChild	-12.0478
Deserialization	-12.048
RuleInner	-12.0484
specific	-12.0484
math	-12.0487
strategy	-12.0487
since	-12.0492
ValidationResult	-12.0496
cpOption	-12.0497
annotated	-12.0497
▁mismatch	-12.0498
received	-12.05
remoteAddress	-12.0506
(4,	-12.0506
ColumnFamily	-12.0511
83	-12.0512
Kit	-12.0514
MultiValue	-12.0515
storeName	-12.0524
runTask	-12.0526
▁5;	-12.053
Consume	-12.0537
isFull	-12.0537
monitoring	-12.0538
setter	-12.0545
CPD	-12.0545
264	-12.0548
getFullName	-12.0554
srcFile	-12.056
ImageIO	-12.0563
getHostName	-12.0565
ENABLE	-12.0567
▁retriev	-12.057
attrValue	-12.0574
getTimeZone	-12.0574
While	-12.0579
Skill	-12.0585
setLabel	-12.059
onClick	-12.059
Maintenance	-12.06
setLine	-12.0604
priv	-12.0604
exclusion	-12.0608
DIV	-12.0608
PropertyChange	-12.0613
Combine	-12.0617
cst	-12.0633
ThreadGroup	-12.0642
▁rsp	-12.0644
jndi	-12.0646
CPAtt	-12.0657
Instrument	-12.066
PLACE	-12.066
UpdateObject	-12.066
Bitcoin	-12.066
DESCRIPTOR	-12.066
LAYOUT	-12.0661
MESSAGING	-12.0661
reactant	-12.0661
CommerceShipping	-12.0661
INNER	-12.0661
RETRY	-12.0661
keepAlive	-12.0661
websphere	-12.0661
Delegation	-12.0661
STANDARD	-12.0661
UNDEFINED	-12.0661
Decision	-12.0661
Stanza	-12.0661
experiment	-12.0661
值	-12.0661
isAlive	-12.0661
('0'	-12.0661
OTHER	-12.0661
hull	-12.0661
入	-12.0661
monomer	-12.0661
surface	-12.0661
SCROLL	-12.0661
verification	-12.0661
POD	-12.0661
STEP	-12.0661
StudyMetadata	-12.0661
pReqVars	-12.0661
cnfe	-12.0661
SAML	-12.0662
jwt	-12.0662
▁caught	-12.0662
Webhook	-12.0663
setIcon	-12.0663
WeakReference	-12.0664
persistenceUnit	-12.0665
endIndex	-12.0665
ually	-12.0666
▁VoltType	-12.0666
Keyspace	-12.0666
slide	-12.0666
permit	-12.0667
CRLF	-12.0667
SipSession	-12.0668
CPRule	-12.0668
unsupported	-12.0671
Deployed	-12.0674
metricName	-12.0674
jndiName	-12.0675
IZED	-12.0677
objData	-12.0678
yy	-12.0678
Squared	-12.068
blocked	-12.068
hdfs	-12.068
StepExecution	-12.0682
parseFloat	-12.0684
signing	-12.0685
▁timeUnit	-12.0686
▁1][	-12.0687
Savings	-12.0688
EndpointsRequest	-12.0689
ChronoField	-12.0694
hd	-12.0694
mContext	-12.0696
Forest	-12.0698
receive	-12.0699
Finally	-12.0706
freq	-12.0714
PRINT	-12.072
Monitored	-12.0722
StackSize	-12.0722
messageDigest	-12.0723
alive	-12.0729
NET	-12.0732
PrimitiveType	-12.0743
(':');	-12.0746
Smi	-12.0748
componentId	-12.0764
operand	-12.0769
photos	-12.0775
maybe	-12.0776
finer	-12.0778
mitted	-12.078
CRI	-12.0783
branchId	-12.0783
visitor	-12.0783
JvmType	-12.0786
OutputPath	-12.0787
known	-12.0791
getTriple	-12.0793
MessageImpl	-12.0798
but	-12.0803
istic	-12.0805
getDefaultValue	-12.0814
TextNode	-12.0816
regexp	-12.0823
onNext	-12.0825
logLevel	-12.0825
containerId	-12.0829
("=");	-12.0833
RootPath	-12.0833
obtain	-12.0843
responseBody	-12.0844
▁streaming	-12.0855
▁facet	-12.0855
Versioned	-12.0858
Mult	-12.088
ProfileRequest	-12.0884
InMs	-12.0902
quot	-12.0907
Else	-12.0908
Black	-12.0908
中	-12.091
Overlap	-12.091
Denominator	-12.0911
加	-12.0911
CHARACTER	-12.0911
Collapse	-12.0911
DIGIT	-12.0911
PIXEL	-12.0911
Trivial	-12.0911
capitalize	-12.0911
compilation	-12.0911
discriminator	-12.0911
satisfied	-12.0911
COOKIE	-12.0911
Guice	-12.0911
Spacing	-12.0911
dedicated	-12.0911
diagnostic	-12.0911
mechanism	-12.0911
spatial	-12.0911
translator	-12.0911
▁slave	-12.0911
に	-12.0911
ABSTRACT	-12.0911
Molecule	-12.0911
migrate	-12.0911
glyph	-12.0911
本	-12.0911
Unmarshaller	-12.0911
BLACK	-12.0911
InternalEObject	-12.0911
deferred	-12.0911
Toast	-12.0911
Netty	-12.0911
COLON	-12.0911
Compose	-12.0911
MARKER	-12.0912
METADATA	-12.0912
Undefined	-12.0912
spliterator	-12.0912
Extent	-12.0913
authn	-12.0913
workplace	-12.0914
CommerceRegion	-12.0914
contract	-12.0914
FIX	-12.0914
COUNTER	-12.0915
▁OvhOrder	-12.0916
Recent	-12.0916
▁reconnect	-12.0916
▁hack	-12.0916
Subsystem	-12.0917
sipApplication	-12.0917
PAY	-12.0917
▁likely	-12.0917
EVAL	-12.0918
DimFilter	-12.0919
▁turn	-12.0919
Symbolic	-12.0919
▁rtn	-12.092
webapp	-12.0922
redirectUri	-12.0922
Cleaner	-12.0923
IPAddress	-12.0923
YES	-12.0923
getResourceUrl	-12.0923
▁EnumSet	-12.0924
datatype	-12.0927
ProgressListener	-12.0928
BR	-12.093
InSeconds	-12.093
MultiPoint	-12.0936
rethrow	-12.0936
sourceDir	-12.0937
Vfs	-12.0938
▁uv	-12.0943
sock	-12.0947
exchangeService	-12.0951
Grow	-12.0953
DateTimeZone	-12.0955
unread	-12.0958
HashCode	-12.096
Gene	-12.0964
allocated	-12.0973
MethodSpec	-12.0973
[]{"	-12.0974
firstChild	-12.0975
▁doGet	-12.0976
▁(;;)	-12.0976
ReferenceCode	-12.0982
()]));	-12.1
Requires	-12.1
Reducer	-12.1004
setTransaction	-12.1004
expecting	-12.1007
()>0)	-12.1007
support	-12.1013
argv	-12.1018
serverConfig	-12.1019
lz	-12.102
Explorer	-12.1027
ObjectFactory	-12.103
JsonValue	-12.1033
PaddingException	-12.1034
ListAccountRel	-12.1037
BeanO	-12.1042
rot	-12.1042
InstancesRequest	-12.1042
▁"1"	-12.1044
rebuild	-12.1051
positive	-12.1055
subscriptions	-12.1056
Fit	-12.1059
MC	-12.1069
ido	-12.1073
Hea	-12.1076
Org	-12.1076
▁qName	-12.1076
big	-12.108
nextNode	-12.1081
pom	-12.1085
floatValue	-12.1088
▁classDef	-12.109
000000	-12.1098
▁who	-12.1098
ICON	-12.1114
3_0	-12.1116
WorkplaceManager	-12.1121
AVE	-12.1123
AutoScaling	-12.1123
ToBytes	-12.1123
numerator	-12.1125
fullPath	-12.1128
quota	-12.1131
LB	-12.1131
doFinal	-12.1131
ServiceCall	-12.1134
TTL	-12.1135
<<=	-12.1135
JK	-12.1137
kid	-12.114
▁executed	-12.1148
RuleSet	-12.1162
clz	-12.1163
except	-12.1166
Thumbnail	-12.1166
▁moment	-12.1166
Convention	-12.1167
PARTITION	-12.1167
TOPOLOGY	-12.1167
CURLY	-12.1167
PLUS	-12.1167
Density	-12.1167
Guaranteed	-12.1167
Wake	-12.1167
OVERRIDE	-12.1167
Snippet	-12.1167
quiet	-12.1167
sensitive	-12.1167
一个	-12.1167
Foreground	-12.1167
Lease	-12.1167
Retain	-12.1167
DIGEST	-12.1167
Exponent	-12.1167
Jetty	-12.1167
MISSING	-12.1167
REDUCE	-12.1167
proposal	-12.1167
PMeasurementUnit	-12.1167
Robot	-12.1167
IoSession	-12.1167
coverage	-12.1167
lexerEngine	-12.1167
bdalib	-12.1167
CPOptionCategory	-12.1167
Feedback	-12.1168
▁ScriptRuntime	-12.1168
Sku	-12.1168
TypedArray	-12.1168
▁dayOfMonth	-12.1169
badge	-12.1169
PendingIntent	-12.1169
Incorrect	-12.1169
DISABLED	-12.1169
Doclet	-12.1171
PlayerSession	-12.1173
▁But	-12.1173
ServiceRef	-12.1174
prog	-12.1175
Trade	-12.1175
createObject	-12.1176
prefer	-12.1176
▁decompress	-12.1177
suspended	-12.1178
Jpa	-12.1182
▁beginUpdate	-12.1182
quad	-12.1182
XmlGenerator	-12.1185
▁sslContext	-12.1189
localhost	-12.1192
ImageView	-12.1193
xmlns	-12.1194
TaskTracker	-12.1196
canRead	-12.1198
UserID	-12.1199
asType	-12.12
CellStyle	-12.12
▁StreamResult	-12.1202
▁headerValue	-12.1203
Finding	-12.1206
These	-12.121
methodNode	-12.1214
tachedKeyPersons	-12.1223
ZK	-12.1224
attributeValues	-12.1227
▁sdf	-12.1229
NoResponse	-12.1229
CallExpression	-12.1232
▁Prc	-12.1235
uninstall	-12.1238
xFFFF	-12.1242
Escaped	-12.1246
TLS	-12.1253
halt	-12.1254
getMinimum	-12.1255
SharedPreference	-12.1269
childName	-12.127
ClasspathElement	-12.127
getHostAddress	-12.1276
GroupMembers	-12.1281
JobID	-12.1282
setAuto	-12.1282
getPrevious	-12.1295
▁{0}"	-12.1297
QueueEntry	-12.1302
webElement	-12.1305
Expires	-12.1308
joining	-12.1308
Daemon	-12.1308
setContentType	-12.1312
OrEqual	-12.1315
setActive	-12.1321
ommerceOrderNote	-12.1343
ShortName	-12.136
domainName	-12.1368
exist	-12.1368
populate	-12.1369
Formatted	-12.137
small	-12.1372
schemaName	-12.1373
injector	-12.1373
Calling	-12.1375
TaskState	-12.1375
iteration	-12.1375
Mirror	-12.1377
vict	-12.1381
itter	-12.1387
readAll	-12.1407
▁PageException	-12.1415
LinkedList	-12.1418
Locking	-12.1418
bracket	-12.1419
PDB	-12.1425
Recover	-12.1427
ayOfMonth	-12.1429
Protection	-12.143
类型	-12.143
方法	-12.143
Alphabet	-12.143
Corpus	-12.143
MAGIC	-12.143
Yaml	-12.143
federated	-12.143
Communication	-12.143
Inference	-12.143
OperatingSystem	-12.143
Vulnerability	-12.143
Writing	-12.143
anonymous	-12.143
BUCKET	-12.143
Hibernate	-12.143
Reached	-12.143
STORAGE	-12.143
aktMemo	-12.143
participant	-12.143
ALPHA	-12.143
PUBLISH	-12.143
Crud	-12.143
LessThan	-12.143
WRONG	-12.143
▁FIXME	-12.143
CONSTANT	-12.143
TRIPLETS	-12.143
する	-12.143
则	-12.143
词	-12.143
volt	-12.143
EXIT	-12.143
elastic	-12.143
Lexical	-12.143
IoBuffer	-12.143
▁AtomicInteger	-12.1431
spring	-12.1432
feedback	-12.1432
800	-12.1432
transient	-12.1433
SQLite	-12.1434
PolymerNotation	-12.1434
aaa	-12.1434
Svc	-12.1434
deflate	-12.1435
▁unless	-12.1436
declaringClass	-12.1437
CONF	-12.1438
Fade	-12.144
WriteLock	-12.144
SITE	-12.1441
_2=	-12.1442
webSocket	-12.1443
unmodifiableSet	-12.1444
Combined	-12.1444
READY	-12.1448
HINT	-12.145
countDown	-12.145
charge	-12.1451
recent	-12.1456
▁higher	-12.1456
GSI	-12.1458
ChunkSize	-12.1463
OnClickListener	-12.1464
readBytes	-12.1464
Bounded	-12.1465
StorePackage	-12.1469
Released	-12.147
amo	-12.1472
resName	-12.1474
)||(	-12.1476
ForNull	-12.1478
Converted	-12.1479
UIContext	-12.1483
getPolymer	-12.1487
Documentation	-12.1491
nio	-12.1492
StreamSource	-12.1492
GROUPS	-12.1492
▁nor	-12.1495
getContextPath	-12.1495
onClose	-12.15
numColumns	-12.1502
RootCause	-12.1502
removeAttribute	-12.1509
cron	-12.151
NotAvailable	-12.1518
soy	-12.1529
diags	-12.1531
Recording	-12.1536
oAuth	-12.154
dataLength	-12.1541
hasPermission	-12.1541
Proxies	-12.1542
getPrecision	-12.1548
errorMsg	-12.1555
IES	-12.1565
TypeUtility	-12.1569
theA	-12.1574
ByCompanyId	-12.1575
ItemCount	-12.1577
MIS	-12.1582
oper	-12.1585
SimpleName	-12.1591
ERA	-12.1606
getInterfaces	-12.1609
▁injection	-12.1612
ARC	-12.1616
readerIndex	-12.1618
semantic	-12.1618
HH	-12.1627
DataInput	-12.1631
pooled	-12.1634
outputPath	-12.1636
Shards	-12.1638
scanResult	-12.1638
Claim	-12.1645
chargingStation	-12.1651
setDuration	-12.1656
mNext	-12.1658
preds	-12.1661
Called	-12.1664
Rotate	-12.1671
createMessage	-12.1675
127	-12.1675
threshold	-12.168
▁eventData	-12.1683
arity	-12.1685
Structural	-12.1686
nested	-12.1688
Cont	-12.1688
connector	-12.1689
will	-12.1694
Confirm	-12.1695
ICAL	-12.1697
CDATA	-12.1698
getElementsByTag	-12.17
后	-12.17
Invitation	-12.17
Smooth	-12.17
BASIC	-12.17
FRAGMENT	-12.17
Favorite	-12.17
capabilitie	-12.17
throttle	-12.17
Anonymous	-12.17
Aromatic	-12.17
ENDIAN	-12.17
Introspection	-12.17
MEMORY	-12.17
Suspend	-12.17
bRelationKnown	-12.17
establish	-12.17
▁guarantee	-12.17
Activities	-12.17
HOME	-12.17
MASTER	-12.17
MovieDbException	-12.17
Synonym	-12.17
infinite	-12.17
kryo	-12.17
outstanding	-12.17
reservoir	-12.17
Flux	-12.17
MUST	-12.17
Presence	-12.17
dWordsServices	-12.17
corrupt	-12.17
UNSIGNED	-12.17
yyyy	-12.17
器	-12.17
Speed	-12.1701
nesting	-12.1701
robot	-12.1701
ASSIGN	-12.1701
aaauser	-12.1702
permitted	-12.1702
vote	-12.1702
highlight	-12.1703
SSLEngine	-12.1704
▁SMB	-12.1704
cancelled	-12.1704
▁Let	-12.1704
umanSubjects	-12.1705
Later	-12.1705
▁incorrect	-12.1706
▁MutableBoolean	-12.1706
proj	-12.1707
Permutation	-12.1709
BigQuery	-12.171
explorer	-12.171
isEqual	-12.1712
ControlFlow	-12.1713
▁appendTo	-12.1715
OOM	-12.1716
loss	-12.1717
▁LongTuple	-12.1718
IFY	-12.1719
CPOptionValue	-12.1719
CommerceShipment	-12.1728
FlowDefinition	-12.1731
▁neighbors	-12.1731
Assigned	-12.1732
getColumnIndex	-12.1732
DELETED	-12.1735
LoggingEvent	-12.1735
▁wasn	-12.1737
CmsGroup	-12.1737
FileStore	-12.174
noise	-12.174
may	-12.1743
parentPath	-12.1744
photoId	-12.1747
ToByteArray	-12.1748
FeatureCall	-12.1749
getIts	-12.1755
createWidget	-12.1758
zos	-12.176
Reconnect	-12.1764
setUse	-12.1765
TimeStamp	-12.1766
DOC	-12.1768
PrefixLength	-12.1769
Saved	-12.177
mdc	-12.177
inspect	-12.1772
readUTF	-12.1777
executeBatch	-12.1778
partial	-12.178
Memo	-12.1783
Arch	-12.1783
tasklet	-12.1786
URLClassLoader	-12.1791
isDigit	-12.1793
Viewport	-12.1793
processing	-12.1796
getErrorMessage	-12.1796
Misc	-12.1802
JsonWriter	-12.1807
XAttribute	-12.1814
lets	-12.1824
isRunning	-12.1825
currentWord	-12.1831
tableDef	-12.1845
channelId	-12.185
Sampler	-12.1859
rootNode	-12.186
▁come	-12.1869
WaitTime	-12.1869
grad	-12.1877
Periodic	-12.1885
setConstraint	-12.1885
ZoneOffset	-12.1887
tackTraceElement	-12.1889
ItsId	-12.189
:{}	-12.1893
readFields	-12.1895
blockId	-12.1897
▁getCharacter	-12.1904
derive	-12.1908
-----	-12.1912
Polymer	-12.1914
Bool	-12.1915
isSingle	-12.1919
Targeting	-12.192
SystemId	-12.1933
CellValue	-12.1938
▁48	-12.1947
MathContext	-12.1947
writeLine	-12.1947
Exterior	-12.1954
Miss	-12.1959
2000	-12.1959
setBody	-12.197
▁sparse	-12.1973
Evaluate	-12.1978
certificateName	-12.1978
polyline	-12.1978
▁OtpErlang	-12.1978
Album	-12.1978
PROGRESS	-12.1978
VERTICAL	-12.1978
denominator	-12.1978
Affinity	-12.1978
Board	-12.1978
Denied	-12.1978
Eviction	-12.1978
Experiment	-12.1978
Mount	-12.1978
Octet	-12.1978
QueryNotices	-12.1978
REVERSE	-12.1978
SLASH	-12.1978
Scheduling	-12.1978
inventory	-12.1978
misExtensionType	-12.1978
yield	-12.1978
AUTHENTICATION	-12.1978
Article	-12.1978
COMMIT	-12.1978
Coordinator	-12.1978
AVIM	-12.1978
Movie	-12.1978
ifModifiedSince	-12.1978
CmsPermissionSet	-12.1978
chosen	-12.1978
▁much	-12.1978
water	-12.1978
sizeInBytes	-12.1978
▁infer	-12.1978
EXPIRE	-12.1978
JavaFileObject	-12.1978
nvoking	-12.1979
Hard	-12.1979
CoreSPI	-12.1979
mongo	-12.1979
%1$	-12.1979
outcome	-12.1979
getStructureId	-12.1979
Sharing	-12.1979
embed	-12.1979
docker	-12.1979
LOWER	-12.198
rollup	-12.198
SoyMsg	-12.198
clientRequestId	-12.198
SCAN	-12.1981
Extraction	-12.1981
implies	-12.1981
itsId	-12.1981
Outgoing	-12.1982
▁detected	-12.1982
▁cnx	-12.1982
neededFields	-12.1983
kvs	-12.1984
Compressed	-12.1985
▁SshException	-12.1985
Synchronized	-12.1985
JCTree	-12.1985
DBGP	-12.1986
Provided	-12.1988
dynamicQuery	-12.1988
DDF	-12.1989
getPageSize	-12.1991
curve	-12.1993
urlEncode	-12.1994
ensureCapacity	-12.1994
▁basicSet	-12.1994
repaint	-12.1995
Warn	-12.1995
▁parentScreen	-12.1997
Equality	-12.1997
setStroke	-12.1999
SelectEClass	-12.1999
bill	-12.2001
▁EChange	-12.2001
ntk	-12.2003
Excluded	-12.2007
Does	-12.2008
Quoted	-12.2009
▁agg	-12.2011
ChannelFuture	-12.2015
[8]	-12.2017
ValuesHolder	-12.2017
setBorder	-12.2018
SPI	-12.2028
actualValue	-12.203
▁forced	-12.2033
dateStr	-12.2037
TimeOfDay	-12.2039
doOn	-12.2045
DBCluster	-12.2045
▁sel	-12.205
cookieName	-12.2052
RelationshipType	-12.206
through	-12.2064
ContentHandler	-12.2066
bad	-12.2066
sourceClass	-12.2068
CMA	-12.2068
jobSpec	-12.2069
Validating	-12.207
CurrentProject	-12.2073
Jid	-12.2074
zoneId	-12.2082
QueryParameters	-12.2084
404	-12.2088
toExternal	-12.2089
Scaling	-12.2094
FILES	-12.2096
getOptionValue	-12.2098
125	-12.2098
colName	-12.2099
ITE	-12.2106
SEQ	-12.2108
isLast	-12.211
PropertiesInner	-12.2115
MethodInsn	-12.2124
codepoint	-12.2126
PREF	-12.2129
CommerceAccount	-12.2139
UniqueID	-12.2139
▁sourceMethod	-12.2142
selectedIndex	-12.2146
BucketName	-12.2159
urlStr	-12.216
ProjectId	-12.2162
parsers	-12.2164
CreateObject	-12.2176
Leader	-12.2177
ommerceOrderItem	-12.2177
KeyGenerator	-12.2179
nnectedException	-12.2181
▁NotCo	-12.2194
rowJ	-12.2196
Intern	-12.2196
FactoryBean	-12.2197
Associate	-12.2207
Logic	-12.2208
')||(	-12.2236
Maker	-12.2241
inherit	-12.2254
Own	-12.2257
Interleaved	-12.2258
Radi	-12.2258
▁JBBP	-12.2262
goog	-12.2263
Configurable	-12.2263
Mechanism	-12.2264
Verifier	-12.2264
Avro	-12.2264
micro	-12.2264
reservation	-12.2264
过	-12.2264
HIGH	-12.2264
XmlPullParser	-12.2264
bAddQuotes	-12.2264
epsilon	-12.2264
prolepticYear	-12.2264
study	-12.2264
▁exactly	-12.2264
▁labAccountName	-12.2264
查	-12.2264
Backpressure	-12.2264
COLLECTION	-12.2264
EXPIRATION	-12.2264
Gather	-12.2264
PLUGIN	-12.2264
screenshot	-12.2264
stereo	-12.2264
▁CountDownLatch	-12.2264
201808.	-12.2264
severity	-12.2264
▁vmScaleSetName	-12.2264
SPECIAL	-12.2264
Tomcat	-12.2264
号	-12.2264
名	-12.2264
Given	-12.2264
存在	-12.2264
Blur	-12.2264
CONCURRENT	-12.2264
Neg	-12.2264
capability	-12.2264
Hide	-12.2264
▁GBS	-12.2265
FixedOptionRel	-12.2265
instrumentation	-12.2265
setConstraintMax	-12.2265
Nonnegative	-12.2265
saml	-12.2265
▁representation	-12.2265
IsolationLevel	-12.2266
TAB	-12.2266
▁ReflectionUtils	-12.2266
CmsVaadin	-12.2266
Whitelist	-12.2266
HMAC	-12.2266
jmx	-12.2266
netty	-12.2267
decompose	-12.2268
Boof	-12.2268
AtomicLong	-12.2269
tmpDir	-12.227
limitidentifier	-12.2271
AGE	-12.2271
undefined	-12.2272
appflow	-12.2274
eye	-12.2274
JavaMember	-12.2275
XPathExpression	-12.2276
Streamlet	-12.2276
/2.0	-12.2276
DDL	-12.2277
interfaceName	-12.2282
absolutePath	-12.2282
JobConf	-12.2282
currentLevel	-12.2283
watcher	-12.2285
getColumnCount	-12.2286
PGP	-12.2286
UINT	-12.2287
▁extractor	-12.2287
aligned	-12.2287
▁minMax	-12.229
CPU	-12.2291
[7]	-12.2291
DriverManager	-12.2293
getLocalHost	-12.2293
CmsHistory	-12.2295
anim	-12.2296
Joinable	-12.2297
INDENT	-12.2298
▁CmsLock	-12.2299
ObjectHelper	-12.23
keyLength	-12.23
RESOURCES	-12.2301
IoUtil	-12.2304
idGenerator	-12.2304
SCORE	-12.2305
writeShort	-12.2306
ENUM	-12.2308
caseSensitive	-12.231
XPATH	-12.2312
ExternalContext	-12.2314
▁adGroup	-12.2314
GatewayName	-12.2315
Nfs	-12.2317
RecoveryPoint	-12.2318
managedObject	-12.232
ReadTimeout	-12.2321
Tld	-12.2324
findOne	-12.2324
▁slow	-12.2327
fontSize	-12.2329
getBool	-12.233
ServletPath	-12.2334
Fold	-12.2335
mapWidget	-12.2336
subnet	-12.2344
toUri	-12.2348
tpl	-12.2351
columnCount	-12.2352
viewPort	-12.2353
Circuit	-12.2355
getJobID	-12.2356
getWrapped	-12.2356
bitCount	-12.2357
Searcher	-12.2359
Hello	-12.2361
topLevel	-12.2362
TableMetadata	-12.2363
createDocument	-12.2367
▁extracted	-12.2368
JobInner	-12.2368
ward	-12.2368
ERC	-12.2369
Compliance	-12.2372
xmin	-12.2379
RAW	-12.2383
currentMin	-12.2385
webApp	-12.2386
tracking	-12.2387
javac	-12.2388
setM	-12.24
SortOrder	-12.2416
nextDouble	-12.2417
Heading	-12.2426
GeometryIndex	-12.2427
design	-12.2441
jsonReader	-12.2443
▁360	-12.2449
delayed	-12.2459
FileExtension	-12.2478
ToCheck	-12.2484
prune	-12.2511
HBase	-12.2513
copyFile	-12.2524
Stateful	-12.2526
AsDouble	-12.2536
embeddedObject	-12.2537
RING	-12.254
Enhance	-12.2545
Allocate	-12.2546
JM	-12.255
closeConnection	-12.2551
ACCOUNT	-12.2554
Drawer	-12.2558
jobFlowInstances	-12.2558
DoesNotExist	-12.2558
Swagger	-12.2558
▁diagram	-12.2558
Authenticator	-12.2558
EXTENDED	-12.2558
Skeleton	-12.2558
Social	-12.2558
Rollout	-12.2558
Sequential	-12.2558
coeff	-12.2558
collapse	-12.2558
correlationId	-12.2558
inclusive	-12.2558
▁Always	-12.2558
▁changing	-12.2558
Exceeded	-12.2558
Identifiable	-12.2558
ENGINE	-12.2558
HELM	-12.2558
TiffTags	-12.2558
numCoords	-12.2558
JWT	-12.2558
STACK	-12.2558
revoke	-12.2558
currentPos	-12.2558
▁largest	-12.2558
Bookmark	-12.2559
Committed	-12.2559
POSITE	-12.2559
spinner	-12.2559
drag	-12.2559
mitiveInvalidity	-12.256
CompilationUnit	-12.256
BusPr	-12.2561
▁predicted	-12.2561
▁larger	-12.2562
UriComponents	-12.2562
Unary	-12.2563
Rejected	-12.2563
glob	-12.2563
ganizationalUnit	-12.2565
ZoomLevel	-12.2565
Storm	-12.2565
DAV	-12.2566
interaction	-12.2566
sCharacterId	-12.2566
▁ValueComparator	-12.2569
XSLT	-12.2569
▁extraction	-12.257
markup	-12.257
ipaddress	-12.2571
srcMem	-12.2571
Encrypted	-12.2571
QUALITY	-12.2573
May	-12.2575
Granted	-12.2582
arrow	-12.2583
Gate	-12.2583
postag	-12.2584
mtf	-12.2586
SPARSE	-12.2587
rightChild	-12.2588
▁La	-12.259
▁tries	-12.2591
▁made	-12.2591
spanEnd	-12.2592
▁implements	-12.2594
Anim	-12.2595
raid	-12.2596
CompositeNode	-12.26
RightChild	-12.2601
▁collected	-12.2601
Review	-12.2601
DocTree	-12.2603
wrt	-12.2604
ToUse	-12.2613
RunState	-12.2614
generat	-12.2617
Rich	-12.2617
Freq	-12.2619
indicates	-12.2619
DeletedKey	-12.2621
recipients	-12.2621
grp	-12.2626
CharArray	-12.263
ecurityException	-12.2632
isFolder	-12.2633
isAbstract	-12.2635
▁srv	-12.2639
cql	-12.2645
▁moved	-12.2646
annotationValue	-12.2654
HeaderNames	-12.2659
minute	-12.266
ProjectName	-12.2668
readEntity	-12.2668
recordSize	-12.2674
▁')'	-12.2675
Rewrite	-12.268
▁OvhTask	-12.2682
possible	-12.2686
stem	-12.2688
Cond	-12.2693
replica	-12.2695
superType	-12.2721
deleteresource	-12.2721
determine	-12.2722
("/"	-12.2722
mIs	-12.2726
crypto	-12.2727
columnNames	-12.2727
some	-12.273
▁genericType	-12.2741
functionName	-12.2754
EndpointInfo	-12.2755
jobKey	-12.2762
setOwner	-12.2766
ImmutableList	-12.2772
DER	-12.2774
▁allocation	-12.2778
▁'%'	-12.2781
BlockingQueue	-12.2795
aIS	-12.2806
perms	-12.2814
****************	-12.2819
limited	-12.2827
Phone	-12.2828
Superclass	-12.2835
manage	-12.2838
Manage	-12.2838
rotate	-12.2839
typeReference	-12.2841
CPOption	-12.2848
Era	-12.2851
MILLISECOND	-12.2852
Choose	-12.2853
unk	-12.2853
MANAGE	-12.2857
White	-12.2858
Elastic	-12.286
AVAILABLE	-12.2861
StoreResource	-12.2861
Hole	-12.2861
citygml	-12.2861
purchase	-12.2861
compensation	-12.2861
Assistant	-12.2861
Azkaban	-12.2861
NANOSECONDS	-12.2861
earliest	-12.2861
commerceShipping	-12.2861
Sphere	-12.2861
▁diameter	-12.2861
BREAK	-12.2861
Collision	-12.2861
Hessian	-12.2861
Obtain	-12.2861
SmushingRule	-12.2861
challenge	-12.2861
magnitude	-12.2861
surrogate	-12.2861
themeResourceId	-12.2861
third	-12.2861
Analytics	-12.2861
PATCH	-12.2861
SMALL	-12.2861
使用	-12.2861
COPY	-12.2861
Citation	-12.2861
Singular	-12.2861
生成	-12.2861
readableBytes	-12.2861
skew	-12.2861
Pressed	-12.2861
TENSOR	-12.2861
这	-12.2861
▁Tmdb	-12.2861
AGENT	-12.2861
SpecialReview	-12.2861
supportedCiphers	-12.2861
▁SecretKeySpec	-12.2861
▁'?'	-12.2862
VARCHAR	-12.2862
SizeInBytes	-12.2862
GRAN	-12.2862
Grace	-12.2862
AlreadyExists	-12.2862
environmentId	-12.2863
▁lowest	-12.2863
transactions	-12.2864
Customizer	-12.2864
▁traverser	-12.2864
▁RectF	-12.2864
Stopping	-12.2865
COMPAR	-12.2865
KEYWORD	-12.2865
Playlist	-12.2865
==-1)	-12.2866
SipApplication	-12.2866
Credit	-12.2867
hanode	-12.2867
Spark	-12.2868
CmdLine	-12.2869
zoomLevel	-12.2869
GroupMember	-12.287
AddressRel	-12.287
1900	-12.2871
GONE	-12.2871
Comma	-12.2871
MachineScaleSet	-12.2874
▁IntStream	-12.2875
Never	-12.2875
▁odd	-12.2876
▁'}'	-12.2876
EditLog	-12.2876
binarySearch	-12.2877
inodes	-12.2878
applet	-12.2879
Grpc	-12.2879
Detected	-12.288
anConsume	-12.2881
ENV	-12.2883
helm	-12.2884
THING	-12.2884
provide	-12.2885
MINUTES	-12.289
ToShow	-12.2893
ScanResult	-12.2893
deregister	-12.2899
testCase	-12.2901
xxx	-12.2903
▁'<'	-12.2904
Reaction	-12.2906
Marked	-12.2909
▁published	-12.2911
Computer	-12.2911
busName	-12.2916
WorkerInfo	-12.2917
CHARS	-12.2917
selectors	-12.292
tsym	-12.2923
concatMap	-12.2924
▁classWriter	-12.2926
Requirements	-12.2926
▁10000	-12.2934
requestUri	-12.2939
svc	-12.2939
Yes	-12.294
Chunked	-12.2945
writeUTF	-12.2946
pan	-12.2947
sslConfig	-12.2956
mercePriceListId	-12.2956
▁'('	-12.2958
REVIEW	-12.2962
executeAsync	-12.2964
taglet	-12.2964
isStarted	-12.2965
SegmentEntryRel	-12.2969
SymbolTable	-12.2971
▁reported	-12.2974
CheckResult	-12.2979
Subtype	-12.2982
handleError	-12.2991
problem	-12.3
BackgroundColor	-12.3014
UserAttributes	-12.3022
rowHead	-12.303
currentPosition	-12.3031
numeric	-12.3037
pdf	-12.3039
Caused	-12.3042
hbase	-12.3043
WEST	-12.3048
$",	-12.3059
currentOffset	-12.3065
(':')	-12.3065
("0"	-12.3067
disallow	-12.3074
CmsDb	-12.3079
Warp	-12.309
LatLng	-12.3091
Conv	-12.3094
breakpoint	-12.3105
Fat	-12.3122
CMP	-12.3123
'||	-12.3123
ParseError	-12.313
PRI	-12.3134
newChain	-12.3135
ransac	-12.3135
IsNull	-12.3147
transformer	-12.3149
ThreadFactory	-12.3151
Lex	-12.3152
BlockMeta	-12.3162
Each	-12.3168
Deliver	-12.3168
HEAD	-12.3172
GSS	-12.3173
effect	-12.3173
し	-12.3173
eclipse	-12.3173
rustedAdvisor	-12.3173
以	-12.3173
INCREMENT	-12.3174
velocity	-12.3174
Bitfinex	-12.3174
CLUSTER	-12.3174
CONDITION	-12.3174
Mutex	-12.3174
STOPPED	-12.3174
synonym	-12.3174
Coefficient	-12.3174
Initializing	-12.3174
Multiplier	-12.3174
mirror	-12.3174
reenPepperServer	-12.3174
snippet	-12.3174
telephony	-12.3174
▁aEasterSunday	-12.3174
DIALOG	-12.3174
FORWARD	-12.3174
JSDocInfo	-12.3174
ProcessAdvice	-12.3174
middleware	-12.3174
morph	-12.3174
tabbedPane	-12.3174
tunnel	-12.3174
vaultName	-12.3174
GrantingTicket	-12.3174
factoryAppBeans	-12.3174
解	-12.3174
Kripton	-12.3174
('\''	-12.3174
KILL	-12.3174
▁sdkHeaders	-12.3174
During	-12.3174
IEntityGroup	-12.3174
getScreenField	-12.3174
Prime	-12.3174
Manual	-12.3174
STAGE	-12.3174
▁tmdb	-12.3174
MTAS	-12.3174
XXX	-12.3174
▁BoxRequests	-12.3174
CHECKSTYLE	-12.3174
Modbus	-12.3174
Predict	-12.3174
crud	-12.3174
RUNTIME	-12.3175
LND	-12.3175
Subtract	-12.3175
PopupMenu	-12.3175
suggestion	-12.3175
getAndSet	-12.3175
Lowest	-12.3175
PROCESSING	-12.3175
MsgPhrase	-12.3176
▁IntTuple	-12.3176
ZWave	-12.3176
▁SISession	-12.3176
▁skipping	-12.3178
DETAILS	-12.318
MotionEvent	-12.318
stopwatch	-12.3181
DatePicker	-12.3181
▁"|"	-12.3182
CPDefinitionLink	-12.3184
CmsContextMenu	-12.3185
resolvedType	-12.3186
Subspace	-12.3188
_8));	-12.3189
Four	-12.319
Located	-12.319
getContentLength	-12.3193
▁HttpGet	-12.3193
undeploy	-12.3194
CertificateOrder	-12.3195
MemorySegment	-12.3196
getRequestURI	-12.3197
indentation	-12.3199
checkbox	-12.3202
Cql	-12.3204
XPathContext	-12.3207
dInstanceState	-12.3211
HOURS	-12.3213
jobExecution	-12.3214
isLetter	-12.3216
IDLE	-12.3218
ung	-12.3218
inputShape	-12.3221
▁displayed	-12.3225
argValue	-12.3226
portletWindowId	-12.3229
quit	-12.323
setAlignment	-12.3232
fullyQualified	-12.3233
EAR	-12.3236
Zk	-12.3237
▁accepted	-12.324
LocalService	-12.3274
▁opening	-12.3279
nextProp	-12.3282
OutputDir	-12.3284
ENC	-12.3292
▁threadContext	-12.3293
rootElement	-12.3294
ITER	-12.3294
ImageDescriptor	-12.3295
114	-12.3314
▁maxY	-12.3317
registerMetric	-12.3321
GeneralS	-12.3328
TimeOut	-12.333
tworkWatcherName	-12.3333
WindowState	-12.3341
-16	-12.3354
const	-12.3372
txid	-12.3373
outputDirectory	-12.338
JE	-12.3385
roduced	-12.3394
▁parm	-12.3399
EXC	-12.3413
Degree	-12.3414
have	-12.3419
ource	-12.3426
DeviceDefinition	-12.3428
filled	-12.3434
invocation	-12.3435
NamespaceContext	-12.3437
does	-12.3447
("?")	-12.3449
InputHandler	-12.3462
inning	-12.3463
checkNot	-12.3464
logDir	-12.3464
160	-12.347
columnValue	-12.3471
MatchResult	-12.3474
ymin	-12.348
Zoo	-12.3481
paren	-12.3481
Even	-12.3482
▁die	-12.3485
Drive	-12.3485
decrease	-12.3487
Interrupt	-12.3487
RLP	-12.3487
Thin	-12.3491
Walk	-12.3491
swagger	-12.3496
Monetary	-12.3496
Discrete	-12.3496
jenkins	-12.3496
Different	-12.3496
VpnGateway	-12.3496
enhance	-12.3496
段	-12.3496
COMPRESS	-12.3496
CONTINUE	-12.3496
Notifier	-12.3496
Symmetry	-12.3496
calculator	-12.3496
Parcelable	-12.3496
STRATEGY	-12.3496
WaterMark	-12.3496
decorate	-12.3496
deleteOnExit	-12.3496
Approval	-12.3496
Arbitra	-12.3496
Corrupt	-12.3496
Gravity	-12.3496
PERIOD	-12.3496
RADIUS	-12.3496
SPLIT	-12.3496
TRACK	-12.3496
Tunnel	-12.3496
abbrev	-12.3496
rewind	-12.3496
了	-12.3496
FunctionalTerm	-12.3496
Gobblin	-12.3496
Leave	-12.3496
Brace	-12.3496
CloudSpanner	-12.3496
Forecast	-12.3496
roundingMode	-12.3496
▁ndFl	-12.3496
CQL	-12.3496
yaml	-12.3496
Beginning	-12.3496
identityHashCode	-12.3496
SwingUtilities	-12.3496
Xtend	-12.3496
Authorities	-12.3496
bigDecimal	-12.3496
Spider	-12.3497
BackupVault	-12.3497
Cfg	-12.3497
▁volatile	-12.3497
Intersection	-12.3497
antlr	-12.3497
▁TTIOException	-12.3497
FORMATTER	-12.3497
-2$	-12.3497
AvailabilityZone	-12.3498
▁thus	-12.3498
Both	-12.3499
room	-12.3499
▁rslt	-12.3499
Successfully	-12.35
websocket	-12.35
Characteristic	-12.35
MultiPolygon	-12.35
Polyline	-12.35
ScheduledFuture	-12.3501
Traverser	-12.3501
FontMetrics	-12.3501
expirationDate	-12.3502
evaluationTime	-12.3502
▁persisted	-12.3502
SELECTED	-12.3502
FullyQualified	-12.3502
Authorizer	-12.3503
pfl	-12.3503
RateLimit	-12.3503
BUF	-12.3503
signum	-12.3503
▁logged	-12.3507
Translated	-12.3507
xslt	-12.3507
▁JinxException	-12.3508
Terminated	-12.3508
stdout	-12.3508
DataStoreFactory	-12.3509
deny	-12.3509
whereClause	-12.3509
IReaction	-12.351
ImageStatistics	-12.3511
menuBounds	-12.3512
FleetRequest	-12.3515
ControlAdapter	-12.3516
Trusted	-12.3517
UAL	-12.3517
Aligned	-12.3517
▁"@"	-12.3519
AnnotatedElement	-12.3519
▁';'	-12.352
!=0)	-12.3522
unavailable	-12.3523
▁translated	-12.3524
▁ObjectAnimator	-12.3527
INTER	-12.3527
beg	-12.3529
[...]
