{
  "version": "1.0",
  "truncation": null,
  "padding": null,
  "added_tokens": [
    {
      "id": 0,
      "content": "<pad>",
      "single_word": false,
      "lstrip": false,
      "rstrip": false,
      "normalized": false,
      "special": true
    },
    {
      "id": 1,
      "content": "<unk>",
      "single_word": false,
      "lstrip": false,
      "rstrip": false,
      "normalized": false,
      "special": true
    },
    {
      "id": 2,
      "content": "<s>",
      "single_word": false,
      "lstrip": false,
      "rstrip": false,
      "normalized": false,
      "special": true
    },
    {
      "id": 3,
      "content": "</s>",
      "single_word": false,
      "lstrip": false,
      "rstrip": false,
      "normalized": false,
      "special": true
    },
    {
      "id": 4,
      "content": "<extra_id_0>",
      "single_word": false,
      "lstrip": false,
      "rstrip": false,
      "normalized": false,
      "special": true
    },
    {
      "id": 5,
      "content": "<extra_id_1>",
      "single_word": false,
      "lstrip": false,
      "rstrip": false,
      "normalized": false,
      "special": true
    },
    {
      "id": 6,
      "content": "<extra_id_2>",
      "single_word": false,
      "lstrip": false,
      "rstrip": false,
      "normalized": false,
      "special": true
    },
    {
      "id": 7,
      "content": "<extra_id_3>",
      "single_word": false,
      "lstrip": false,
      "rstrip": false,
      "normalized": false,
      "special": true
    },
    {
      "id": 8,
      "content": "<extra_id_4>",
      "single_word": false,
      "lstrip": false,
      "rstrip": false,
      "normalized": false,
      "special": true
    },
    {
      "id": 9,
      "content": "<extra_id_5>",
      "single_word": false,
      "lstrip": false,
      "rstrip": false,
      "normalized": false,
      "special": true
    },
    {
      "id": 10,
      "content": "<extra_id_6>",
      "single_word": false,
      "lstrip": false,
      "rstrip": false,
      "normalized": false,
      "special": true
    },
    {
      "id": 11,
      "content": "<extra_id_7>",
      "single_word": false,
      "lstrip": false,
      "rstrip": false,
      "normalized": false,
      "special": true
    },
    {
      "id": 12,
      "content": "<extra_id_8>",
      "single_word": false,
      "lstrip": false,
      "rstrip": false,
      "normalized": false,
      "special": true
    },
    {
      "id": 13,
      "content": "<extra_id_9>",
      "single_word": false,
      "lstrip": false,
      "rstrip": false,
      "normalized": false,
      "special": true
    },
    {
      "id": 14,
      "content": "<extra_id_10>",
      "single_word": false,
      "lstrip": false,
      "rstrip": false,
      "normalized": false,
      "special": true
    },
    {
      "id": 15,
      "content": "<extra_id_11>",
      "single_word": false,
      "lstrip": false,
      "rstrip": false,
      "normalized": false,
      "special": true
    },
    {
      "id": 16,
      "content": "<extra_id_12>",
      "single_word": false,
      "lstrip": false,
      "rstrip": false,
      "normalized": false,
      "special": true
    },
    {
      "id": 17,
      "content": "<extra_id_13>",
      "single_word": false,
      "lstrip": false,
      "rstrip": false,
      "normalized": false,
      "special": true
    },
    {
      "id": 18,
      "content": "<extra_id_14>",
      "single_word": false,
      "lstrip": false,
      "rstrip": false,
      "normalized": false,
      "special": true
    },
    {
      "id": 19,
      "content": "<extra_id_15>",
      "single_word": false,
      "lstrip": false,
      "rstrip": false,
      "normalized": false,
      "special": true
    },
    {
      "id": 20,
      "content": "<extra_id_16>",
      "single_word": false,
      "lstrip": false,
      "rstrip": false,
      "normalized": false,
      "special": true
    },
    {
      "id": 21,
      "content": "<extra_id_17>",
      "single_word": false,
      "lstrip": false,
      "rstrip": false,
      "normalized": false,
      "special": true
    },
    {
      "id": 22,
      "content": "<extra_id_18>",
      "single_word": false,
      "lstrip": false,
      "rstrip": false,
      "normalized": false,
      "special": true
    },
    {
      "id": 23,
      "content": "<extra_id_19>",
      "single_word": false,
      "lstrip": false,
      "rstrip": false,
      "normalized": false,
      "special": true
    },
    {
      "id": 24,
      "content": "<extra_id_20>",
      "single_word": false,
      "lstrip": false,
      "rstrip": false,
      "normalized": false,
      "special": true
    },
    {
      "id": 25,
      "content": "<extra_id_21>",
      "single_word": false,
      "lstrip": false,
      "rstrip": false,
      "normalized": false,
      "special": true
    },
    {
      "id": 26,
      "content": "<extra_id_22>",
      "single_word": false,
      "lstrip": false,
      "rstrip": false,
      "normalized": false,
      "special": true
    },
    {
      "id": 27,
      "content": "<extra_id_23>",
      "single_word": false,
      "lstrip": false,
      "rstrip": false,
      "normalized": false,
      "special": true
    },
    {
      "id": 28,
      "content": "<extra_id_24>",
      "single_word": false,
      "lstrip": false,
      "rstrip": false,
      "normalized": false,
      "special": true
    },
    {
      "id": 29,
      "content": "<extra_id_25>",
      "single_word": false,
      "lstrip": false,
      "rstrip": false,
      "normalized": false,
      "special": true
    },
    {
      "id": 30,
      "content": "<extra_id_26>",
      "single_word": false,
      "lstrip": false,
      "rstrip": false,
      "normalized": false,
      "special": true
    },
    {
      "id": 31,
      "content": "<extra_id_27>",
      "single_word": false,
      "lstrip": false,
      "rstrip": false,
      "normalized": false,
      "special": true
    },
    {
      "id": 32,
      "content": "<extra_id_28>",
      "single_word": false,
      "lstrip": false,
      "rstrip": false,
      "normalized": false,
      "special": true
    },
    {
      "id": 33,
      "content": "<extra_id_29>",
      "single_word": false,
      "lstrip": false,
      "rstrip": false,
      "normalized": false,
      "special": true
    },
    {
      "id": 34,
      "content": "<extra_id_30>",
      "single_word": false,
      "lstrip": false,
      "rstrip": false,
      "normalized": false,
      "special": true
    },
    {
      "id": 35,
      "content": "<extra_id_31>",
      "single_word": false,
      "lstrip": false,
      "rstrip": false,
      "normalized": false,
      "special": true
    },
    {
      "id": 36,
      "content": "<extra_id_32>",
      "single_word": false,
      "lstrip": false,
      "rstrip": false,
      "normalized": false,
      "special": true
    },
    {
      "id": 37,
      "content": "<extra_id_33>",
      "single_word": false,
      "lstrip": false,
      "rstrip": false,
      "normalized": false,
      "special": true
    },
    {
      "id": 38,
      "content": "<extra_id_34>",
      "single_word": false,
      "lstrip": false,
      "rstrip": false,
      "normalized": false,
      "special": true
    },
    {
      "id": 39,
      "content": "<extra_id_35>",
      "single_word": false,
      "lstrip": false,
      "rstrip": false,
      "normalized": false,
      "special": true
    },
    {
      "id": 40,
      "content": "<extra_id_36>",
      "single_word": false,
      "lstrip": false,
      "rstrip": false,
      "normalized": false,
      "special": true
    },
    {
      "id": 41,
      "content": "<extra_id_37>",
      "single_word": false,
      "lstrip": false,
      "rstrip": false,
      "normalized": false,
      "special": true
    },
    {
      "id": 42,
      "content": "<extra_id_38>",
      "single_word": false,
      "lstrip": false,
      "rstrip": false,
      "normalized": false,
      "special": true
    },
    {
      "id": 43,
      "content": "<extra_id_39>",
      "single_word": false,
      "lstrip": false,
      "rstrip": false,
      "normalized": false,
      "special": true
    },
    {
      "id": 44,
      "content": "<extra_id_40>",
      "single_word": false,
      "lstrip": false,
      "rstrip": false,
      "normalized": false,
      "special": true
    },
    {
      "id": 45,
      "content": "<extra_id_41>",
      "single_word": false,
      "lstrip": false,
      "rstrip": false,
      "normalized": false,
      "special": true
    },
    {
      "id": 46,
      "content": "<extra_id_42>",
      "single_word": false,
      "lstrip": false,
      "rstrip": false,
      "normalized": false,
      "special": true
    },
    {
      "id": 47,
      "content": "<extra_id_43>",
      "single_word": false,
      "lstrip": false,
      "rstrip": false,
      "normalized": false,
      "special": true
    },
    {
      "id": 48,
      "content": "<extra_id_44>",
      "single_word": false,
      "lstrip": false,
      "rstrip": false,
      "normalized": false,
      "special": true
    },
    {
      "id": 49,
      "content": "<extra_id_45>",
      "single_word": false,
      "lstrip": false,
      "rstrip": false,
      "normalized": false,
      "special": true
    },
    {
      "id": 50,
      "content": "<extra_id_46>",
      "single_word": false,
      "lstrip": false,
      "rstrip": false,
      "normalized": false,
      "special": true
    },
    {
      "id": 51,
      "content": "<extra_id_47>",
      "single_word": false,
      "lstrip": false,
      "rstrip": false,
      "normalized": false,
      "special": true
    },
    {
      "id": 52,
      "content": "<extra_id_48>",
      "single_word": false,
      "lstrip": false,
      "rstrip": false,
      "normalized": false,
      "special": true
    },
    {
      "id": 53,
      "content": "<extra_id_49>",
      "single_word": false,
      "lstrip": false,
      "rstrip": false,
      "normalized": false,
      "special": true
    },
    {
      "id": 54,
      "content": "<extra_id_50>",
      "single_word": false,
      "lstrip": false,
      "rstrip": false,
      "normalized": false,
      "special": true
    },
    {
      "id": 55,
      "content": "<extra_id_51>",
      "single_word": false,
      "lstrip": false,
      "rstrip": false,
      "normalized": false,
      "special": true
    },
    {
      "id": 56,
      "content": "<extra_id_52>",
      "single_word": false,
      "lstrip": false,
      "rstrip": false,
      "normalized": false,
      "special": true
    },
    {
      "id": 57,
      "content": "<extra_id_53>",
      "single_word": false,
      "lstrip": false,
      "rstrip": false,
      "normalized": false,
      "special": true
    },
    {
      "id": 58,
      "content": "<extra_id_54>",
      "single_word": false,
      "lstrip": false,
      "rstrip": false,
      "normalized": false,
      "special": true
    },
    {
      "id": 59,
      "content": "<extra_id_55>",
      "single_word": false,
      "lstrip": false,
      "rstrip": false,
      "normalized": false,
      "special": true
    },
    {
      "id": 60,
      "content": "<extra_id_56>",
      "single_word": false,
      "lstrip": false,
      "rstrip": false,
      "normalized": false,
      "special": true
    },
    {
      "id": 61,
      "content": "<extra_id_57>",
      "single_word": false,
      "lstrip": false,
      "rstrip": false,
      "normalized": false,
      "special": true
    },
    {
      "id": 62,
      "content": "<extra_id_58>",
      "single_word": false,
      "lstrip": false,
      "rstrip": false,
      "normalized": false,
      "special": true
    },
    {
      "id": 63,
      "content": "<extra_id_59>",
      "single_word": false,
      "lstrip": false,
      "rstrip": false,
      "normalized": false,
      "special": true
    },
    {
      "id": 64,
      "content": "<extra_id_60>",
      "single_word": false,
      "lstrip": false,
      "rstrip": false,
      "normalized": false,
      "special": true
    },
    {
      "id": 65,
      "content": "<extra_id_61>",
      "single_word": false,
      "lstrip": false,
      "rstrip": false,
      "normalized": false,
      "special": true
    },
    {
      "id": 66,
      "content": "<extra_id_62>",
      "single_word": false,
      "lstrip": false,
      "rstrip": false,
      "normalized": false,
      "special": true
    },
    {
      "id": 67,
      "content": "<extra_id_63>",
      "single_word": false,
      "lstrip": false,
      "rstrip": false,
      "normalized": false,
      "special": true
    },
    {
      "id": 68,
      "content": "<extra_id_64>",
      "single_word": false,
      "lstrip": false,
      "rstrip": false,
      "normalized": false,
      "special": true
    },
    {
      "id": 69,
      "content": "<extra_id_65>",
      "single_word": false,
      "lstrip": false,
      "rstrip": false,
      "normalized": false,
      "special": true
    },
    {
      "id": 70,
      "content": "<extra_id_66>",
      "single_word": false,
      "lstrip": false,
      "rstrip": false,
      "normalized": false,
      "special": true
    },
    {
      "id": 71,
      "content": "<extra_id_67>",
      "single_word": false,
      "lstrip": false,
      "rstrip": false,
      "normalized": false,
      "special": true
    },
    {
      "id": 72,
      "content": "<extra_id_68>",
      "single_word": false,
      "lstrip": false,
      "rstrip": false,
      "normalized": false,
      "special": true
    },
    {
      "id": 73,
      "content": "<extra_id_69>",
      "single_word": false,
      "lstrip": false,
      "rstrip": false,
      "normalized": false,
      "special": true
    },
    {
      "id": 74,
      "content": "<extra_id_70>",
      "single_word": false,
      "lstrip": false,
      "rstrip": false,
      "normalized": false,
      "special": true
    },
    {
      "id": 75,
      "content": "<extra_id_71>",
      "single_word": false,
      "lstrip": false,
      "rstrip": false,
      "normalized": false,
      "special": true
    },
    {
      "id": 76,
      "content": "<extra_id_72>",
      "single_word": false,
      "lstrip": false,
      "rstrip": false,
      "normalized": false,
      "special": true
    },
    {
      "id": 77,
      "content": "<extra_id_73>",
      "single_word": false,
      "lstrip": false,
      "rstrip": false,
      "normalized": false,
      "special": true
    },
    {
      "id": 78,
      "content": "<extra_id_74>",
      "single_word": false,
      "lstrip": false,
      "rstrip": false,
      "normalized": false,
      "special": true
    },
    {
      "id": 79,
      "content": "<extra_id_75>",
      "single_word": false,
      "lstrip": false,
      "rstrip": false,
      "normalized": false,
      "special": true
    },
    {
      "id": 80,
      "content": "<extra_id_76>",
      "single_word": false,
      "lstrip": false,
      "rstrip": false,
      "normalized": false,
      "special": true
    },
    {
      "id": 81,
      "content": "<extra_id_77>",
      "single_word": false,
      "lstrip": false,
      "rstrip": false,
      "normalized": false,
      "special": true
    },
    {
      "id": 82,
      "content": "<extra_id_78>",
      "single_word": false,
      "lstrip": false,
      "rstrip": false,
      "normalized": false,
      "special": true
    },
    {
      "id": 83,
      "content": "<extra_id_79>",
      "single_word": false,
      "lstrip": false,
      "rstrip": false,
      "normalized": false,
      "special": true
    },
    {
      "id": 84,
      "content": "<extra_id_80>",
      "single_word": false,
      "lstrip": false,
      "rstrip": false,
      "normalized": false,
      "special": true
    },
    {
      "id": 85,
      "content": "<extra_id_81>",
      "single_word": false,
      "lstrip": false,
      "rstrip": false,
      "normalized": false,
      "special": true
    },
    {
      "id": 86,
      "content": "<extra_id_82>",
      "single_word": false,
      "lstrip": false,
      "rstrip": false,
      "normalized": false,
      "special": true
    },
    {
      "id": 87,
      "content": "<extra_id_83>",
      "single_word": false,
      "lstrip": false,
      "rstrip": false,
      "normalized": false,
      "special": true
    },
    {
      "id": 88,
      "content": "<extra_id_84>",
      "single_word": false,
      "lstrip": false,
      "rstrip": false,
      "normalized": false,
      "special": true
    },
    {
      "id": 89,
      "content": "<extra_id_85>",
      "single_word": false,
      "lstrip": false,
      "rstrip": false,
      "normalized": false,
      "special": true
    },
    {
      "id": 90,
      "content": "<extra_id_86>",
      "single_word": false,
      "lstrip": false,
      "rstrip": false,
      "normalized": false,
      "special": true
    },
    {
      "id": 91,
      "content": "<extra_id_87>",
      "single_word": false,
      "lstrip": false,
      "rstrip": false,
      "normalized": false,
      "special": true
    },
    {
      "id": 92,
      "content": "<extra_id_88>",
      "single_word": false,
      "lstrip": false,
      "rstrip": false,
      "normalized": false,
      "special": true
    },
    {
      "id": 93,
      "content": "<extra_id_89>",
      "single_word": false,
      "lstrip": false,
      "rstrip": false,
      "normalized": false,
      "special": true
    },
    {
      "id": 94,
      "content": "<extra_id_90>",
      "single_word": false,
      "lstrip": false,
      "rstrip": false,
      "normalized": false,
      "special": true
    },
    {
      "id": 95,
      "content": "<extra_id_91>",
      "single_word": false,
      "lstrip": false,
      "rstrip": false,
      "normalized": false,
      "special": true
    },
    {
      "id": 96,
      "content": "<extra_id_92>",
      "single_word": false,
      "lstrip": false,
      "rstrip": false,
      "normalized": false,
      "special": true
    },
    {
      "id": 97,
      "content": "<extra_id_93>",
      "single_word": false,
      "lstrip": false,
      "rstrip": false,
      "normalized": false,
      "special": true
    },
    {
      "id": 98,
      "content": "<extra_id_94>",
      "single_word": false,
      "lstrip": false,
      "rstrip": false,
      "normalized": false,
      "special": true
    },
    {
      "id": 99,
      "content": "<extra_id_95>",
      "single_word": false,
      "lstrip": false,
      "rstrip": false,
      "normalized": false,
      "special": true
    },
    {
      "id": 100,
      "content": "<extra_id_96>",
      "single_word": false,
      "lstrip": false,
      "rstrip": false,
      "normalized": false,
      "special": true
    },
    {
      "id": 101,
      "content": "<extra_id_97>",
      "single_word": false,
      "lstrip": false,
      "rstrip": false,
      "normalized": false,
      "special": true
    },
    {
      "id": 102,
      "content": "<extra_id_98>",
      "single_word": false,
      "lstrip": false,
      "rstrip": false,
      "normalized": false,
      "special": true
    },
    {
      "id": 103,
      "content": "<extra_id_99>",
      "single_word": false,
      "lstrip": false,
      "rstrip": false,
      "normalized": false,
      "special": true
    }
  ],
  "normalizer": {
    "type": "Sequence",
    "normalizers": [
      {
        "type": "Replace",
        "pattern": {
          "Regex": " {2,}"
        },
        "content": " "
      }
    ]
  },
  "pre_tokenizer": {
    "type": "Metaspace",
    "replacement": "▁",
    "prepend_scheme": "always",
    "split": true
  },
  "post_processor": {
    "type": "TemplateProcessing",
    "single": [
      {
        "Sequence": {
          "id": "A",
          "type_id": 0
        }
      }
    ],
    "pair": [
      {
        "Sequence": {
          "id": "A",
          "type_id": 0
        }
      },
      {
        "Sequence": {
          "id": "B",
          "type_id": 1
        }
      }
    ],
    "special_tokens": {}
  },
  "decoder": {
    "type": "Metaspace",
    "replacement": "▁",
    "prepend_scheme": "always",
    "split": true
  },
  "model": {
    "type": "Unigram",
    "unk_id": 1,
    "vocab": [
      [
        "<pad>",
        0.0
      ],
      [
        "<unk>",
        0.0
      ],
      [
        "<s>",
        0.0
      ],
      [
        "</s>",
        0.0
      ],
      [
        "<extra_id_0>",
        0.0
      ],
      [
        "<extra_id_1>",
        0.0
      ],
      [
        "<extra_id_2>",
        0.0
      ],
      [
        "<extra_id_3>",
        0.0
      ],
      [
        "<extra_id_4>",
        0.0
      ],
      [
        "<extra_id_5>",
        0.0
      ],
      [
        "<extra_id_6>",
        0.0
      ],
      [
        "<extra_id_7>",
        0.0
      ],
      [
        "<extra_id_8>",
        0.0
      ],
      [
        "<extra_id_9>",
        0.0
      ],
      [
        "<extra_id_10>",
        0.0
      ],
      [
        "<extra_id_11>",
        0.0
      ],
      [
        "<extra_id_12>",
        0.0
      ],
      [
        "<extra_id_13>",
        0.0
      ],
      [
        "<extra_id_14>",
        0.0
      ],
      [
        "<extra_id_15>",
        0.0
      ],
      [
        "<extra_id_16>",
        0.0
      ],
      [
        "<extra_id_17>",
        0.0
      ],
      [
        "<extra_id_18>",
        0.0
      ],
      [
        "<extra_id_19>",
        0.0
      ],
      [
        "<extra_id_20>",
        0.0
      ],
      [
        "<extra_id_21>",
        0.0
      ],
      [
        "<extra_id_22>",
        0.0
      ],
      [
        "<extra_id_23>",
        0.0
      ],
      [
        "<extra_id_24>",
        0.0
      ],
      [
        "<extra_id_25>",
        0.0
      ],
      [
        "<extra_id_26>",
        0.0
      ],
      [
        "<extra_id_27>",
        0.0
      ],
      [
        "<extra_id_28>",
        0.0
      ],
      [
        "<extra_id_29>",
        0.0
      ],
      [
        "<extra_id_30>",
        0.0
      ],
      [
        "<extra_id_31>",
        0.0
      ],
      [
        "<extra_id_32>",
        0.0
      ],
      [
        "<extra_id_33>",
        0.0
      ],
      [
        "<extra_id_34>",
        0.0
      ],
      [
        "<extra_id_35>",
        0.0
      ],
      [
        "<extra_id_36>",
        0.0
      ],
      [
        "<extra_id_37>",
        0.0
      ],
      [
        "<extra_id_38>",
        0.0
      ],
      [
        "<extra_id_39>",
        0.0
      ],
      [
        "<extra_id_40>",
        0.0
      ],
      [
        "<extra_id_41>",
        0.0
      ],
      [
        "<extra_id_42>",
        0.0
      ],
      [
        "<extra_id_43>",
        0.0
      ],
      [
        "<extra_id_44>",
        0.0
      ],
      [
        "<extra_id_45>",
        0.0
      ],
      [
        "<extra_id_46>",
        0.0
      ],
      [
        "<extra_id_47>",
        0.0
      ],
      [
        "<extra_id_48>",
        0.0
      ],
      [
        "<extra_id_49>",
        0.0
      ],
      [
        "<extra_id_50>",
        0.0
      ],
      [
        "<extra_id_51>",
        0.0
      ],
      [
        "<extra_id_52>",
        0.0
      ],
      [
        "<extra_id_53>",
        0.0
      ],
      [
        "<extra_id_54>",
        0.0
      ],
      [
        "<extra_id_55>",
        0.0
      ],
      [
        "<extra_id_56>",
        0.0
      ],
      [
        "<extra_id_57>",
        0.0
      ],
      [
        "<extra_id_58>",
        0.0
      ],
      [
        "<extra_id_59>",
        0.0
      ],
      [
        "<extra_id_60>",
        0.0
      ],
      [
        "<extra_id_61>",
        0.0
      ],
      [
        "<extra_id_62>",
        0.0
      ],
      [
        "<extra_id_63>",
        0.0
      ],
      [
        "<extra_id_64>",
        0.0
      ],
      [
        "<extra_id_65>",
        0.0
      ],
      [
        "<extra_id_66>",
        0.0
      ],
      [
        "<extra_id_67>",
        0.0
      ],
      [
        "<extra_id_68>",
        0.0
      ],
      [
        "<extra_id_69>",
        0.0
      ],
      [
        "<extra_id_70>",
        0.0
      ],
      [
        "<extra_id_71>",
        0.0
      ],
      [
        "<extra_id_72>",
        0.0
      ],
      [
        "<extra_id_73>",
        0.0
      ],
      [
        "<extra_id_74>",
        0.0
      ],
      [
        "<extra_id_75>",
        0.0
      ],
      [
        "<extra_id_76>",
        0.0
      ],
      [
        "<extra_id_77>",
        0.0
      ],
      [
        "<extra_id_78>",
        0.0
      ],
      [
        "<extra_id_79>",
        0.0
      ],
      [
        "<extra_id_80>",
        0.0
      ],
      [
        "<extra_id_81>",
        0.0
      ],
      [
        "<extra_id_82>",
        0.0
      ],
      [
        "<extra_id_83>",
        0.0
      ],
      [
        "<extra_id_84>",
        0.0
      ],
      [
        "<extra_id_85>",
        0.0
      ],
      [
        "<extra_id_86>",
        0.0
      ],
      [
        "<extra_id_87>",
        0.0
      ],
      [
        "<extra_id_88>",
        0.0
      ],
      [
        "<extra_id_89>",
        0.0
      ],
      [
        "<extra_id_90>",
        0.0
      ],
      [
        "<extra_id_91>",
        0.0
      ],
      [
        "<extra_id_92>",
        0.0
      ],
      [
        "<extra_id_93>",
        0.0
      ],
      [
        "<extra_id_94>",
        0.0
      ],
      [
        "<extra_id_95>",
        0.0
      ],
      [
        "<extra_id_96>",
        0.0
      ],
      [
        "<extra_id_97>",
        0.0
      ],
      [
        "<extra_id_98>",
        0.0
      ],
      [
        "<extra_id_99>",
        0.0
      ],
      [
        "▁",
        -1.9768590927124023
      ],
      [
        ".",
        -3.012237310409546
      ],
      [
        "(",
        -3.1901557445526123
      ],
      [
        ",",
        -3.8279871940612793
      ],
      [
        ")",
        -3.8284037113189697
      ],
      [
        "▁{",
        -3.8325581550598145
      ],
      [
        "▁}",
        -4.0528388023376465
      ],
      [
        "▁=",
        -4.059053421020508
      ],
      [
        ");",
        -4.139339447021484
      ],
      [
        "_",
        -4.440395832061768
      ],
      [
        ";",
        -4.537032604217529
      ],
      [
        "▁(",
        -4.7426934242248535
      ],
      [
        "s",
        -4.802083969116211
      ],
      [
        "\r",
        -4.842333793640137
      ],
      [
        "▁if",
        -4.84768533706665
      ],
      [
        "<",
        -4.960929870605469
      ],
      [
        "get",
        -5.064920425415039
      ],
      [
        "▁new",
        -5.090153217315674
      ],
      [
        "▁return",
        -5.0946431159973145
      ],
      [
        "();",
        -5.160754680633545
      ],
      [
        "▁null",
        -5.174736499786377
      ],
      [
        "▁public",
        -5.243465423583984
      ],
      [
        "}",
        -5.249141216278076
      ],
      [
        ">",
        -5.2687668800354
      ],
      [
        "▁//",
        -5.447709560394287
      ],
      [
        "String",
        -5.465954303741455
      ],
      [
        "(\"",
        -5.4666924476623535
      ],
      [
        "▁+",
        -5.4987030029296875
      ],
      [
        "▁\"",
        -5.522167205810547
      ],
      [
        "()",
        -5.6047515869140625
      ],
      [
        "▁String",
        -5.6901535987854
      ],
      [
        "▁==",
        -5.710882663726807
      ],
      [
        "Exception",
        -5.7764153480529785
      ],
      [
        "▁the",
        -5.9733805656433105
      ],
      [
        "().",
        -5.981276035308838
      ],
      [
        ":",
        -6.006106376647949
      ],
      [
        "▁void",
        -6.047609806060791
      ],
      [
        "())",
        -6.057538032531738
      ],
      [
        "i",
        -6.07391881942749
      ],
      [
        "▁!=",
        -6.07737398147583
      ],
      [
        "▁int",
        -6.14732551574707
      ],
      [
        "▁final",
        -6.149296283721924
      ],
      [
        "());",
        -6.162296772003174
      ],
      [
        "▁this",
        -6.190791606903076
      ],
      [
        "if",
        -6.205596923828125
      ],
      [
        "▁for",
        -6.209339618682861
      ],
      [
        "▁else",
        -6.230578899383545
      ],
      [
        "(),",
        -6.233550071716309
      ],
      [
        "▁static",
        -6.255707263946533
      ],
      [
        "▁to",
        -6.257918834686279
      ],
      [
        "add",
        -6.2609052658081055
      ],
      [
        "\",",
        -6.266069412231445
      ],
      [
        "\");",
        -6.267175197601318
      ],
      [
        "Type",
        -6.272607803344727
      ],
      [
        "return",
        -6.276031970977783
      ],
      [
        "▁@",
        -6.289647102355957
      ],
      [
        "[",
        -6.291116714477539
      ],
      [
        "▁e",
        -6.305096626281738
      ],
      [
        "▁i",
        -6.33837890625
      ],
      [
        "set",
        -6.340893268585205
      ],
      [
        "int",
        -6.373863697052002
      ],
      [
        "▁throw",
        -6.412973880767822
      ],
      [
        "length",
        -6.466149806976318
      ],
      [
        "List",
        -6.4759650230407715
      ],
      [
        "T",
        -6.487744331359863
      ],
      [
        "final",
        -6.508272171020508
      ],
      [
        "Name",
        -6.517547607421875
      ],
      [
        "[]",
        -6.53122091293335
      ],
      [
        "▁&&",
        -6.5377888679504395
      ],
      [
        "this",
        -6.55203914642334
      ],
      [
        "▁throws",
        -6.566891670227051
      ],
      [
        "new",
        -6.591322422027588
      ],
      [
        "))",
        -6.593975067138672
      ],
      [
        "▁:",
        -6.618676662445068
      ],
      [
        "d",
        -6.647305011749268
      ],
      [
        "▁is",
        -6.690626621246338
      ],
      [
        "Override",
        -6.704555511474609
      ],
      [
        "▁catch",
        -6.718732833862305
      ],
      [
        "Id",
        -6.719949722290039
      ],
      [
        "append",
        -6.739586353302002
      ],
      [
        "));",
        -6.749792098999023
      ],
      [
        "m",
        -6.787161350250244
      ],
      [
        "2",
        -6.795674800872803
      ],
      [
        "▁try",
        -6.808834075927734
      ],
      [
        "e",
        -6.814639091491699
      ],
      [
        "is",
        -6.818795680999756
      ],
      [
        "▁a",
        -6.820502758026123
      ],
      [
        "Map",
        -6.841447830200195
      ],
      [
        "//",
        -6.841508388519287
      ],
      [
        "class",
        -6.8447771072387695
      ],
      [
        "▁boolean",
        -6.85313606262207
      ],
      [
        "▁m",
        -6.860863208770752
      ],
      [
        "t",
        -6.864621639251709
      ],
      [
        "'",
        -6.880015850067139
      ],
      [
        "-",
        -6.890927791595459
      ],
      [
        "Request",
        -6.894972801208496
      ],
      [
        "n",
        -6.9139404296875
      ],
      [
        "▁private",
        -6.919600486755371
      ],
      [
        "Object",
        -6.929087162017822
      ],
      [
        "▁0;",
        -6.932431221008301
      ],
      [
        "▁result",
        -6.94042444229126
      ],
      [
        "Value",
        -6.949307441711426
      ],
      [
        "S",
        -6.973495006561279
      ],
      [
        "Class",
        -6.989619731903076
      ],
      [
        "ed",
        -6.994924068450928
      ],
      [
        "▁value",
        -7.006842136383057
      ],
      [
        "File",
        -7.015538215637207
      ],
      [
        "/",
        -7.0480499267578125
      ],
      [
        "▁-",
        -7.064505577087402
      ],
      [
        "▁false",
        -7.071056365966797
      ],
      [
        "x",
        -7.082132339477539
      ],
      [
        "a",
        -7.084101676940918
      ],
      [
        "ing",
        -7.087647914886475
      ],
      [
        "name",
        -7.1143693923950195
      ],
      [
        "r",
        -7.1302103996276855
      ],
      [
        "size",
        -7.136058330535889
      ],
      [
        "▁true",
        -7.136271953582764
      ],
      [
        "Node",
        -7.147305965423584
      ],
      [
        "▁||",
        -7.154250621795654
      ],
      [
        "▁Object",
        -7.165323734283447
      ],
      [
        "c",
        -7.167305946350098
      ],
      [
        "1",
        -7.17625093460083
      ],
      [
        "▁in",
        -7.178042411804199
      ],
      [
        "▁(!",
        -7.189480304718018
      ],
      [
        "▁*",
        -7.190428256988525
      ],
      [
        "put",
        -7.197721481323242
      ],
      [
        "▁List",
        -7.2009968757629395
      ],
      [
        "]",
        -7.217349052429199
      ],
      [
        "▁0)",
        -7.222204208374023
      ],
      [
        "Data",
        -7.230438232421875
      ],
      [
        "equals",
        -7.246509075164795
      ],
      [
        "▁not",
        -7.258984565734863
      ],
      [
        "value",
        -7.268791198730469
      ],
      [
        "Path",
        -7.270125865936279
      ],
      [
        "\"",
        -7.276420593261719
      ],
      [
        "Key",
        -7.278017520904541
      ],
      [
        "▁request",
        -7.283146858215332
      ],
      [
        "otocolMarshaller",
        -7.306487083435059
      ],
      [
        "toString",
        -7.311665058135986
      ],
      [
        "▁of",
        -7.320376873016357
      ],
      [
        "Info",
        -7.322291851043701
      ],
      [
        "To",
        -7.323464393615723
      ],
      [
        "▁be",
        -7.32622480392456
      ],
      [
        "Context",
        -7.3487067222595215
      ],
      [
        "{",
        -7.351562976837158
      ],
      [
        "▁case",
        -7.356257915496826
      ],
      [
        "Index",
        -7.395985126495361
      ],
      [
        "D",
        -7.42328691482544
      ],
      [
        "key",
        -7.425088882446289
      ],
      [
        "f",
        -7.441341876983643
      ],
      [
        "▁?",
        -7.442593097686768
      ],
      [
        "g",
        -7.45881462097168
      ],
      [
        "▁pr",
        -7.463969707489014
      ],
      [
        "▁0",
        -7.474193096160889
      ],
      [
        "▁IOException",
        -7.479038238525391
      ],
      [
        "▁name",
        -7.48412036895752
      ],
      [
        "null",
        -7.485645771026611
      ],
      [
        "Set",
        -7.487494945526123
      ],
      [
        "p",
        -7.497324466705322
      ],
      [
        "▁and",
        -7.501849174499512
      ],
      [
        "type",
        -7.502843379974365
      ],
      [
        "▁instanceof",
        -7.509133815765381
      ],
      [
        "ID",
        -7.514747619628906
      ],
      [
        "++)",
        -7.525567054748535
      ],
      [
        "b",
        -7.533324718475342
      ],
      [
        "▁type",
        -7.535490989685059
      ],
      [
        "Element",
        -7.548465728759766
      ],
      [
        "marshall",
        -7.558202743530273
      ],
      [
        "y",
        -7.571547031402588
      ],
      [
        "getName",
        -7.580023288726807
      ],
      [
        "A",
        -7.581931591033936
      ],
      [
        "Config",
        -7.582944869995117
      ],
      [
        "▁set",
        -7.590839385986328
      ],
      [
        "3",
        -7.590969562530518
      ],
      [
        "Response",
        -7.593976974487305
      ],
      [
        "id",
        -7.603448390960693
      ],
      [
        "▁double",
        -7.60518217086792
      ],
      [
        "er",
        -7.614780902862549
      ],
      [
        "Entry",
        -7.617818832397461
      ],
      [
        "C",
        -7.62017822265625
      ],
      [
        "o",
        -7.622296810150147
      ],
      [
        ">>",
        -7.643197059631348
      ],
      [
        "Message",
        -7.643232822418213
      ],
      [
        "▁create",
        -7.646917343139648
      ],
      [
        "▁long",
        -7.646959781646728
      ],
      [
        "X",
        -7.649415493011475
      ],
      [
        "Builder",
        -7.651644706726074
      ],
      [
        "▁protected",
        -7.65357494354248
      ],
      [
        "for",
        -7.655524253845215
      ],
      [
        "Factory",
        -7.661002635955811
      ],
      [
        "Field",
        -7.663453578948975
      ],
      [
        "create",
        -7.66408109664917
      ],
      [
        "▁key",
        -7.669307231903076
      ],
      [
        "\")",
        -7.673981666564941
      ],
      [
        "I",
        -7.694905757904053
      ],
      [
        "rgumentException",
        -7.7016801834106445
      ],
      [
        "v",
        -7.704188346862793
      ],
      [
        "▁p",
        -7.711693286895752
      ],
      [
        "L",
        -7.716654300689697
      ],
      [
        "Result",
        -7.719662189483643
      ],
      [
        "request",
        -7.722522258758545
      ],
      [
        "BINDING",
        -7.732912540435791
      ],
      [
        "▁we",
        -7.7348713874816895
      ],
      [
        "E",
        -7.737689971923828
      ],
      [
        "State",
        -7.743152618408203
      ],
      [
        "▁it",
        -7.744273662567139
      ],
      [
        "=",
        -7.755197048187256
      ],
      [
        "Method",
        -7.76492977142334
      ],
      [
        "▁break",
        -7.769075870513916
      ],
      [
        "▁IllegalA",
        -7.7713942527771
      ],
      [
        "to",
        -7.780031681060791
      ],
      [
        "▁response",
        -7.785971164703369
      ],
      [
        "▁c",
        -7.787645816802979
      ],
      [
        "debug",
        -7.789585113525391
      ],
      [
        "Size",
        -7.794105052947998
      ],
      [
        "▁file",
        -7.794116497039795
      ],
      [
        "public",
        -7.7964677810668945
      ],
      [
        "Configuration",
        -7.807860374450684
      ],
      [
        "j",
        -7.811948299407959
      ],
      [
        "Resource",
        -7.812880516052246
      ],
      [
        "▁list",
        -7.8178205490112305
      ],
      [
        "Service",
        -7.818310260772705
      ],
      [
        "▁ArrayList",
        -7.820693969726563
      ],
      [
        "out",
        -7.824941635131836
      ],
      [
        "R",
        -7.827292919158936
      ],
      [
        "▁data",
        -7.828591346740723
      ],
      [
        "Count",
        -7.83908748626709
      ],
      [
        "];",
        -7.84882402420044
      ],
      [
        "▁while",
        -7.866619110107422
      ],
      [
        "F",
        -7.870659828186035
      ],
      [
        "index",
        -7.876216411590576
      ],
      [
        "Utils",
        -7.877042293548584
      ],
      [
        "next",
        -7.878906726837158
      ],
      [
        "throw",
        -7.886609077453613
      ],
      [
        "In",
        -7.89006233215332
      ],
      [
        "▁path",
        -7.891258239746094
      ],
      [
        "data",
        -7.90994930267334
      ],
      [
        "▁!",
        -7.914738655090332
      ],
      [
        "▁with",
        -7.918689250946045
      ],
      [
        "P",
        -7.920254707336426
      ],
      [
        "▁index",
        -7.927898406982422
      ],
      [
        "result",
        -7.935498237609863
      ],
      [
        "tc",
        -7.935877323150635
      ],
      [
        "Property",
        -7.939935207366943
      ],
      [
        "in",
        -7.944021224975586
      ],
      [
        "Manager",
        -7.944342136383057
      ],
      [
        "▁from",
        -7.95237398147583
      ],
      [
        "isEmpty",
        -7.952553749084473
      ],
      [
        "error",
        -7.953147888183594
      ],
      [
        "Constants",
        -7.96218204498291
      ],
      [
        "Event",
        -7.964577674865723
      ],
      [
        "▁byte",
        -7.972774028778076
      ],
      [
        "With",
        -7.974485397338867
      ],
      [
        "Handler",
        -7.974595069885254
      ],
      [
        "B",
        -7.982620716094971
      ],
      [
        "For",
        -7.985072612762451
      ],
      [
        "4",
        -7.991378307342529
      ],
      [
        "remove",
        -8.004469871520996
      ],
      [
        "Client",
        -8.006631851196289
      ],
      [
        "Async",
        -8.007433891296387
      ],
      [
        "ServiceResponse",
        -8.013296127319336
      ],
      [
        "▁b",
        -8.01364803314209
      ],
      [
        "V",
        -8.016016006469727
      ],
      [
        "Filter",
        -8.016203880310059
      ],
      [
        "▁j",
        -8.020087242126465
      ],
      [
        "▁start",
        -8.020539283752441
      ],
      [
        "getMessage",
        -8.025842666625977
      ],
      [
        "log",
        -8.027056694030762
      ],
      [
        "▁sb",
        -8.040583610534668
      ],
      [
        "Array",
        -8.042725563049316
      ],
      [
        "K",
        -8.049155235290527
      ],
      [
        "able",
        -8.053313255310059
      ],
      [
        "write",
        -8.078330039978027
      ],
      [
        "getValue",
        -8.07939624786377
      ],
      [
        "Page",
        -8.07960319519043
      ],
      [
        "O",
        -8.079646110534668
      ],
      [
        "Integer",
        -8.083939552307129
      ],
      [
        "Stream",
        -8.084970474243164
      ],
      [
        "case",
        -8.086233139038086
      ],
      [
        "Time",
        -8.094294548034668
      ],
      [
        "▁context",
        -8.100260734558105
      ],
      [
        "<?>",
        -8.10096263885498
      ],
      [
        "Properties",
        -8.101322174072266
      ],
      [
        "file",
        -8.10157585144043
      ],
      [
        "true",
        -8.102707862854004
      ],
      [
        "Table",
        -8.104408264160156
      ],
      [
        "Parameter",
        -8.104609489440918
      ],
      [
        "From",
        -8.106951713562012
      ],
      [
        "▁Map",
        -8.1101655960083
      ],
      [
        "Error",
        -8.110787391662598
      ],
      [
        "info",
        -8.113104820251465
      ],
      [
        "path",
        -8.115696907043457
      ],
      [
        "▁t",
        -8.117035865783691
      ],
      [
        "▁node",
        -8.118667602539062
      ],
      [
        "Cache",
        -8.121994018554688
      ],
      [
        "Query",
        -8.123331069946289
      ],
      [
        "format",
        -8.130839347839355
      ],
      [
        "k",
        -8.131336212158203
      ],
      [
        "▁System",
        -8.135358810424805
      ],
      [
        "▁+=",
        -8.137354850769043
      ],
      [
        "u",
        -8.13809585571289
      ],
      [
        "▁marshall",
        -8.139156341552734
      ],
      [
        "▁check",
        -8.13945198059082
      ],
      [
        "Util",
        -8.14404010772705
      ],
      [
        "▁field",
        -8.144929885864258
      ],
      [
        "Item",
        -8.145101547241211
      ],
      [
        "Enabled",
        -8.14789867401123
      ],
      [
        "Group",
        -8.154973030090332
      ],
      [
        "▁>=",
        -8.155412673950195
      ],
      [
        "▁out",
        -8.160257339477539
      ],
      [
        "Text",
        -8.166690826416016
      ],
      [
        "map",
        -8.170093536376953
      ],
      [
        "▁log",
        -8.170319557189941
      ],
      [
        "l",
        -8.171952247619629
      ],
      [
        "try",
        -8.179666519165039
      ],
      [
        "start",
        -8.184098243713379
      ],
      [
        "▁on",
        -8.19075870513916
      ],
      [
        "Status",
        -8.191587448120117
      ],
      [
        "▁extends",
        -8.196220397949219
      ],
      [
        "Connection",
        -8.20630168914795
      ],
      [
        "Impl",
        -8.208992958068848
      ],
      [
        "View",
        -8.210311889648438
      ],
      [
        "Model",
        -8.211092948913574
      ],
      [
        "long",
        -8.212448120117188
      ],
      [
        "▁method",
        -8.219127655029297
      ],
      [
        "Listener",
        -8.22587776184082
      ],
      [
        "byte",
        -8.229976654052734
      ],
      [
        "entry",
        -8.230447769165039
      ],
      [
        "▁that",
        -8.231078147888184
      ],
      [
        "▁r",
        -8.232142448425293
      ],
      [
        "NAME",
        -8.235528945922852
      ],
      [
        "substring",
        -8.238289833068848
      ],
      [
        "Invalid",
        -8.241129875183105
      ],
      [
        "▁ex",
        -8.2435884475708
      ],
      [
        "▁0,",
        -8.244030952453613
      ],
      [
        "▁->",
        -8.244089126586914
      ],
      [
        "Attribute",
        -8.244399070739746
      ],
      [
        "Token",
        -8.245401382446289
      ],
      [
        "▁current",
        -8.245662689208984
      ],
      [
        "Expression",
        -8.246109962463379
      ],
      [
        "▁input",
        -8.246963500976562
      ],
      [
        "▁entry",
        -8.249277114868164
      ],
      [
        "build",
        -8.255646705627441
      ],
      [
        "▁File",
        -8.258315086364746
      ],
      [
        "\";",
        -8.258810043334961
      ],
      [
        "Instance",
        -8.260643005371094
      ],
      [
        "G",
        -8.264047622680664
      ],
      [
        "Number",
        -8.266314506530762
      ],
      [
        "Date",
        -8.273792266845703
      ],
      [
        "*",
        -8.27736759185791
      ],
      [
        "▁target",
        -8.278219223022461
      ],
      [
        "client",
        -8.283246040344238
      ],
      [
        "▁buffer",
        -8.284438133239746
      ],
      [
        ".\");",
        -8.286888122558594
      ],
      [
        "Collection",
        -8.289249420166016
      ],
      [
        "▁message",
        -8.29172134399414
      ],
      [
        "close",
        -8.295304298400879
      ],
      [
        "▁tc",
        -8.296333312988281
      ],
      [
        "contains",
        -8.300226211547852
      ],
      [
        "input",
        -8.302990913391113
      ],
      [
        "w",
        -8.30431079864502
      ],
      [
        "▁end",
        -8.307787895202637
      ],
      [
        "0",
        -8.308823585510254
      ],
      [
        "h",
        -8.309513092041016
      ],
      [
        "▁Integer",
        -8.309796333312988
      ],
      [
        "node",
        -8.314570426940918
      ],
      [
        "Y",
        -8.318390846252441
      ],
      [
        "read",
        -8.324966430664062
      ],
      [
        "println",
        -8.327531814575195
      ],
      [
        "▁SdkClient",
        -8.329330444335938
      ],
      [
        "▁x",
        -8.32973861694336
      ],
      [
        "N",
        -8.334827423095703
      ],
      [
        "1,",
        -8.340882301330566
      ],
      [
        "\"))",
        -8.341280937194824
      ],
      [
        "▁T",
        -8.34130573272705
      ],
      [
        "▁StringBuilder",
        -8.346492767333984
      ],
      [
        "Level",
        -8.347574234008789
      ],
      [
        "Code",
        -8.348639488220215
      ],
      [
        "▁n",
        -8.352697372436523
      ],
      [
        "Length",
        -8.354626655578613
      ],
      [
        "list",
        -8.355122566223145
      ],
      [
        "System",
        -8.355835914611816
      ],
      [
        "▁1)",
        -8.357538223266602
      ],
      [
        "U",
        -8.359235763549805
      ],
      [
        ">();",
        -8.359938621520996
      ],
      [
        "current",
        -8.36156177520752
      ],
      [
        "+",
        -8.363765716552734
      ],
      [
        "By",
        -8.363810539245605
      ],
      [
        "▁1;",
        -8.364150047302246
      ],
      [
        "Task",
        -8.366926193237305
      ],
      [
        "Url",
        -8.369458198547363
      ],
      [
        "User",
        -8.37142562866211
      ],
      [
        "▁service",
        -8.373964309692383
      ],
      [
        "double",
        -8.376087188720703
      ],
      [
        "▁read",
        -8.376944541931152
      ],
      [
        "▁Class",
        -8.377067565917969
      ],
      [
        "▁max",
        -8.379467010498047
      ],
      [
        "▁do",
        -8.3798246383667
      ],
      [
        "▁super",
        -8.379897117614746
      ],
      [
        "▁&",
        -8.380958557128906
      ],
      [
        "TYPE",
        -8.381516456604004
      ],
      [
        "And",
        -8.38300895690918
      ],
      [
        "Buffer",
        -8.387182235717773
      ],
      [
        "▁logger",
        -8.389260292053223
      ],
      [
        "▁default",
        -8.391657829284668
      ],
      [
        "Job",
        -8.398191452026367
      ],
      [
        "Content",
        -8.39894962310791
      ],
      [
        "▁update",
        -8.400835990905762
      ],
      [
        "Inner",
        -8.40359115600586
      ],
      [
        "Point",
        -8.4052152633667
      ],
      [
        "▁builder",
        -8.406384468078613
      ],
      [
        "()))",
        -8.406396865844727
      ],
      [
        "IOException",
        -8.406888961791992
      ],
      [
        "()));",
        -8.407734870910645
      ],
      [
        "▁id",
        -8.410157203674316
      ],
      [
        "Options",
        -8.410598754882812
      ],
      [
        "on",
        -8.413238525390625
      ],
      [
        "▁all",
        -8.416498184204102
      ],
      [
        "str",
        -8.417281150817871
      ],
      [
        "▁str",
        -8.425135612487793
      ],
      [
        "M",
        -8.425708770751953
      ],
      [
        "Version",
        -8.428780555725098
      ],
      [
        "Callback",
        -8.429532051086426
      ],
      [
        "▁source",
        -8.430063247680664
      ],
      [
        "▁object",
        -8.43525218963623
      ],
      [
        "▁<=",
        -8.441987037658691
      ],
      [
        "▁resource",
        -8.44662857055664
      ],
      [
        "▁I",
        -8.447132110595703
      ],
      [
        "<>();",
        -8.447539329528809
      ],
      [
        "Base",
        -8.450307846069336
      ],
      [
        "Session",
        -8.451554298400879
      ],
      [
        "Entity",
        -8.453394889831543
      ],
      [
        "▁synchronized",
        -8.456252098083496
      ],
      [
        "▁are",
        -8.461688995361328
      ],
      [
        "TracingEnabled",
        -8.464564323425293
      ],
      [
        "max",
        -8.46467399597168
      ],
      [
        "Source",
        -8.46475601196289
      ],
      [
        "▁as",
        -8.465973854064941
      ],
      [
        "isAny",
        -8.467460632324219
      ],
      [
        "Start",
        -8.473729133605957
      ],
      [
        "▁first",
        -8.475972175598145
      ],
      [
        "getClass",
        -8.476210594177246
      ],
      [
        "URL",
        -8.478654861450195
      ],
      [
        "or",
        -8.478676795959473
      ],
      [
        "▁*/",
        -8.479836463928223
      ],
      [
        "state",
        -8.480236053466797
      ],
      [
        "▁o",
        -8.48081111907959
      ],
      [
        "<?",
        -8.486102104187012
      ],
      [
        "▁state",
        -8.487180709838867
      ],
      [
        "context",
        -8.490131378173828
      ],
      [
        "H",
        -8.492642402648926
      ],
      [
        "Provider",
        -8.493906021118164
      ],
      [
        "Of",
        -8.494742393493652
      ],
      [
        "Action",
        -8.500872611999512
      ],
      [
        "Server",
        -8.50391960144043
      ],
      [
        "TraceComponent",
        -8.505846977233887
      ],
      [
        "Function",
        -8.507009506225586
      ],
      [
        "▁%",
        -8.507842063903809
      ],
      [
        "source",
        -8.512224197387695
      ],
      [
        "▁finally",
        -8.514511108398438
      ],
      [
        "stream",
        -8.516020774841309
      ],
      [
        "W",
        -8.517576217651367
      ],
      [
        "Image",
        -8.517769813537598
      ],
      [
        "▁has",
        -8.518169403076172
      ],
      [
        "InputStream",
        -8.518437385559082
      ],
      [
        "▁map",
        -8.519463539123535
      ],
      [
        "Operation",
        -8.519671440124512
      ],
      [
        "Writer",
        -8.521592140197754
      ],
      [
        "Pattern",
        -8.52340316772461
      ],
      [
        "▁an",
        -8.53056812286377
      ],
      [
        "util",
        -8.534222602844238
      ],
      [
        "▁|",
        -8.53503131866455
      ],
      [
        "service",
        -8.53592300415039
      ],
      [
        "Column",
        -8.536417961120605
      ],
      [
        "z",
        -8.539533615112305
      ],
      [
        "java",
        -8.541498184204102
      ],
      [
        "text",
        -8.542487144470215
      ],
      [
        "al",
        -8.544211387634277
      ],
      [
        "▁count",
        -8.5452299118042
      ],
      [
        "){",
        -8.5520658493042
      ],
      [
        "].",
        -8.553229331970215
      ],
      [
        "Offset",
        -8.554621696472168
      ],
      [
        "Execution",
        -8.5552978515625
      ],
      [
        "Component",
        -8.556299209594727
      ],
      [
        "msg",
        -8.55633544921875
      ],
      [
        "Dir",
        -8.560077667236328
      ],
      [
        "has",
        -8.560077667236328
      ],
      [
        "field",
        -8.564973831176758
      ],
      [
        "++;",
        -8.566253662109375
      ],
      [
        "Tree",
        -8.569275856018066
      ],
      [
        "URI",
        -8.570625305175781
      ],
      [
        "▁v",
        -8.572346687316895
      ],
      [
        "Iterator",
        -8.57280158996582
      ],
      [
        "Header",
        -8.573002815246582
      ],
      [
        "▁ret",
        -8.57486629486084
      ],
      [
        "▁find",
        -8.575093269348145
      ],
      [
        "▁java",
        -8.579306602478027
      ],
      [
        "...",
        -8.589803695678711
      ],
      [
        "re",
        -8.589977264404297
      ],
      [
        "RuntimeException",
        -8.590928077697754
      ],
      [
        "from",
        -8.592020034790039
      ],
      [
        "▁or",
        -8.592491149902344
      ],
      [
        "Tag",
        -8.598469734191895
      ],
      [
        "buffer",
        -8.59968376159668
      ],
      [
        "else",
        -8.600021362304688
      ],
      [
        "▁config",
        -8.60142993927002
      ],
      [
        "getKey",
        -8.601490020751953
      ],
      [
        "▁element",
        -8.6017484664917
      ],
      [
        "▁LOG",
        -8.602079391479492
      ],
      [
        "▁query",
        -8.602532386779785
      ],
      [
        "▁last",
        -8.602730751037598
      ],
      [
        "isEntry",
        -8.605988502502441
      ],
      [
        "▁call",
        -8.606757164001465
      ],
      [
        "Long",
        -8.608232498168945
      ],
      [
        "▁have",
        -8.60944652557373
      ],
      [
        "Line",
        -8.610276222229004
      ],
      [
        "▁Observable",
        -8.613414764404297
      ],
      [
        "Container",
        -8.617384910583496
      ],
      [
        "response",
        -8.617822647094727
      ],
      [
        "Reader",
        -8.6183443069458
      ],
      [
        "Log",
        -8.623512268066406
      ],
      [
        "Unable",
        -8.623546600341797
      ],
      [
        "esourceGroupName",
        -8.624003410339355
      ],
      [
        "resource",
        -8.626967430114746
      ],
      [
        "Package",
        -8.627270698547363
      ],
      [
        "Bean",
        -8.627846717834473
      ],
      [
        "Definition",
        -8.628028869628906
      ],
      [
        "\\",
        -8.631505966186523
      ],
      [
        "▁parse",
        -8.631739616394043
      ],
      [
        "min",
        -8.633195877075195
      ],
      [
        "▁obj",
        -8.633578300476074
      ],
      [
        "Rule",
        -8.634217262268066
      ],
      [
        "Bytes",
        -8.634570121765137
      ],
      [
        "▁Math",
        -8.63471794128418
      ],
      [
        "▁values",
        -8.636228561401367
      ],
      [
        "▁offset",
        -8.636491775512695
      ],
      [
        "8",
        -8.637391090393066
      ],
      [
        "line",
        -8.637741088867188
      ],
      [
        "iterator",
        -8.6453275680542
      ],
      [
        "▁url",
        -8.647114753723145
      ],
      [
        "Types",
        -8.648347854614258
      ],
      [
        "of",
        -8.653199195861816
      ],
      [
        "▁f",
        -8.654646873474121
      ],
      [
        "config",
        -8.657979965209961
      ],
      [
        "Update",
        -8.666210174560547
      ],
      [
        "SuppressWarnings",
        -8.668593406677246
      ],
      [
        "▁must",
        -8.669347763061523
      ],
      [
        "logger",
        -8.669487953186035
      ],
      [
        "end",
        -8.672950744628906
      ],
      [
        "Mode",
        -8.673203468322754
      ],
      [
        "query",
        -8.677501678466797
      ],
      [
        "target",
        -8.682306289672852
      ],
      [
        "pos",
        -8.68265438079834
      ],
      [
        "▁parent",
        -8.683624267578125
      ],
      [
        "hasNext",
        -8.683743476867676
      ],
      [
        "Block",
        -8.685861587524414
      ],
      [
        "▁Set",
        -8.6868314743042
      ],
      [
        "message",
        -8.688109397888184
      ],
      [
        "▁write",
        -8.689872741699219
      ],
      [
        "Row",
        -8.690935134887695
      ],
      [
        "Reference",
        -8.691312789916992
      ],
      [
        "update",
        -8.694863319396973
      ],
      [
        "Helper",
        -8.695672035217285
      ],
      [
        "false",
        -8.695716857910156
      ],
      [
        "▁re",
        -8.699621200561523
      ],
      [
        "?",
        -8.700377464294434
      ],
      [
        "▁next",
        -8.700858116149902
      ],
      [
        "Values",
        -8.702173233032227
      ],
      [
        "Record",
        -8.709027290344238
      ],
      [
        "Channel",
        -8.709709167480469
      ],
      [
        "End",
        -8.710562705993652
      ],
      [
        "table",
        -8.711799621582031
      ],
      [
        "▁argument",
        -8.713558197021484
      ],
      [
        "Position",
        -8.715285301208496
      ],
      [
        "▁cannot",
        -8.716028213500977
      ],
      [
        "ly",
        -8.719735145568848
      ],
      [
        "▁can",
        -8.722227096557617
      ],
      [
        "Ref",
        -8.72284984588623
      ],
      [
        "event",
        -8.724722862243652
      ],
      [
        "body",
        -8.725635528564453
      ],
      [
        "boolean",
        -8.72669506072998
      ],
      [
        "valueOf",
        -8.728446006774902
      ],
      [
        "url",
        -8.728520393371582
      ],
      [
        "▁no",
        -8.729537010192871
      ],
      [
        "Registry",
        -8.729910850524902
      ],
      [
        "▁array",
        -8.729972839355469
      ],
      [
        "Document",
        -8.73249340057373
      ],
      [
        "ch",
        -8.732681274414062
      ],
      [
        "Str",
        -8.73297119140625
      ],
      [
        "<>(",
        -8.734051704406738
      ],
      [
        "J",
        -8.734919548034668
      ],
      [
        "▁com",
        -8.737284660339355
      ],
      [
        "as",
        -8.740477561950684
      ],
      [
        "On",
        -8.740610122680664
      ],
      [
        "▁by",
        -8.740878105163574
      ],
      [
        "(0,",
        -8.741052627563477
      ],
      [
        "▁event",
        -8.744986534118652
      ],
      [
        "indexOf",
        -8.745862007141113
      ],
      [
        "▁output",
        -8.748417854309082
      ],
      [
        "▁y",
        -8.749051094055176
      ],
      [
        "Annotation",
        -8.74946117401123
      ],
      [
        "Metadata",
        -8.751328468322754
      ],
      [
        "Location",
        -8.75163459777832
      ],
      [
        "Command",
        -8.7526216506958
      ],
      [
        "No",
        -8.752684593200684
      ],
      [
        "KEY",
        -8.753902435302734
      ],
      [
        "method",
        -8.758771896362305
      ],
      [
        "▁params",
        -8.759551048278809
      ],
      [
        "▁found",
        -8.759634971618652
      ],
      [
        "▁'",
        -8.762857437133789
      ],
      [
        "▁other",
        -8.76530647277832
      ],
      [
        "Or",
        -8.770210266113281
      ],
      [
        "object",
        -8.770499229431152
      ],
      [
        "obj",
        -8.773295402526855
      ],
      [
        "▁user",
        -8.773900032043457
      ],
      [
        "Double",
        -8.77422046661377
      ],
      [
        "▁session",
        -8.775777816772461
      ],
      [
        "▁before",
        -8.776140213012695
      ],
      [
        "▁args",
        -8.779667854309082
      ],
      [
        "exit",
        -8.782366752624512
      ],
      [
        "Parameters",
        -8.783773422241211
      ],
      [
        "Template",
        -8.783821105957031
      ],
      [
        "Descriptor",
        -8.786333084106445
      ],
      [
        "Messages",
        -8.786628723144531
      ],
      [
        "▁Tr",
        -8.786974906921387
      ],
      [
        "▁/*",
        -8.790964126586914
      ],
      [
        "it",
        -8.79193115234375
      ],
      [
        "getType",
        -8.7938871383667
      ],
      [
        "▁/",
        -8.794783592224121
      ],
      [
        "isDebugEnabled",
        -8.795244216918945
      ],
      [
        "▁property",
        -8.79649829864502
      ],
      [
        "▁line",
        -8.797982215881348
      ],
      [
        "clear",
        -8.798215866088867
      ],
      [
        "getId",
        -8.799753189086914
      ],
      [
        "with",
        -8.802141189575195
      ],
      [
        "▁buf",
        -8.803988456726074
      ],
      [
        "▁HashMap",
        -8.804014205932617
      ],
      [
        "▁text",
        -8.80820369720459
      ],
      [
        "Get",
        -8.809887886047363
      ],
      [
        "offset",
        -8.810942649841309
      ],
      [
        "▁float",
        -8.817411422729492
      ],
      [
        "▁JSON",
        -8.817767143249512
      ],
      [
        "values",
        -8.817915916442871
      ],
      [
        "All",
        -8.818270683288574
      ],
      [
        "Queue",
        -8.819579124450684
      ],
      [
        "▁will",
        -8.819985389709473
      ],
      [
        "1.",
        -8.819999694824219
      ],
      [
        "▁old",
        -8.820525169372559
      ],
      [
        "Input",
        -8.820919036865234
      ],
      [
        "▁remove",
        -8.821144104003906
      ],
      [
        "OutputStream",
        -8.821493148803711
      ],
      [
        "Range",
        -8.823476791381836
      ],
      [
        "getInstance",
        -8.82422161102295
      ],
      [
        "Address",
        -8.827353477478027
      ],
      [
        "▁row",
        -8.831408500671387
      ],
      [
        "Int",
        -8.841045379638672
      ],
      [
        "count",
        -8.844154357910156
      ],
      [
        "▁required",
        -8.84529972076416
      ],
      [
        "▁connection",
        -8.848304748535156
      ],
      [
        "▁size",
        -8.85015869140625
      ],
      [
        "▁sub",
        -8.85041332244873
      ],
      [
        "64",
        -8.850831985473633
      ],
      [
        "VALUE",
        -8.851217269897461
      ],
      [
        "▁so",
        -8.852507591247559
      ],
      [
        "parent",
        -8.85696792602539
      ],
      [
        "getProperty",
        -8.857282638549805
      ],
      [
        "EClass",
        -8.857902526855469
      ],
      [
        "▁SibTr",
        -8.858574867248535
      ],
      [
        "▁char",
        -8.859051704406738
      ],
      [
        "user",
        -8.860828399658203
      ],
      [
        "▁filter",
        -8.863081932067871
      ],
      [
        "(@",
        -8.8641939163208
      ],
      [
        "es",
        -8.864765167236328
      ],
      [
        "@",
        -8.867722511291504
      ],
      [
        "[0]",
        -8.87248706817627
      ],
      [
        "Read",
        -8.872502326965332
      ],
      [
        "filter",
        -8.87382698059082
      ],
      [
        "▁one",
        -8.876625061035156
      ],
      [
        "5",
        -8.877479553222656
      ],
      [
        "▁val",
        -8.87825870513916
      ],
      [
        "▁k",
        -8.878894805908203
      ],
      [
        "Names",
        -8.879215240478516
      ],
      [
        "group",
        -8.88027572631836
      ],
      [
        "▁min",
        -8.880834579467773
      ],
      [
        "Boolean",
        -8.883562088012695
      ],
      [
        "Link",
        -8.884397506713867
      ],
      [
        "Parser",
        -8.884449005126953
      ],
      [
        "▁use",
        -8.892251968383789
      ],
      [
        "▁writer",
        -8.894674301147461
      ],
      [
        "The",
        -8.899450302124023
      ],
      [
        "break",
        -8.90162467956543
      ],
      [
        "charAt",
        -8.902100563049316
      ],
      [
        "Format",
        -8.90222454071045
      ],
      [
        "▁content",
        -8.90341854095459
      ],
      [
        "Policy",
        -8.904729843139648
      ],
      [
        "▁len",
        -8.905818939208984
      ],
      [
        "Option",
        -8.906270980834961
      ],
      [
        "Lock",
        -8.908500671386719
      ],
      [
        "delete",
        -8.910242080688477
      ],
      [
        "▁should",
        -8.911996841430664
      ],
      [
        "Access",
        -8.913045883178711
      ],
      [
        "▁1);",
        -8.914387702941895
      ],
      [
        "Target",
        -8.914590835571289
      ],
      [
        "Call",
        -8.916252136230469
      ],
      [
        "6",
        -8.917248725891113
      ],
      [
        "LA",
        -8.918858528137207
      ],
      [
        "Transaction",
        -8.919832229614258
      ],
      [
        "▁client",
        -8.920523643493652
      ],
      [
        "▁parameters",
        -8.92133903503418
      ],
      [
        "Param",
        -8.924108505249023
      ],
      [
        "Throwable",
        -8.924224853515625
      ],
      [
        "▁exception",
        -8.924623489379883
      ],
      [
        "▁time",
        -8.925923347473145
      ],
      [
        "▁l",
        -8.927350997924805
      ],
      [
        "startsWith",
        -8.928506851196289
      ],
      [
        "▁properties",
        -8.92861270904541
      ],
      [
        "Nullable",
        -8.928857803344727
      ],
      [
        "▁passed",
        -8.92973518371582
      ],
      [
        "internal",
        -8.930660247802734
      ],
      [
        "▁continue",
        -8.93217658996582
      ],
      [
        "▁clazz",
        -8.934730529785156
      ],
      [
        "▁process",
        -8.936080932617188
      ],
      [
        "▁msg",
        -8.937838554382324
      ],
      [
        "Application",
        -8.93851089477539
      ],
      [
        "warn",
        -8.939581871032715
      ],
      [
        "▁token",
        -8.944145202636719
      ],
      [
        "LOG",
        -8.944802284240723
      ],
      [
        "Mapping",
        -8.950260162353516
      ],
      [
        "▁V",
        -8.951301574707031
      ],
      [
        "Output",
        -8.952569961547852
      ],
      [
        "2,",
        -8.953995704650879
      ],
      [
        "q",
        -8.95554256439209
      ],
      [
        "▁Long",
        -8.95645809173584
      ],
      [
        "▁root",
        -8.958334922790527
      ],
      [
        "▁Boolean",
        -8.959054946899414
      ],
      [
        "▁cache",
        -8.966741561889648
      ],
      [
        "Width",
        -8.967082977294922
      ],
      [
        "addAll",
        -8.96776008605957
      ],
      [
        "Thread",
        -8.968912124633789
      ],
      [
        "▁instance",
        -8.970914840698242
      ],
      [
        "Label",
        -8.976089477539062
      ],
      [
        "Schema",
        -8.977174758911133
      ],
      [
        "session",
        -8.981865882873535
      ],
      [
        "=\"",
        -8.984347343444824
      ],
      [
        "sb",
        -8.986037254333496
      ],
      [
        "Params",
        -8.987351417541504
      ],
      [
        "find",
        -8.992525100708008
      ],
      [
        "Json",
        -8.993658065795898
      ],
      [
        "▁error",
        -8.99465274810791
      ],
      [
        "parse",
        -8.995760917663574
      ],
      [
        "unchecked",
        -8.997171401977539
      ],
      [
        "check",
        -8.997386932373047
      ],
      [
        "▁If",
        -8.998631477355957
      ],
      [
        "split",
        -8.99878978729248
      ],
      [
        "▁string",
        -8.998995780944824
      ],
      [
        "First",
        -9.001641273498535
      ],
      [
        "▁IllegalState",
        -9.003771781921387
      ],
      [
        "default",
        -9.004302024841309
      ],
      [
        "▁1",
        -9.006027221679688
      ],
      [
        "trim",
        -9.006415367126465
      ],
      [
        "com",
        -9.007753372192385
      ],
      [
        "Cms",
        -9.007875442504885
      ],
      [
        "args",
        -9.011085510253906
      ],
      [
        "(...)",
        -9.01109218597412
      ],
      [
        "▁Pr",
        -9.012815475463867
      ],
      [
        "▁only",
        -9.013211250305176
      ],
      [
        "▁model",
        -9.013315200805664
      ],
      [
        "Directory",
        -9.01791000366211
      ],
      [
        "Color",
        -9.02073860168457
      ],
      [
        "10",
        -9.026262283325195
      ],
      [
        "▁delete",
        -9.026925086975098
      ],
      [
        "▁version",
        -9.028388023376465
      ],
      [
        "▁task",
        -9.0311918258667
      ],
      [
        "▁h",
        -9.031261444091797
      ],
      [
        "at",
        -9.031323432922363
      ],
      [
        "DEFAULT",
        -9.03144073486328
      ],
      [
        "▁src",
        -9.035237312316896
      ],
      [
        "▁switch",
        -9.035490036010742
      ],
      [
        "▁was",
        -9.035531044006348
      ],
      [
        "org",
        -9.035626411437988
      ],
      [
        "Delete",
        -9.037898063659668
      ],
      [
        "▁item",
        -9.038393020629885
      ],
      [
        "▁already",
        -9.044177055358888
      ],
      [
        "▁num",
        -9.046645164489746
      ],
      [
        "2);",
        -9.047819137573242
      ],
      [
        "Pos",
        -9.048752784729004
      ],
      [
        "Sub",
        -9.049100875854492
      ],
      [
        "Char",
        -9.049322128295898
      ],
      [
        "If",
        -9.049603462219238
      ],
      [
        "array",
        -9.049887657165527
      ],
      [
        "Fields",
        -9.051766395568848
      ],
      [
        "▁table",
        -9.052449226379396
      ],
      [
        "Wrapper",
        -9.054937362670898
      ],
      [
        "Scope",
        -9.055983543395996
      ],
      [
        "Attributes",
        -9.056109428405762
      ],
      [
        "Root",
        -9.056763648986816
      ],
      [
        "Style",
        -9.057415962219238
      ],
      [
        "▁Double",
        -9.057933807373049
      ],
      [
        "ex",
        -9.062830924987791
      ],
      [
        "\").",
        -9.063868522644045
      ],
      [
        "%",
        -9.064045906066896
      ],
      [
        "▁code",
        -9.066354751586914
      ],
      [
        "Calendar",
        -9.06734848022461
      ],
      [
        "code",
        -9.06778335571289
      ],
      [
        "element",
        -9.069099426269531
      ],
      [
        "Default",
        -9.070780754089355
      ],
      [
        "▁dest",
        -9.072129249572754
      ],
      [
        "Failed",
        -9.073978424072266
      ],
      [
        "\"));",
        -9.074246406555176
      ],
      [
        "Xml",
        -9.074954986572266
      ],
      [
        "▁base",
        -9.07611083984375
      ],
      [
        "Store",
        -9.081683158874512
      ],
      [
        "▁run",
        -9.081928253173828
      ],
      [
        "root",
        -9.08260726928711
      ],
      [
        "xml",
        -9.08583641052246
      ],
      [
        "▁w",
        -9.086153030395508
      ],
      [
        "Files",
        -9.091145515441896
      ],
      [
        "last",
        -9.091182708740234
      ],
      [
        "float",
        -9.092095375061035
      ],
      [
        "Def",
        -9.092598915100098
      ],
      [
        "Prefix",
        -9.093209266662598
      ],
      [
        "ED",
        -9.09901523590088
      ],
      [
        "As",
        -9.099032402038574
      ],
      [
        "Settings",
        -9.101093292236328
      ],
      [
        "Keys",
        -9.101484298706056
      ],
      [
        "Project",
        -9.10252285003662
      ],
      [
        "Future",
        -9.10253620147705
      ],
      [
        "▁pos",
        -9.102962493896484
      ],
      [
        "▁child",
        -9.106505393981934
      ],
      [
        "char",
        -9.106513023376465
      ],
      [
        "Certificate",
        -9.10679054260254
      ],
      [
        "time",
        -9.107366561889648
      ],
      [
        "Doc",
        -9.108642578125
      ],
      [
        "builder",
        -9.109020233154297
      ],
      [
        "buf",
        -9.10920238494873
      ],
      [
        "7",
        -9.109889030456545
      ],
      [
        "token",
        -9.111166954040527
      ],
      [
        "▁options",
        -9.112197875976562
      ],
      [
        "base",
        -9.112676620483398
      ],
      [
        "▁at",
        -9.113396644592283
      ],
      [
        "▁need",
        -9.113828659057615
      ],
      [
        "(0);",
        -9.115266799926758
      ],
      [
        "load",
        -9.11586093902588
      ],
      [
        "Local",
        -9.115874290466309
      ],
      [
        "2.",
        -9.11857795715332
      ],
      [
        "Ids",
        -9.118788719177246
      ],
      [
        "▁-1)",
        -9.12289333343506
      ],
      [
        "▁LOGGER",
        -9.123664855957031
      ],
      [
        "Locale",
        -9.12382984161377
      ],
      [
        "instance",
        -9.126277923583984
      ],
      [
        "▁Collection",
        -9.126484870910645
      ],
      [
        "▁'\"",
        -9.126571655273438
      ],
      [
        "item",
        -9.127304077148438
      ],
      [
        "▁bytes",
        -9.127696990966797
      ],
      [
        "Vector",
        -9.128511428833008
      ],
      [
        "Check",
        -9.130620956420898
      ],
      [
        "▁entity",
        -9.132752418518066
      ],
      [
        "num",
        -9.133584976196287
      ],
      [
        "position",
        -9.13365077972412
      ],
      [
        "src",
        -9.133920669555664
      ],
      [
        "containsKey",
        -9.136308670043944
      ],
      [
        "model",
        -9.137229919433594
      ],
      [
        "▁assert",
        -9.137855529785156
      ],
      [
        "2)",
        -9.141197204589844
      ],
      [
        "▁Cms",
        -9.14308261871338
      ],
      [
        "==",
        -9.143396377563477
      ],
      [
        "▁-1;",
        -9.146328926086426
      ],
      [
        "val",
        -9.148755073547363
      ],
      [
        "Variable",
        -9.15035629272461
      ],
      [
        "replace",
        -9.153221130371094
      ],
      [
        "Statement",
        -9.153345108032228
      ],
      [
        "▁server",
        -9.154970169067385
      ],
      [
        "▁{}\",",
        -9.155506134033203
      ],
      [
        "Internal",
        -9.156994819641112
      ],
      [
        "▁res",
        -9.157397270202637
      ],
      [
        "sub",
        -9.15789031982422
      ],
      [
        "▁configuration",
        -9.159305572509766
      ],
      [
        "first",
        -9.159499168395996
      ],
      [
        "▁job",
        -9.160252571105955
      ],
      [
        "▁build",
        -9.16142463684082
      ],
      [
        "err",
        -9.16234302520752
      ],
      [
        "At",
        -9.163724899291992
      ],
      [
        "IN",
        -9.164199829101562
      ],
      [
        "Matrix",
        -9.16489028930664
      ],
      [
        "▁but",
        -9.164928436279297
      ],
      [
        "32",
        -9.16617488861084
      ],
      [
        "Pool",
        -9.168190002441406
      ],
      [
        "equalsIgnoreCase",
        -9.169622421264648
      ],
      [
        "Interface",
        -9.17121696472168
      ],
      [
        "INSTANCE",
        -9.172280311584473
      ],
      [
        "▁handle",
        -9.1775541305542
      ],
      [
        "lock",
        -9.17949676513672
      ],
      [
        "Converter",
        -9.180729866027832
      ],
      [
        "▁match",
        -9.180893898010254
      ],
      [
        "clazz",
        -9.183484077453612
      ],
      [
        "execute",
        -9.1863431930542
      ],
      [
        "width",
        -9.189851760864258
      ],
      [
        "▁stream",
        -9.190744400024414
      ],
      [
        "trace",
        -9.190861701965332
      ],
      [
        "Not",
        -9.192830085754396
      ],
      [
        "Description",
        -9.193241119384766
      ],
      [
        "MAX",
        -9.196338653564451
      ],
      [
        "sql",
        -9.196430206298828
      ],
      [
        "Process",
        -9.201759338378906
      ],
      [
        "Button",
        -9.202160835266112
      ],
      [
        "Enum",
        -9.204054832458496
      ],
      [
        "Match",
        -9.205080032348633
      ],
      [
        "ion",
        -9.209736824035645
      ],
      [
        "print",
        -9.213133811950684
      ],
      [
        "entrySet",
        -9.214651107788086
      ],
      [
        "▁un",
        -9.21475601196289
      ],
      [
        "channel",
        -9.217447280883787
      ],
      [
        "▁date",
        -9.21934700012207
      ],
      [
        "Resources",
        -9.220480918884276
      ],
      [
        "▁reader",
        -9.221234321594238
      ],
      [
        "▁any",
        -9.22174072265625
      ],
      [
        "▁Collections",
        -9.223337173461914
      ],
      [
        "output",
        -9.22386360168457
      ],
      [
        "Un",
        -9.224925994873049
      ],
      [
        "Adapter",
        -9.225545883178713
      ],
      [
        "Byte",
        -9.230224609375
      ],
      [
        "Write",
        -9.230506896972656
      ],
      [
        "::",
        -9.230538368225098
      ],
      [
        "▁image",
        -9.231569290161133
      ],
      [
        "ArrayList",
        -9.233972549438477
      ],
      [
        "▁format",
        -9.234416007995604
      ],
      [
        "▁local",
        -9.235244750976562
      ],
      [
        "init",
        -9.235418319702148
      ],
      [
        "server",
        -9.238402366638184
      ],
      [
        "▁block",
        -9.240214347839355
      ],
      [
        "▁column",
        -9.24328327178955
      ],
      [
        "len",
        -9.244793891906738
      ],
      [
        "Proxy",
        -9.245366096496582
      ],
      [
        "ll",
        -9.245623588562012
      ],
      [
        "Bundle",
        -9.246036529541016
      ],
      [
        "no",
        -9.247135162353516
      ],
      [
        "▁number",
        -9.24924373626709
      ],
      [
        "▁init",
        -9.2494535446167
      ],
      [
        "▁tmp",
        -9.25002384185791
      ],
      [
        "Len",
        -9.250408172607422
      ],
      [
        "▁header",
        -9.25118350982666
      ],
      [
        "Z",
        -9.2520751953125
      ],
      [
        "SIZE",
        -9.253591537475586
      ],
      [
        "▁attribute",
        -9.253673553466797
      ],
      [
        "Segment",
        -9.255255699157717
      ],
      [
        "property",
        -9.256025314331056
      ],
      [
        "SQL",
        -9.25820255279541
      ],
      [
        "Unit",
        -9.259392738342283
      ],
      [
        "while",
        -9.263601303100586
      ],
      [
        ">()",
        -9.264078140258787
      ],
      [
        "api",
        -9.264246940612791
      ],
      [
        "Parent",
        -9.264948844909668
      ],
      [
        "▁listener",
        -9.265813827514648
      ],
      [
        "\\\"",
        -9.266457557678224
      ],
      [
        "string",
        -9.266894340515137
      ],
      [
        "matcher",
        -9.26712417602539
      ],
      [
        "▁load",
        -9.26718807220459
      ],
      [
        "Consumer",
        -9.2697114944458
      ],
      [
        "Port",
        -9.271246910095217
      ],
      [
        "▁group",
        -9.271742820739746
      ],
      [
        "XML",
        -9.27184772491455
      ],
      [
        "properties",
        -9.271931648254396
      ],
      [
        "Handle",
        -9.273165702819824
      ],
      [
        "New",
        -9.274306297302246
      ],
      [
        "ERROR",
        -9.275914192199709
      ],
      [
        "exists",
        -9.276240348815918
      ],
      [
        "Nonnull",
        -9.27774715423584
      ],
      [
        "getString",
        -9.278148651123049
      ],
      [
        "st",
        -9.278627395629885
      ],
      [
        "Math",
        -9.283273696899414
      ],
      [
        "▁C",
        -9.28347110748291
      ],
      [
        "Feature",
        -9.283596992492676
      ],
      [
        "Out",
        -9.28376579284668
      ],
      [
        "▁uri",
        -9.28431224822998
      ],
      [
        "Search",
        -9.28481101989746
      ],
      [
        "Logger",
        -9.288804054260254
      ],
      [
        "▁parameter",
        -9.289091110229492
      ],
      [
        "Notification",
        -9.289915084838867
      ],
      [
        "an",
        -9.29368782043457
      ],
      [
        "open",
        -9.29487419128418
      ],
      [
        "▁Optional",
        -9.295559883117676
      ],
      [
        "register",
        -9.298014640808104
      ],
      [
        "Frame",
        -9.29853630065918
      ],
      [
        "Hash",
        -9.30180549621582
      ],
      [
        "row",
        -9.302489280700684
      ],
      [
        "do",
        -9.302921295166016
      ],
      [
        "▁arg",
        -9.30298900604248
      ],
      [
        "▁copy",
        -9.306575775146484
      ],
      [
        "tag",
        -9.308504104614258
      ],
      [
        "Uri",
        -9.30854034423828
      ],
      [
        "\".",
        -9.310110092163086
      ],
      [
        "▁then",
        -9.314772605895996
      ],
      [
        "cache",
        -9.316734313964844
      ],
      [
        "status",
        -9.3169527053833
      ],
      [
        "rderByComparator",
        -9.319781303405762
      ],
      [
        "NO",
        -9.321496963500977
      ],
      [
        "▁component",
        -9.322014808654783
      ],
      [
        "(!",
        -9.323111534118652
      ],
      [
        "NonNull",
        -9.323798179626465
      ],
      [
        "Module",
        -9.323933601379396
      ],
      [
        "Part",
        -9.325029373168944
      ],
      [
        "date",
        -9.325122833251951
      ],
      [
        "Create",
        -9.325489044189451
      ],
      [
        "Interval",
        -9.326449394226074
      ],
      [
        "ClassLoader",
        -9.32677936553955
      ],
      [
        "th",
        -9.327160835266112
      ],
      [
        "content",
        -9.32746696472168
      ],
      [
        "▁command",
        -9.328624725341797
      ],
      [
        "Next",
        -9.331334114074709
      ],
      [
        "un",
        -9.33234691619873
      ],
      [
        "▁page",
        -9.333938598632812
      ],
      [
        "▁left",
        -9.336506843566896
      ],
      [
        "ation",
        -9.33716106414795
      ],
      [
        "▁execute",
        -9.337748527526855
      ],
      [
        "▁<<",
        -9.338068962097168
      ],
      [
        "▁Get",
        -9.33867645263672
      ],
      [
        "Height",
        -9.34034538269043
      ],
      [
        "binding",
        -9.341383934020996
      ],
      [
        "Sequence",
        -9.342520713806152
      ],
      [
        "connection",
        -9.34487533569336
      ],
      [
        "▁status",
        -9.3458890914917
      ],
      [
        "http",
        -9.346197128295898
      ],
      [
        "rs",
        -9.346649169921877
      ],
      [
        "Counter",
        -9.348633766174316
      ],
      [
        "▁empty",
        -9.348760604858398
      ],
      [
        "GET",
        -9.349987030029297
      ],
      [
        "task",
        -9.35136890411377
      ],
      [
        "lang",
        -9.351612091064451
      ],
      [
        "Void",
        -9.352375030517578
      ],
      [
        "json",
        -9.353795051574709
      ],
      [
        "other",
        -9.35500431060791
      ],
      [
        "▁J",
        -9.356544494628906
      ],
      [
        "Processor",
        -9.358153343200684
      ],
      [
        "Api",
        -9.363924980163574
      ],
      [
        "newInstance",
        -9.3673095703125
      ],
      [
        "Stack",
        -9.367506980895996
      ],
      [
        "db",
        -9.367684364318848
      ],
      [
        "Order",
        -9.368051528930664
      ],
      [
        "ClassName",
        -9.368167877197266
      ],
      [
        "resources",
        -9.368627548217772
      ],
      [
        "validate",
        -9.369534492492676
      ],
      [
        "ele",
        -9.37014389038086
      ],
      [
        "▁point",
        -9.370475769042969
      ],
      [
        "]);",
        -9.371806144714355
      ],
      [
        "▁there",
        -9.371997833251951
      ],
      [
        "▁sql",
        -9.372797012329102
      ],
      [
        "en",
        -9.373283386230469
      ],
      [
        "Elements",
        -9.373403549194336
      ],
      [
        "▁record",
        -9.375795364379885
      ],
      [
        "Num",
        -9.3765230178833
      ],
      [
        "Control",
        -9.379243850708008
      ],
      [
        "Identifier",
        -9.379657745361328
      ],
      [
        "UTF",
        -9.38210105895996
      ],
      [
        "▁HashSet",
        -9.382165908813477
      ],
      [
        "[1]",
        -9.383307456970217
      ],
      [
        "switch",
        -9.383423805236816
      ],
      [
        "▁total",
        -9.38446044921875
      ],
      [
        "Obj",
        -9.386451721191406
      ],
      [
        "Executor",
        -9.387211799621582
      ],
      [
        "entity",
        -9.388361930847168
      ],
      [
        "App",
        -9.389058113098145
      ],
      [
        "▁callback",
        -9.389113426208496
      ],
      [
        "▁handler",
        -9.389525413513184
      ],
      [
        "DB",
        -9.389714241027832
      ],
      [
        "Var",
        -9.390116691589355
      ],
      [
        "old",
        -9.390432357788086
      ],
      [
        "uri",
        -9.39089298248291
      ],
      [
        "invoke",
        -9.391411781311035
      ],
      [
        "!",
        -9.391630172729492
      ],
      [
        "▁when",
        -9.391719818115234
      ],
      [
        "Http",
        -9.392583847045898
      ],
      [
        "Timeout",
        -9.393056869506836
      ],
      [
        "Change",
        -9.393336296081545
      ],
      [
        "(\"\\",
        -9.393540382385254
      ],
      [
        "idx",
        -9.394294738769531
      ],
      [
        "Generator",
        -9.397150993347168
      ],
      [
        "Graph",
        -9.397961616516112
      ],
      [
        "Extension",
        -9.39958667755127
      ],
      [
        "Headers",
        -9.39972972869873
      ],
      [
        "▁does",
        -9.399820327758787
      ],
      [
        "StringUtils",
        -9.40257453918457
      ],
      [
        "▁json",
        -9.403316497802734
      ],
      [
        "exception",
        -9.403838157653809
      ],
      [
        "Re",
        -9.405854225158691
      ],
      [
        "Spec",
        -9.406603813171388
      ],
      [
        "Pair",
        -9.408646583557127
      ],
      [
        "▁search",
        -9.414688110351562
      ],
      [
        "▁now",
        -9.414690017700195
      ],
      [
        "getPath",
        -9.414971351623535
      ],
      [
        "▁param",
        -9.416732788085938
      ],
      [
        "12",
        -9.41696834564209
      ],
      [
        "▁up",
        -9.418315887451172
      ],
      [
        "▁fields",
        -9.419755935668944
      ],
      [
        "▁Iterator",
        -9.42003059387207
      ],
      [
        "▁view",
        -9.421249389648438
      ],
      [
        "Chain",
        -9.421512603759766
      ],
      [
        "action",
        -9.421669006347656
      ],
      [
        "▁tag",
        -9.422843933105469
      ],
      [
        "image",
        -9.422929763793944
      ],
      [
        "▁++",
        -9.425002098083496
      ],
      [
        "pli",
        -9.426732063293455
      ],
      [
        "\\\\",
        -9.429414749145508
      ],
      [
        "▁StringBuffer",
        -9.432136535644531
      ],
      [
        "Cluster",
        -9.432679176330566
      ],
      [
        "Character",
        -9.43375015258789
      ],
      [
        "Script",
        -9.433798789978027
      ],
      [
        "matches",
        -9.434937477111816
      ],
      [
        "▁A",
        -9.435304641723633
      ],
      [
        "ar",
        -9.435349464416504
      ],
      [
        "Cell",
        -9.436138153076172
      ],
      [
        "▁right",
        -9.436575889587402
      ],
      [
        "NOT",
        -9.436705589294434
      ],
      [
        "Repository",
        -9.438772201538086
      ],
      [
        "▁convert",
        -9.439358711242676
      ],
      [
        "Host",
        -9.441832542419434
      ],
      [
        "Copy",
        -9.44193172454834
      ],
      [
        "▁width",
        -9.44257640838623
      ],
      [
        "▁resources",
        -9.444280624389648
      ],
      [
        "++",
        -9.4443941116333
      ],
      [
        "res",
        -9.445242881774902
      ],
      [
        "Activity",
        -9.445616722106934
      ],
      [
        "writer",
        -9.447088241577148
      ],
      [
        "ic",
        -9.44886302947998
      ],
      [
        "getParent",
        -9.449551582336426
      ],
      [
        "Summary",
        -9.450345039367676
      ],
      [
        "options",
        -9.45253849029541
      ],
      [
        "param",
        -9.452611923217772
      ],
      [
        "Panel",
        -9.45309066772461
      ],
      [
        "Form",
        -9.453901290893556
      ],
      [
        "▁0);",
        -9.455780982971191
      ],
      [
        "Sql",
        -9.456995964050291
      ],
      [
        "ur",
        -9.45754337310791
      ],
      [
        "os",
        -9.458508491516112
      ],
      [
        "11",
        -9.460691452026367
      ],
      [
        "Optional",
        -9.461141586303713
      ],
      [
        "version",
        -9.465611457824709
      ],
      [
        "all",
        -9.465886116027832
      ],
      [
        "Args",
        -9.466196060180664
      ],
      [
        "label",
        -9.466302871704102
      ],
      [
        "▁The",
        -9.46631145477295
      ],
      [
        "Java",
        -9.466745376586914
      ],
      [
        "Folder",
        -9.467326164245604
      ],
      [
        "▁locale",
        -9.469228744506836
      ],
      [
        "▁thread",
        -9.46930694580078
      ],
      [
        "1)",
        -9.469717025756836
      ],
      [
        "Idx",
        -9.469751358032228
      ],
      [
        "▁Func",
        -9.471607208251951
      ],
      [
        "Msg",
        -9.472161293029783
      ],
      [
        "process",
        -9.472999572753906
      ],
      [
        "child",
        -9.473989486694336
      ],
      [
        "ref",
        -9.474112510681152
      ],
      [
        "Matcher",
        -9.47504425048828
      ],
      [
        "record",
        -9.475788116455078
      ],
      [
        "header",
        -9.476078987121582
      ],
      [
        "ER",
        -9.47648811340332
      ],
      [
        "▁\"\";",
        -9.477160453796388
      ],
      [
        "el",
        -9.47730541229248
      ],
      [
        "Batch",
        -9.477574348449709
      ],
      [
        "▁E",
        -9.477968215942385
      ],
      [
        "Val",
        -9.478747367858888
      ],
      [
        "▁been",
        -9.479348182678224
      ],
      [
        "sRequest",
        -9.480646133422852
      ],
      [
        "▁This",
        -9.48071575164795
      ],
      [
        "Max",
        -9.481868743896484
      ],
      [
        "Layout",
        -9.487204551696776
      ],
      [
        "StringBuilder",
        -9.487277030944824
      ],
      [
        "▁lock",
        -9.48792552947998
      ],
      [
        "Auth",
        -9.488433837890623
      ],
      [
        "▁temp",
        -9.490455627441406
      ],
      [
        "Tags",
        -9.491515159606934
      ],
      [
        "Mapper",
        -9.492009162902832
      ],
      [
        "bytes",
        -9.492390632629396
      ],
      [
        "Condition",
        -9.492544174194336
      ],
      [
        "▁q",
        -9.49393081665039
      ],
      [
        "▁pattern",
        -9.495772361755373
      ],
      [
        "page",
        -9.495923042297363
      ],
      [
        "Child",
        -9.496965408325195
      ],
      [
        "1<",
        -9.497830390930176
      ],
      [
        "▁make",
        -9.502361297607422
      ],
      [
        "match",
        -9.502755165100098
      ],
      [
        "apply",
        -9.50395965576172
      ],
      [
        "catch",
        -9.504100799560549
      ],
      [
        "Last",
        -9.504210472106934
      ],
      [
        "left",
        -9.505364418029783
      ],
      [
        "ING",
        -9.50686264038086
      ],
      [
        "tree",
        -9.507655143737791
      ],
      [
        "▁rule",
        -9.507943153381348
      ],
      [
        "20",
        -9.508459091186523
      ],
      [
        "Validation",
        -9.510132789611816
      ],
      [
        "Null",
        -9.510953903198242
      ],
      [
        "▁which",
        -9.511308670043944
      ],
      [
        "Flow",
        -9.512365341186523
      ],
      [
        "▁order",
        -9.513850212097168
      ],
      [
        "RE",
        -9.513875007629396
      ],
      [
        ")));",
        -9.514166831970217
      ],
      [
        "Destination",
        -9.515527725219728
      ],
      [
        "call",
        -9.515753746032717
      ],
      [
        "Device",
        -9.515799522399902
      ],
      [
        "throws",
        -9.51585578918457
      ],
      [
        "Resolver",
        -9.51607894897461
      ],
      [
        "00",
        -9.51716136932373
      ],
      [
        "Select",
        -9.517722129821776
      ],
      [
        "FILE",
        -9.519407272338867
      ],
      [
        "Endpoint",
        -9.521469116210938
      ],
      [
        "job",
        -9.521773338317873
      ],
      [
        "Metric",
        -9.522261619567873
      ],
      [
        "▁prefix",
        -9.523811340332031
      ],
      [
        "!=",
        -9.52458667755127
      ],
      [
        "▁R",
        -9.524784088134766
      ],
      [
        "getField",
        -9.525949478149414
      ],
      [
        "▁action",
        -9.530232429504396
      ],
      [
        "0,",
        -9.531603813171388
      ],
      [
        "Entries",
        -9.53247356414795
      ],
      [
        "▁after",
        -9.532838821411133
      ],
      [
        "empty",
        -9.533262252807615
      ],
      [
        "UUID",
        -9.5333833694458
      ],
      [
        "(1);",
        -9.535848617553713
      ],
      [
        "▁height",
        -9.537671089172363
      ],
      [
        "▁req",
        -9.538183212280272
      ],
      [
        "toArray",
        -9.539320945739746
      ],
      [
        "▁ref",
        -9.539793014526367
      ],
      [
        "prefix",
        -9.540432929992676
      ],
      [
        "container",
        -9.540658950805664
      ],
      [
        "▁We",
        -9.540823936462402
      ],
      [
        "NotNull",
        -9.541090965270996
      ],
      [
        "▁ch",
        -9.542115211486816
      ],
      [
        "failed",
        -9.542186737060549
      ],
      [
        "Database",
        -9.54419231414795
      ],
      [
        "Argument",
        -9.544805526733398
      ],
      [
        "notNull",
        -9.546125411987305
      ],
      [
        "handle",
        -9.547304153442385
      ],
      [
        "▁non",
        -9.547983169555664
      ],
      [
        "featureID",
        -9.549254417419434
      ],
      [
        "▁function",
        -9.551560401916504
      ],
      [
        "Is",
        -9.553050994873049
      ],
      [
        "▁position",
        -9.555360794067385
      ],
      [
        "us",
        -9.556532859802246
      ],
      [
        "view",
        -9.556971549987791
      ],
      [
        "arg",
        -9.558194160461426
      ],
      [
        "▁register",
        -9.558910369873049
      ],
      [
        "=0;",
        -9.559547424316406
      ],
      [
        "Password",
        -9.55962085723877
      ],
      [
        "▁\"+",
        -9.563087463378906
      ],
      [
        "Body",
        -9.564334869384766
      ],
      [
        "ip",
        -9.566360473632812
      ],
      [
        "super",
        -9.567988395690918
      ],
      [
        "Abstract",
        -9.568178176879885
      ],
      [
        "Role",
        -9.569518089294434
      ],
      [
        "sort",
        -9.569911003112791
      ],
      [
        "▁\"'",
        -9.570015907287598
      ],
      [
        "Ifc",
        -9.571769714355469
      ],
      [
        "keySet",
        -9.572229385375977
      ],
      [
        "/{",
        -9.573838233947754
      ],
      [
        "local",
        -9.573917388916016
      ],
      [
        "Dialog",
        -9.573997497558594
      ],
      [
        "io",
        -9.57412052154541
      ],
      [
        "Edge",
        -9.57423496246338
      ],
      [
        "▁valid",
        -9.574674606323242
      ],
      [
        "▁\"/",
        -9.575716972351074
      ],
      [
        "▁send",
        -9.575780868530272
      ],
      [
        "Classes",
        -9.57630443572998
      ],
      [
        "Limit",
        -9.57802391052246
      ],
      [
        "printStackTrace",
        -9.578123092651367
      ],
      [
        "Member",
        -9.578185081481934
      ],
      [
        "NON",
        -9.578313827514648
      ],
      [
        "Protocol",
        -9.579426765441896
      ],
      [
        "Strategy",
        -9.580209732055664
      ],
      [
        "Nodes",
        -9.581796646118164
      ],
      [
        "▁container",
        -9.581928253173828
      ],
      [
        "height",
        -9.58448886871338
      ],
      [
        "▁Date",
        -9.584959030151367
      ],
      [
        "▁props",
        -9.585359573364258
      ],
      [
        "op",
        -9.586493492126465
      ],
      [
        "▁db",
        -9.587140083312988
      ],
      [
        "++]",
        -9.587583541870115
      ],
      [
        "policy",
        -9.591362953186035
      ],
      [
        "host",
        -9.592778205871582
      ],
      [
        "Db",
        -9.59426975250244
      ],
      [
        "▁TODO",
        -9.595026969909668
      ],
      [
        "dir",
        -9.595698356628418
      ],
      [
        "16",
        -9.59595775604248
      ],
      [
        "getAttribute",
        -9.598040580749512
      ],
      [
        "Cannot",
        -9.598875045776367
      ],
      [
        "▁generate",
        -9.599151611328123
      ],
      [
        "Current",
        -9.604414939880373
      ],
      [
        "▁URL",
        -9.60525608062744
      ],
      [
        "Only",
        -9.605621337890623
      ],
      [
        "urrentTimeMillis",
        -9.607688903808594
      ],
      [
        "link",
        -9.608065605163574
      ],
      [
        "▁resolve",
        -9.609418869018556
      ],
      [
        "up",
        -9.610713958740234
      ],
      [
        "▁provider",
        -9.610825538635254
      ],
      [
        "▁same",
        -9.611631393432615
      ],
      [
        "Stats",
        -9.61225700378418
      ],
      [
        "▁ServiceFuture",
        -9.612870216369627
      ],
      [
        "Term",
        -9.61287784576416
      ],
      [
        "right",
        -9.613759994506836
      ],
      [
        "qPath",
        -9.61388111114502
      ],
      [
        "the",
        -9.614968299865724
      ],
      [
        "▁host",
        -9.615543365478516
      ],
      [
        "▁bean",
        -9.61573600769043
      ],
      [
        "▁attributes",
        -9.615918159484863
      ],
      [
        "Network",
        -9.616954803466797
      ],
      [
        "Q",
        -9.618206024169922
      ],
      [
        "▁directory",
        -9.618508338928224
      ],
      [
        "Report",
        -9.619399070739746
      ],
      [
        "Constructor",
        -9.62006378173828
      ],
      [
        "Add",
        -9.620203971862791
      ],
      [
        "column",
        -9.620494842529297
      ],
      [
        "▁files",
        -9.62116241455078
      ],
      [
        "bPackage",
        -9.621586799621582
      ],
      [
        "JSON",
        -9.622936248779297
      ],
      [
        "▁may",
        -9.624765396118164
      ],
      [
        "Per",
        -9.625231742858888
      ],
      [
        "+\"",
        -9.625797271728516
      ],
      [
        "google",
        -9.626422882080078
      ],
      [
        "▁than",
        -9.626436233520508
      ],
      [
        "Constant",
        -9.62838077545166
      ],
      [
        "▁defaultValue",
        -9.628789901733398
      ],
      [
        "▁ignore",
        -9.629327774047852
      ],
      [
        "▁ctx",
        -9.629387855529783
      ],
      [
        "getDefault",
        -9.630241394042969
      ],
      [
        "Meta",
        -9.63061809539795
      ],
      [
        "generate",
        -9.63234519958496
      ],
      [
        "main",
        -9.632784843444824
      ],
      [
        "Predicate",
        -9.63440990447998
      ],
      [
        "Environment",
        -9.635382652282717
      ],
      [
        "Remote",
        -9.636951446533203
      ],
      [
        "TIME",
        -9.637187004089355
      ],
      [
        "Authentication",
        -9.641104698181152
      ],
      [
        "iv",
        -9.642047882080078
      ],
      [
        "params",
        -9.643913269042969
      ],
      [
        "[0];",
        -9.644262313842772
      ],
      [
        "Storage",
        -9.64519500732422
      ],
      [
        "amazonaws",
        -9.645987510681152
      ],
      [
        "▁col",
        -9.646720886230469
      ],
      [
        "Loader",
        -9.647611618041992
      ],
      [
        "ifc",
        -9.64802360534668
      ],
      [
        "▁results",
        -9.648781776428224
      ],
      [
        "ms",
        -9.651222229003906
      ],
      [
        "Results",
        -9.651349067687988
      ],
      [
        "LOGGER",
        -9.651368141174316
      ],
      [
        "TAG",
        -9.654189109802246
      ],
      [
        "▁validate",
        -9.654237747192385
      ],
      [
        "arraycopy",
        -9.654924392700195
      ],
      [
        "Listeners",
        -9.655116081237791
      ],
      [
        "▁hash",
        -9.655452728271484
      ],
      [
        "Step",
        -9.656394958496094
      ],
      [
        "Html",
        -9.65769100189209
      ],
      [
        "▁Arrays",
        -9.657855033874512
      ],
      [
        "Details",
        -9.658013343811035
      ],
      [
        "▁destination",
        -9.658576965332031
      ],
      [
        "▁here",
        -9.659282684326172
      ],
      [
        "▁don",
        -9.662324905395508
      ],
      [
        "Multi",
        -9.662460327148438
      ],
      [
        "▁Thread",
        -9.66303539276123
      ],
      [
        "component",
        -9.663256645202637
      ],
      [
        "le",
        -9.663498878479004
      ],
      [
        "Left",
        -9.665061950683594
      ],
      [
        "Bounds",
        -9.669706344604492
      ],
      [
        "▁expected",
        -9.67029094696045
      ],
      [
        "block",
        -9.67046356201172
      ],
      [
        "Web",
        -9.670504570007324
      ],
      [
        "▁channel",
        -9.673580169677734
      ],
      [
        "▁label",
        -9.67361831665039
      ],
      [
        "Symbol",
        -9.674054145812988
      ],
      [
        "▁future",
        -9.67419719696045
      ],
      [
        "Groups",
        -9.67458724975586
      ],
      [
        "DATA",
        -9.675100326538086
      ],
      [
        "getCurrent",
        -9.675610542297363
      ],
      [
        "After",
        -9.677206993103027
      ],
      [
        "TO",
        -9.679455757141112
      ],
      [
        "toLowerCase",
        -9.679512977600098
      ],
      [
        "Timestamp",
        -9.67967700958252
      ],
      [
        "Open",
        -9.679780960083008
      ],
      [
        "Region",
        -9.681167602539062
      ],
      [
        "Namespace",
        -9.68163013458252
      ],
      [
        "▁Af",
        -9.68228530883789
      ],
      [
        "attribute",
        -9.683485984802246
      ],
      [
        "configuration",
        -9.68512725830078
      ],
      [
        "limit",
        -9.68544578552246
      ],
      [
        "asList",
        -9.686394691467283
      ],
      [
        "Atom",
        -9.688000679016112
      ],
      [
        "parseInt",
        -9.689067840576172
      ],
      [
        "▁into",
        -9.689712524414062
      ],
      [
        "est",
        -9.690388679504396
      ],
      [
        "endsWith",
        -9.690838813781738
      ],
      [
        "▁Create",
        -9.692004203796388
      ],
      [
        "▁original",
        -9.693060874938965
      ],
      [
        "▁scope",
        -9.693339347839355
      ],
      [
        "▁used",
        -9.693670272827148
      ],
      [
        "▁annotation",
        -9.693767547607422
      ],
      [
        "Test",
        -9.694721221923828
      ],
      [
        "getSimpleName",
        -9.696036338806152
      ],
      [
        "▁factory",
        -9.69677448272705
      ],
      [
        "Binary",
        -9.697612762451172
      ],
      [
        "VERSION",
        -9.697798728942873
      ],
      [
        "▁SQLException",
        -9.698371887207031
      ],
      [
        "Plugin",
        -9.69845199584961
      ],
      [
        "1);",
        -9.698823928833008
      ],
      [
        "cms",
        -9.700454711914062
      ],
      [
        "copy",
        -9.700753211975098
      ],
      [
        "Distance",
        -9.702274322509766
      ],
      [
        "Box",
        -9.702386856079102
      ],
      [
        "CLASS",
        -9.705307960510254
      ],
      [
        "encode",
        -9.70591640472412
      ],
      [
        "▁resp",
        -9.706090927124023
      ],
      [
        "Geometry",
        -9.70704746246338
      ],
      [
        "!\");",
        -9.70887851715088
      ],
      [
        "SdkInternal",
        -9.709453582763672
      ],
      [
        "Word",
        -9.711292266845703
      ],
      [
        "▁limit",
        -9.711304664611816
      ],
      [
        "req",
        -9.711736679077148
      ],
      [
        "▁iter",
        -9.712560653686523
      ],
      [
        "][",
        -9.71412181854248
      ],
      [
        "▁bundle",
        -9.717251777648926
      ],
      [
        "Engine",
        -9.718168258666992
      ],
      [
        "port",
        -9.718544960021973
      ],
      [
        "run",
        -9.719188690185549
      ],
      [
        "Run",
        -9.719325065612791
      ],
      [
        "▁1,",
        -9.719572067260742
      ],
      [
        "▁methodName",
        -9.72006607055664
      ],
      [
        "Tuple",
        -9.721108436584473
      ],
      [
        "--;",
        -9.721553802490234
      ],
      [
        "Window",
        -9.722763061523438
      ],
      [
        "Bits",
        -9.72365665435791
      ],
      [
        "▁because",
        -9.723987579345703
      ],
      [
        "Security",
        -9.72558879852295
      ],
      [
        "▁keys",
        -9.726505279541016
      ],
      [
        "select",
        -9.728184700012209
      ],
      [
        "Return",
        -9.73008918762207
      ],
      [
        "Op",
        -9.73116970062256
      ],
      [
        "address",
        -9.731210708618164
      ],
      [
        "▁stop",
        -9.73311710357666
      ],
      [
        "Encoding",
        -9.733450889587402
      ],
      [
        "▁conn",
        -9.736169815063477
      ],
      [
        "▁document",
        -9.736649513244627
      ],
      [
        "EMPTY",
        -9.73789882659912
      ],
      [
        "isAssignableFrom",
        -9.73789882659912
      ],
      [
        "▁just",
        -9.738077163696287
      ],
      [
        "▁Abstract",
        -9.73944091796875
      ],
      [
        "▁port",
        -9.739538192749023
      ],
      [
        "Missing",
        -9.74038028717041
      ],
      [
        "DateTime",
        -9.740403175354004
      ],
      [
        "▁store",
        -9.741673469543455
      ],
      [
        "Blocking",
        -9.742552757263184
      ],
      [
        "▁address",
        -9.743797302246094
      ],
      [
        "ad",
        -9.743939399719238
      ],
      [
        "▁InputStream",
        -9.744626998901367
      ],
      [
        "STRING",
        -9.745182037353516
      ],
      [
        "Menu",
        -9.746378898620604
      ],
      [
        "PROPERTY",
        -9.750003814697266
      ],
      [
        "▁1]",
        -9.750301361083984
      ],
      [
        "convert",
        -9.75038719177246
      ],
      [
        "$",
        -9.750563621520996
      ],
      [
        "Duration",
        -9.751121520996094
      ],
      [
        "▁more",
        -9.75146484375
      ],
      [
        "getResource",
        -9.751593589782717
      ],
      [
        "Tile",
        -9.75247287750244
      ],
      [
        "▁className",
        -9.753667831420898
      ],
      [
        "Partition",
        -9.754514694213867
      ],
      [
        "te",
        -9.754547119140623
      ],
      [
        "nitro",
        -9.75734043121338
      ],
      [
        "NLS",
        -9.757567405700684
      ],
      [
        "Arg",
        -9.7579984664917
      ],
      [
        "Identity",
        -9.759044647216797
      ],
      [
        "▁2)",
        -9.761591911315918
      ],
      [
        "▁failed",
        -9.76218605041504
      ],
      [
        "Operator",
        -9.762197494506836
      ],
      [
        "alt",
        -9.762859344482422
      ],
      [
        "Controller",
        -9.763219833374023
      ],
      [
        "ALL",
        -9.765517234802246
      ],
      [
        "single",
        -9.76569938659668
      ],
      [
        "Items",
        -9.766439437866213
      ],
      [
        "▁elements",
        -9.76657772064209
      ],
      [
        "Category",
        -9.76683521270752
      ],
      [
        "me",
        -9.767053604125977
      ],
      [
        "▁close",
        -9.767685890197754
      ],
      [
        "_0",
        -9.767749786376951
      ],
      [
        "className",
        -9.767779350280762
      ],
      [
        "▁reference",
        -9.768162727355955
      ],
      [
        "▁queue",
        -9.768328666687012
      ],
      [
        "MIN",
        -9.769124984741213
      ],
      [
        "://",
        -9.771281242370604
      ],
      [
        ":\"",
        -9.772818565368652
      ],
      [
        "Account",
        -9.773062705993652
      ],
      [
        "Snapshot",
        -9.773189544677734
      ],
      [
        "getNext",
        -9.773927688598633
      ],
      [
        "Domain",
        -9.775299072265623
      ],
      [
        "▁template",
        -9.776482582092283
      ],
      [
        "Space",
        -9.776604652404783
      ],
      [
        "Selector",
        -9.776620864868164
      ],
      [
        "attr",
        -9.77734088897705
      ],
      [
        "getE",
        -9.780591011047363
      ],
      [
        "namespace",
        -9.781682014465332
      ],
      [
        "▁NoSuch",
        -9.782268524169922
      ],
      [
        ">>>",
        -9.784457206726074
      ],
      [
        "Load",
        -9.784871101379396
      ],
      [
        "MetaData",
        -9.786105155944824
      ],
      [
        "Serializer",
        -9.786368370056152
      ],
      [
        "Holder",
        -9.788704872131348
      ],
      [
        "ByteBuffer",
        -9.789189338684082
      ],
      [
        "▁cause",
        -9.79033374786377
      ],
      [
        "listener",
        -9.791705131530762
      ],
      [
        "▁test",
        -9.792014122009276
      ],
      [
        "Algorithm",
        -9.7923002243042
      ],
      [
        "getData",
        -9.792939186096191
      ],
      [
        "▁pre",
        -9.79342269897461
      ],
      [
        "▁timeout",
        -9.793952941894531
      ],
      [
        "Validator",
        -9.794805526733398
      ],
      [
        "IS",
        -9.798840522766112
      ],
      [
        "▁expression",
        -9.79902458190918
      ],
      [
        "clone",
        -9.799901008605955
      ],
      [
        "requireNonNull",
        -9.800025939941406
      ],
      [
        "Runtime",
        -9.800908088684082
      ],
      [
        "Signature",
        -9.801070213317873
      ],
      [
        "▁each",
        -9.80399227142334
      ],
      [
        "▁operation",
        -9.804657936096191
      ],
      [
        "ac",
        -9.80470371246338
      ],
      [
        "▁ByteArray",
        -9.804990768432615
      ],
      [
        "stop",
        -9.805041313171388
      ],
      [
        "Post",
        -9.806127548217772
      ],
      [
        "API",
        -9.806243896484377
      ],
      [
        "Permission",
        -9.806742668151855
      ],
      [
        "Arrays",
        -9.807422637939451
      ],
      [
        "transform",
        -9.807579040527344
      ],
      [
        "▁Check",
        -9.807659149169922
      ],
      [
        "and",
        -9.809025764465332
      ],
      [
        "pe",
        -9.809410095214844
      ],
      [
        "Attr",
        -9.810662269592283
      ],
      [
        "▁serviceName",
        -9.810705184936523
      ],
      [
        "Pre",
        -9.811016082763672
      ],
      [
        "Non",
        -9.811324119567873
      ],
      [
        "collect",
        -9.811509132385254
      ],
      [
        "▁fileName",
        -9.811772346496582
      ],
      [
        "':",
        -9.81276035308838
      ],
      [
        "Memory",
        -9.814141273498535
      ],
      [
        "▁module",
        -9.814258575439451
      ],
      [
        "▁B",
        -9.8148832321167
      ],
      [
        "Vertex",
        -9.815237045288086
      ],
      [
        "Tokens",
        -9.81540584564209
      ],
      [
        "SET",
        -9.815983772277832
      ],
      [
        "▁DB",
        -9.81644058227539
      ],
      [
        "send",
        -9.817387580871582
      ],
      [
        "Required",
        -9.820795059204102
      ],
      [
        "▁location",
        -9.822498321533203
      ],
      [
        "▁existing",
        -9.823091506958008
      ],
      [
        "PREFIX",
        -9.82331657409668
      ],
      [
        "9",
        -9.823346138000488
      ],
      [
        "ret",
        -9.823694229125977
      ],
      [
        "getBytes",
        -9.823723793029783
      ],
      [
        "command",
        -9.824589729309082
      ],
      [
        "Binding",
        -9.82618522644043
      ],
      [
        "Float",
        -9.82622241973877
      ],
      [
        "getMax",
        -9.826589584350586
      ],
      [
        "▁app",
        -9.82758331298828
      ],
      [
        "Import",
        -9.82911205291748
      ],
      [
        "reader",
        -9.82924461364746
      ],
      [
        "col",
        -9.82940673828125
      ],
      [
        "iter",
        -9.829487800598145
      ],
      [
        "Scale",
        -9.829733848571776
      ],
      [
        "number",
        -9.830275535583496
      ],
      [
        "Interrupted",
        -9.830328941345217
      ],
      [
        "Usage",
        -9.83090877532959
      ],
      [
        "setValue",
        -9.831747055053713
      ],
      [
        "▁dir",
        -9.832828521728516
      ],
      [
        "Desc",
        -9.833173751831056
      ],
      [
        "Close",
        -9.833621978759766
      ],
      [
        "hash",
        -9.833659172058104
      ],
      [
        "app",
        -9.835637092590332
      ],
      [
        "▁collection",
        -9.83603286743164
      ],
      [
        "Before",
        -9.836463928222656
      ],
      [
        "search",
        -9.837888717651367
      ],
      [
        "Case",
        -9.838419914245604
      ],
      [
        "point",
        -9.839509963989258
      ],
      [
        "net",
        -9.839625358581545
      ],
      [
        "▁option",
        -9.839866638183594
      ],
      [
        "▁skip",
        -9.840015411376951
      ],
      [
        "▁\"/\"",
        -9.840192794799805
      ],
      [
        "Simple",
        -9.840656280517578
      ],
      [
        "Layer",
        -9.84177589416504
      ],
      [
        "validator",
        -9.841791152954102
      ],
      [
        "Build",
        -9.842137336730955
      ],
      [
        "Failure",
        -9.842504501342772
      ],
      [
        "IO",
        -9.842702865600586
      ],
      [
        "FIELD",
        -9.84351921081543
      ],
      [
        "Could",
        -9.84418487548828
      ],
      [
        "Media",
        -9.845015525817873
      ],
      [
        "▁statement",
        -9.845492362976074
      ],
      [
        "▁compute",
        -9.847034454345703
      ],
      [
        "END",
        -9.847207069396973
      ],
      [
        "▁change",
        -9.847664833068848
      ],
      [
        "<?>>",
        -9.847826957702637
      ],
      [
        "accept",
        -9.848482131958008
      ],
      [
        "This",
        -9.852179527282717
      ],
      [
        "Flag",
        -9.852460861206056
      ],
      [
        "Dependency",
        -9.852527618408203
      ],
      [
        "OR",
        -9.853127479553224
      ],
      [
        "[])",
        -9.855101585388184
      ],
      [
        "▁project",
        -9.855128288269045
      ],
      [
        "Metrics",
        -9.85522747039795
      ],
      [
        "commerce",
        -9.85537052154541
      ],
      [
        "One",
        -9.855734825134276
      ],
      [
        "18",
        -9.85597801208496
      ],
      [
        "Constraint",
        -9.856300354003906
      ],
      [
        "//$",
        -9.856534004211426
      ],
      [
        "tmp",
        -9.85700225830078
      ],
      [
        "POST",
        -9.857876777648926
      ],
      [
        "Comment",
        -9.85847282409668
      ],
      [
        "▁work",
        -9.858661651611328
      ],
      [
        "NotFound",
        -9.85871696472168
      ],
      [
        "▁schema",
        -9.85887050628662
      ],
      [
        "report",
        -9.860272407531738
      ],
      [
        "ns",
        -9.86046028137207
      ],
      [
        "FileName",
        -9.86180591583252
      ],
      [
        "insert",
        -9.862924575805664
      ],
      [
        "HttpRequest",
        -9.86485195159912
      ],
      [
        "form",
        -9.865365982055664
      ],
      [
        "push",
        -9.866114616394045
      ],
      [
        "forEach",
        -9.866266250610352
      ],
      [
        "▁style",
        -9.866433143615724
      ],
      [
        "▁include",
        -9.867140769958496
      ],
      [
        "de",
        -9.86733627319336
      ],
      [
        "annotation",
        -9.867473602294922
      ],
      [
        "ctx",
        -9.8677396774292
      ],
      [
        "Expr",
        -9.867892265319824
      ],
      [
        "▁level",
        -9.868570327758787
      ],
      [
        "Work",
        -9.868988990783691
      ],
      [
        "OF",
        -9.869011878967283
      ],
      [
        "order",
        -9.8690185546875
      ],
      [
        "doc",
        -9.870970726013184
      ],
      [
        "||",
        -9.874649047851562
      ],
      [
        "▁info",
        -9.876126289367676
      ],
      [
        "application",
        -9.876435279846191
      ],
      [
        "setProperty",
        -9.876782417297363
      ],
      [
        "level",
        -9.877406120300291
      ],
      [
        "▁range",
        -9.87747573852539
      ],
      [
        "[2]",
        -9.87781047821045
      ],
      [
        "Custom",
        -9.878670692443848
      ],
      [
        "Changed",
        -9.878732681274414
      ],
      [
        "Transport",
        -9.87916374206543
      ],
      [
        "FOLLOW",
        -9.879880905151367
      ],
      [
        "START",
        -9.880234718322754
      ],
      [
        "getTime",
        -9.881353378295898
      ],
      [
        "reset",
        -9.881357192993164
      ],
      [
        "ec",
        -9.881376266479492
      ],
      [
        "▁doc",
        -9.88190746307373
      ],
      [
        "Icon",
        -9.883061408996582
      ],
      [
        "flush",
        -9.88309383392334
      ],
      [
        "De",
        -9.883796691894531
      ],
      [
        "tr",
        -9.88451862335205
      ],
      [
        "conf",
        -9.884642601013184
      ],
      [
        "Right",
        -9.88469123840332
      ],
      [
        "Columns",
        -9.885565757751465
      ],
      [
        "use",
        -9.885623931884766
      ],
      [
        "DataSource",
        -9.88571548461914
      ],
      [
        "Artifact",
        -9.886160850524902
      ],
      [
        "ts",
        -9.886759757995604
      ],
      [
        "▁P",
        -9.88698387145996
      ],
      [
        "compareTo",
        -9.889312744140623
      ],
      [
        "▁remote",
        -9.8901948928833
      ],
      [
        "▁idx",
        -9.890435218811035
      ],
      [
        "Socket",
        -9.890689849853516
      ],
      [
        "am",
        -9.8909330368042
      ],
      [
        "Progress",
        -9.892959594726562
      ],
      [
        "Common",
        -9.893089294433594
      ],
      [
        "Kind",
        -9.893938064575195
      ],
      [
        "▁password",
        -9.895069122314451
      ],
      [
        "▁org",
        -9.89576244354248
      ],
      [
        "▁previous",
        -9.895943641662598
      ],
      [
        "Join",
        -9.895976066589355
      ],
      [
        "')",
        -9.896902084350586
      ],
      [
        "project",
        -9.89789581298828
      ],
      [
        "abs",
        -9.898877143859863
      ],
      [
        "Single",
        -9.89892864227295
      ],
      [
        "getMethod",
        -9.898968696594238
      ],
      [
        "Span",
        -9.90028190612793
      ],
      [
        "▁tree",
        -9.900375366210938
      ],
      [
        "li",
        -9.900564193725586
      ],
      [
        "join",
        -9.901192665100098
      ],
      [
        "[]{",
        -9.903207778930664
      ],
      [
        "axis",
        -9.90571117401123
      ],
      [
        "▁parser",
        -9.90734577178955
      ],
      [
        "-1$",
        -9.908062934875488
      ],
      [
        "document",
        -9.909421920776367
      ],
      [
        "Intent",
        -9.910972595214844
      ],
      [
        "▁encoding",
        -9.913552284240724
      ],
      [
        "Subscription",
        -9.913827896118164
      ],
      [
        "Sort",
        -9.914373397827148
      ],
      [
        "-=",
        -9.914687156677246
      ],
      [
        "▁metadata",
        -9.915112495422363
      ],
      [
        "▁using",
        -9.915397644042969
      ],
      [
        "▁extract",
        -9.916120529174805
      ],
      [
        "PATH",
        -9.916133880615234
      ],
      [
        "▁initialize",
        -9.918776512145996
      ],
      [
        "Score",
        -9.919206619262695
      ],
      [
        "Empty",
        -9.919506072998049
      ],
      [
        "/*",
        -9.921259880065918
      ],
      [
        "Col",
        -9.921491622924805
      ],
      [
        "▁cluster",
        -9.921646118164062
      ],
      [
        "Selection",
        -9.921834945678713
      ],
      [
        "Screen",
        -9.92331314086914
      ],
      [
        "ps",
        -9.923377990722656
      ],
      [
        "SQLException",
        -9.9259614944458
      ],
      [
        "▁mapping",
        -9.926393508911133
      ],
      [
        "expression",
        -9.927565574645996
      ],
      [
        "Formatter",
        -9.929862022399902
      ],
      [
        "getAbsolutePath",
        -9.9312105178833
      ],
      [
        "box",
        -9.93211841583252
      ],
      [
        "ws",
        -9.932361602783203
      ],
      [
        "word",
        -9.932830810546877
      ],
      [
        "sum",
        -9.933015823364258
      ],
      [
        "▁link",
        -9.933272361755373
      ],
      [
        "▁application",
        -9.93369960784912
      ],
      [
        "Collector",
        -9.933774948120115
      ],
      [
        "NULL",
        -9.934588432312012
      ],
      [
        "active",
        -9.93466854095459
      ],
      [
        "gen",
        -9.935148239135742
      ],
      [
        "Servlet",
        -9.93562126159668
      ],
      [
        "▁report",
        -9.935962677001951
      ],
      [
        "Global",
        -9.936578750610352
      ],
      [
        "▁entries",
        -9.936812400817873
      ],
      [
        "▁print",
        -9.938786506652832
      ],
      [
        "▁loop",
        -9.939139366149902
      ],
      [
        "sTo",
        -9.942283630371094
      ],
      [
        "Methods",
        -9.942727088928224
      ],
      [
        "▁sure",
        -9.942869186401367
      ],
      [
        "▁save",
        -9.943257331848145
      ],
      [
        "----------------",
        -9.943584442138672
      ],
      [
        "Profile",
        -9.944375991821287
      ],
      [
        "title",
        -9.946585655212402
      ],
      [
        "▁arguments",
        -9.948363304138184
      ],
      [
        "▁database",
        -9.94840145111084
      ],
      [
        "▁short",
        -9.94882869720459
      ],
      [
        "Ex",
        -9.949430465698242
      ],
      [
        "OK",
        -9.949617385864258
      ],
      [
        "location",
        -9.950928688049316
      ],
      [
        "DATE",
        -9.95186996459961
      ],
      [
        "100",
        -9.952278137207031
      ],
      [
        "locale",
        -9.95305061340332
      ],
      [
        "▁N",
        -9.953798294067385
      ],
      [
        "nextPageLink",
        -9.953897476196287
      ],
      [
        "TABLE",
        -9.955257415771484
      ],
      [
        "pattern",
        -9.955405235290527
      ],
      [
        "getRequest",
        -9.955495834350586
      ],
      [
        "types",
        -9.959336280822754
      ],
      [
        "Relation",
        -9.959534645080566
      ],
      [
        "▁prev",
        -9.959576606750488
      ],
      [
        "▁step",
        -9.960119247436523
      ],
      [
        "Bucket",
        -9.96092414855957
      ],
      [
        "Product",
        -9.963208198547363
      ],
      [
        "▁insert",
        -9.963924407958984
      ],
      [
        "▁de",
        -9.964048385620115
      ],
      [
        "Put",
        -9.964080810546877
      ],
      [
        "▁unit",
        -9.964277267456056
      ],
      [
        "▁segment",
        -9.964672088623049
      ],
      [
        "Area",
        -9.964877128601074
      ],
      [
        "▁split",
        -9.965514183044434
      ],
      [
        "▁second",
        -9.965763092041016
      ],
      [
        "▁ele",
        -9.96642780303955
      ],
      [
        "Fragment",
        -9.966774940490724
      ],
      [
        "Declaration",
        -9.969038963317873
      ],
      [
        "ate",
        -9.969385147094728
      ],
      [
        "Factor",
        -9.969552993774414
      ],
      [
        "IP",
        -9.97012424468994
      ],
      [
        "schema",
        -9.972457885742188
      ],
      [
        "resolve",
        -9.972508430480955
      ],
      [
        "getX",
        -9.972784042358398
      ],
      [
        "▁Vector",
        -9.972841262817385
      ],
      [
        "▁transaction",
        -9.97316551208496
      ],
      [
        "▁extension",
        -9.97317886352539
      ],
      [
        "cluster",
        -9.973393440246582
      ],
      [
        "▁off",
        -9.973962783813477
      ],
      [
        "USER",
        -9.974682807922363
      ],
      [
        "▁scale",
        -9.975334167480469
      ],
      [
        "post",
        -9.976747512817385
      ],
      [
        "▁constructor",
        -9.977653503417969
      ],
      [
        "Short",
        -9.977797508239746
      ],
      [
        "▁names",
        -9.978015899658203
      ],
      [
        "av",
        -9.978267669677734
      ],
      [
        "History",
        -9.978445053100586
      ],
      [
        "&&",
        -9.978778839111328
      ],
      [
        "pc",
        -9.979784965515137
      ],
      [
        "Topic",
        -9.9798583984375
      ],
      [
        "INT",
        -9.980114936828612
      ],
      [
        "reference",
        -9.98106288909912
      ],
      [
        "ce",
        -9.981468200683594
      ],
      [
        "scope",
        -9.982121467590332
      ],
      [
        "EPackage",
        -9.982182502746582
      ],
      [
        "rule",
        -9.983795166015623
      ],
      [
        "Transform",
        -9.98423957824707
      ],
      [
        "Recognition",
        -9.985095977783203
      ],
      [
        "uuid",
        -9.985673904418944
      ],
      [
        "▁batch",
        -9.98666286468506
      ],
      [
        "ToString",
        -9.986841201782228
      ],
      [
        "Principal",
        -9.987662315368652
      ],
      [
        "replaceAll",
        -9.988565444946287
      ],
      [
        "])",
        -9.988723754882812
      ],
      [
        "eNS",
        -9.988887786865234
      ],
      [
        "▁[\"",
        -9.989431381225586
      ],
      [
        "Sync",
        -9.989654541015623
      ],
      [
        "▁Http",
        -9.989673614501951
      ],
      [
        "▁stack",
        -9.989721298217772
      ],
      [
        "Up",
        -9.990378379821776
      ],
      [
        "Route",
        -9.991253852844238
      ],
      [
        "▁description",
        -9.992399215698242
      ],
      [
        "▁-1",
        -9.992470741271973
      ],
      [
        "getUser",
        -9.992877006530762
      ],
      [
        "getObject",
        -9.993608474731444
      ],
      [
        "Cookie",
        -9.994399070739746
      ],
      [
        "Generic",
        -9.995336532592772
      ],
      [
        "handler",
        -9.995619773864746
      ],
      [
        "▁z",
        -9.995734214782717
      ],
      [
        "▁matcher",
        -9.996606826782228
      ],
      [
        "▁headers",
        -9.996826171875
      ],
      [
        "13",
        -9.998136520385742
      ],
      [
        "Period",
        -9.998664855957031
      ],
      [
        "Information",
        -10.000115394592283
      ],
      [
        "LENGTH",
        -10.00062370300293
      ],
      [
        "▁exist",
        -10.000744819641112
      ],
      [
        "store",
        -10.000957489013672
      ],
      [
        "HTTP",
        -10.00191593170166
      ],
      [
        "▁types",
        -10.003816604614258
      ],
      [
        "▁stmt",
        -10.00407886505127
      ],
      [
        "td",
        -10.00546646118164
      ],
      [
        "unit",
        -10.005531311035156
      ],
      [
        "Rules",
        -10.006800651550291
      ],
      [
        "Delegate",
        -10.006903648376465
      ],
      [
        "temp",
        -10.007091522216797
      ],
      [
        "Min",
        -10.008316040039062
      ],
      [
        "password",
        -10.008785247802734
      ],
      [
        "Specification",
        -10.009779930114746
      ],
      [
        "TOKEN",
        -10.010058403015137
      ],
      [
        "▁actual",
        -10.011636734008787
      ],
      [
        "Widget",
        -10.011802673339844
      ],
      [
        "getInt",
        -10.014119148254396
      ],
      [
        "▁available",
        -10.015311241149902
      ],
      [
        "timeout",
        -10.015474319458008
      ],
      [
        "ap",
        -10.015727043151855
      ],
      [
        "ids",
        -10.01656436920166
      ],
      [
        "unlock",
        -10.016852378845217
      ],
      [
        "var",
        -10.01688289642334
      ],
      [
        "Stop",
        -10.0172758102417
      ],
      [
        "Found",
        -10.017534255981444
      ],
      [
        "▁cl",
        -10.018447875976562
      ],
      [
        "▁since",
        -10.01862335205078
      ],
      [
        "Props",
        -10.019311904907228
      ],
      [
        "▁mode",
        -10.019915580749512
      ],
      [
        "Credentials",
        -10.020262718200684
      ],
      [
        "one",
        -10.020325660705566
      ],
      [
        "▁apply",
        -10.021738052368164
      ],
      [
        "▁H",
        -10.022454261779783
      ],
      [
        "▁JSONObject",
        -10.022583961486816
      ],
      [
        "▁feature",
        -10.022629737854004
      ],
      [
        "Unknown",
        -10.022712707519531
      ],
      [
        "Direction",
        -10.022850036621094
      ],
      [
        "▁cmd",
        -10.023075103759766
      ],
      [
        "Variables",
        -10.023295402526855
      ],
      [
        "script",
        -10.024291038513184
      ],
      [
        "Transition",
        -10.0247220993042
      ],
      [
        "xFF",
        -10.025521278381348
      ],
      [
        "15",
        -10.025786399841309
      ],
      [
        "cm",
        -10.026082992553713
      ],
      [
        "getContext",
        -10.026820182800291
      ],
      [
        "newBuilder",
        -10.027165412902832
      ],
      [
        "UN",
        -10.02788543701172
      ],
      [
        "operation",
        -10.028796195983888
      ],
      [
        "Deprecated",
        -10.029197692871094
      ],
      [
        "getEPackage",
        -10.029589653015137
      ],
      [
        "▁could",
        -10.029792785644531
      ],
      [
        "make",
        -10.030332565307615
      ],
      [
        "bean",
        -10.030717849731444
      ],
      [
        "Support",
        -10.031439781188965
      ],
      [
        "▁items",
        -10.031936645507812
      ],
      [
        "▁top",
        -10.032337188720703
      ],
      [
        "▁post",
        -10.03361988067627
      ],
      [
        "Res",
        -10.034940719604492
      ],
      [
        "HttpServlet",
        -10.035171508789062
      ],
      [
        "▁merge",
        -10.035425186157228
      ],
      [
        "ent",
        -10.035737037658691
      ],
      [
        "resp",
        -10.03757381439209
      ],
      [
        "Remove",
        -10.038101196289062
      ],
      [
        "▁begin",
        -10.038341522216797
      ],
      [
        "Classifiers",
        -10.039314270019531
      ],
      [
        "Grid",
        -10.03940200805664
      ],
      [
        "fs",
        -10.041687965393066
      ],
      [
        "rows",
        -10.041769981384276
      ],
      [
        "▁nodes",
        -10.042113304138184
      ],
      [
        "|",
        -10.042654037475586
      ],
      [
        "Timer",
        -10.04324722290039
      ],
      [
        "▁prop",
        -10.044337272644045
      ],
      [
        "2;",
        -10.044817924499512
      ],
      [
        "head",
        -10.045333862304688
      ],
      [
        "Section",
        -10.045439720153809
      ],
      [
        "Buf",
        -10.04548454284668
      ],
      [
        "Invocation",
        -10.045955657958984
      ],
      [
        "off",
        -10.047826766967772
      ],
      [
        "getAnnotation",
        -10.04796028137207
      ],
      [
        "im",
        -10.04854965209961
      ],
      [
        "Day",
        -10.048831939697266
      ],
      [
        "Rate",
        -10.04967212677002
      ],
      [
        "not",
        -10.049988746643066
      ],
      [
        "▁random",
        -10.050674438476562
      ],
      [
        "Shape",
        -10.051594734191896
      ],
      [
        "#",
        -10.051782608032228
      ],
      [
        "ON",
        -10.051989555358888
      ],
      [
        "▁open",
        -10.05443000793457
      ],
      [
        "total",
        -10.055268287658691
      ],
      [
        "Core",
        -10.055541038513184
      ],
      [
        "▁frame",
        -10.055642127990724
      ],
      [
        "▁iterator",
        -10.057003021240234
      ],
      [
        "compile",
        -10.057645797729492
      ],
      [
        "▁conf",
        -10.057730674743652
      ],
      [
        "counter",
        -10.058767318725586
      ],
      [
        "▁Throwable",
        -10.058921813964844
      ],
      [
        "ResponseBody",
        -10.05965518951416
      ],
      [
        "▁select",
        -10.06010627746582
      ],
      [
        "▁rs",
        -10.06178092956543
      ],
      [
        "▁NullPointer",
        -10.061988830566406
      ],
      [
        "UI",
        -10.062959671020508
      ],
      [
        "cast",
        -10.065251350402832
      ],
      [
        "cp",
        -10.06597137451172
      ],
      [
        "Commerce",
        -10.066852569580078
      ],
      [
        "▁columns",
        -10.067157745361328
      ],
      [
        "3,",
        -10.067320823669434
      ],
      [
        "Rest",
        -10.067989349365234
      ],
      [
        "html",
        -10.068110466003418
      ],
      [
        "jcasType",
        -10.06822681427002
      ],
      [
        "▁TimeUnit",
        -10.069217681884766
      ],
      [
        "apiVersion",
        -10.07245922088623
      ],
      [
        "Iterable",
        -10.07258415222168
      ],
      [
        "Font",
        -10.07292938232422
      ],
      [
        "Describe",
        -10.073732376098633
      ],
      [
        "Auto",
        -10.073748588562012
      ],
      [
        "SI",
        -10.07383632659912
      ],
      [
        "▁1.0",
        -10.075346946716309
      ],
      [
        "env",
        -10.075447082519531
      ],
      [
        "▁methods",
        -10.07574462890625
      ],
      [
        "Title",
        -10.076275825500488
      ],
      [
        "Annotations",
        -10.077545166015623
      ],
      [
        "▁2;",
        -10.07774543762207
      ],
      [
        "getText",
        -10.0796480178833
      ],
      [
        "CODE",
        -10.081476211547852
      ],
      [
        "▁Iterable",
        -10.08177089691162
      ],
      [
        "▁Default",
        -10.081847190856934
      ],
      [
        "▁specified",
        -10.084671974182127
      ],
      [
        "Co",
        -10.084918022155762
      ],
      [
        "core",
        -10.085192680358888
      ],
      [
        "IllegalAccess",
        -10.085591316223145
      ],
      [
        "▁show",
        -10.0857572555542
      ],
      [
        "(1)",
        -10.085793495178224
      ],
      [
        "Chunk",
        -10.0862398147583
      ],
      [
        "serviceName",
        -10.086312294006348
      ],
      [
        "▁done",
        -10.087634086608888
      ],
      [
        "Trigger",
        -10.088587760925291
      ],
      [
        "cs",
        -10.089670181274414
      ],
      [
        "}/",
        -10.089906692504885
      ],
      [
        "▁ByteBuffer",
        -10.09097671508789
      ],
      [
        "01",
        -10.091251373291016
      ],
      [
        "▁xml",
        -10.091500282287598
      ],
      [
        "▁allow",
        -10.09203815460205
      ],
      [
        "Cursor",
        -10.092341423034668
      ],
      [
        "Supplier",
        -10.092342376708984
      ],
      [
        "▁Preconditions",
        -10.09379768371582
      ],
      [
        "▁Add",
        -10.094070434570312
      ],
      [
        "--",
        -10.094491004943848
      ],
      [
        "compare",
        -10.094536781311035
      ],
      [
        "member",
        -10.094751358032228
      ],
      [
        "COLUMN",
        -10.0957670211792
      ],
      [
        "PARAM",
        -10.095780372619627
      ],
      [
        "LIST",
        -10.09578800201416
      ],
      [
        "(0)",
        -10.09605884552002
      ],
      [
        "▁atom",
        -10.096219062805176
      ],
      [
        "getParameter",
        -10.096820831298828
      ],
      [
        "Alias",
        -10.099056243896484
      ],
      [
        "mode",
        -10.099270820617676
      ],
      [
        "▁reset",
        -10.099597930908203
      ],
      [
        "▁HttpServlet",
        -10.099687576293944
      ],
      [
        "Managed",
        -10.100781440734863
      ],
      [
        "Registration",
        -10.102164268493652
      ],
      [
        "segment",
        -10.10278034210205
      ],
      [
        "Be",
        -10.103265762329102
      ],
      [
        "Prop",
        -10.103968620300291
      ],
      [
        "▁access",
        -10.10400104522705
      ],
      [
        "Persistence",
        -10.105134963989258
      ],
      [
        "Archive",
        -10.106123924255373
      ],
      [
        "▁transform",
        -10.106363296508787
      ],
      [
        "em",
        -10.106595993041992
      ],
      [
        "lastIndexOf",
        -10.10968017578125
      ],
      [
        "decode",
        -10.11080837249756
      ],
      [
        "addr",
        -10.111244201660156
      ],
      [
        "▁chain",
        -10.11171817779541
      ],
      [
        "parameter",
        -10.111748695373535
      ],
      [
        "parameters",
        -10.112164497375488
      ],
      [
        "Sign",
        -10.112256050109863
      ],
      [
        "Iter",
        -10.113082885742188
      ],
      [
        "getNode",
        -10.11309814453125
      ],
      [
        "Conf",
        -10.113515853881836
      ],
      [
        "Detail",
        -10.115015983581545
      ],
      [
        "description",
        -10.115379333496094
      ],
      [
        "30",
        -10.115933418273926
      ],
      [
        "ment",
        -10.116446495056152
      ],
      [
        "▁children",
        -10.117648124694824
      ],
      [
        "setAttribute",
        -10.11777687072754
      ],
      [
        "Millis",
        -10.118325233459473
      ],
      [
        "Primitive",
        -10.120615005493164
      ],
      [
        "22",
        -10.120728492736816
      ],
      [
        "Points",
        -10.120853424072266
      ],
      [
        "Graphics",
        -10.122422218322754
      ],
      [
        "[][]",
        -10.122710227966309
      ],
      [
        "Standard",
        -10.123313903808594
      ],
      [
        "REQUEST",
        -10.123702049255373
      ],
      [
        "▁http",
        -10.12425136566162
      ],
      [
        "complete",
        -10.12513542175293
      ],
      [
        "▁where",
        -10.125757217407228
      ],
      [
        "ive",
        -10.126262664794922
      ],
      [
        "cur",
        -10.127002716064451
      ],
      [
        "▁cms",
        -10.12712860107422
      ],
      [
        "option",
        -10.127344131469728
      ],
      [
        "Payload",
        -10.128042221069336
      ],
      [
        "Paths",
        -10.12978744506836
      ],
      [
        "dest",
        -10.130219459533691
      ],
      [
        "forName",
        -10.130416870117188
      ],
      [
        "range",
        -10.13054656982422
      ],
      [
        "NumberFormat",
        -10.130733489990234
      ],
      [
        "▁JAXBElement",
        -10.13082790374756
      ],
      [
        "▁CmsResource",
        -10.131653785705566
      ],
      [
        "keys",
        -10.131717681884766
      ],
      [
        "ff",
        -10.131754875183104
      ],
      [
        "destination",
        -10.131879806518556
      ],
      [
        "Trace",
        -10.13241195678711
      ],
      [
        "Comparator",
        -10.133404731750488
      ],
      [
        "▁payload",
        -10.133710861206056
      ],
      [
        "▁body",
        -10.133959770202637
      ],
      [
        "Insert",
        -10.134237289428713
      ],
      [
        "Con",
        -10.13483715057373
      ],
      [
        "Attachment",
        -10.1356840133667
      ],
      [
        "Present",
        -10.136326789855955
      ],
      [
        "parser",
        -10.136724472045898
      ],
      [
        "▁multi",
        -10.13691520690918
      ],
      [
        "MESSAGE",
        -10.137020111083984
      ],
      [
        "ol",
        -10.137192726135254
      ],
      [
        "▁?>",
        -10.137613296508787
      ],
      [
        "Uuid",
        -10.137876510620115
      ],
      [
        "INFO",
        -10.138511657714844
      ],
      [
        "▁raw",
        -10.138723373413086
      ],
      [
        "()];",
        -10.140995979309082
      ],
      [
        "getS",
        -10.14163303375244
      ],
      [
        "cl",
        -10.1430082321167
      ],
      [
        "],",
        -10.143030166625977
      ],
      [
        "Objects",
        -10.143213272094728
      ],
      [
        "Processing",
        -10.14449977874756
      ],
      [
        "Authorization",
        -10.145174980163574
      ],
      [
        "StringUtil",
        -10.145366668701172
      ],
      [
        "Display",
        -10.146649360656738
      ],
      [
        "ies",
        -10.147754669189451
      ],
      [
        "Any",
        -10.148098945617676
      ],
      [
        "ro",
        -10.148455619812012
      ],
      [
        "▁distance",
        -10.148653030395508
      ],
      [
        "short",
        -10.148762702941896
      ],
      [
        "Language",
        -10.149635314941406
      ],
      [
        "Instances",
        -10.150403022766112
      ],
      [
        "cause",
        -10.151272773742676
      ],
      [
        "▁proxy",
        -10.151728630065918
      ],
      [
        "Driver",
        -10.151969909667969
      ],
      [
        "separator",
        -10.152423858642578
      ],
      [
        "▁system",
        -10.152894973754885
      ],
      [
        "▁mapper",
        -10.152938842773438
      ],
      [
        "template",
        -10.155086517333984
      ],
      [
        "describe",
        -10.155599594116213
      ],
      [
        "global",
        -10.156834602355955
      ],
      [
        "▁Simple",
        -10.156898498535156
      ],
      [
        "intValue",
        -10.156960487365724
      ],
      [
        "xff",
        -10.15696144104004
      ],
      [
        "(\"/",
        -10.158031463623049
      ],
      [
        "▁loader",
        -10.158121109008787
      ],
      [
        "getWidth",
        -10.158321380615234
      ],
      [
        "include",
        -10.158358573913574
      ],
      [
        "getAll",
        -10.15872287750244
      ],
      [
        "Plan",
        -10.158815383911133
      ],
      [
        "Arguments",
        -10.15886688232422
      ],
      [
        "▁\"\\\"",
        -10.15912628173828
      ],
      [
        "Worker",
        -10.159869194030762
      ],
      [
        "raw",
        -10.1604642868042
      ],
      [
        "▁trace",
        -10.160542488098145
      ],
      [
        "lib",
        -10.16151523590088
      ],
      [
        "Transformer",
        -10.16258716583252
      ],
      [
        "Split",
        -10.163411140441896
      ],
      [
        "14",
        -10.16409397125244
      ],
      [
        "FilePath",
        -10.16451644897461
      ],
      [
        "▁'\\",
        -10.165275573730469
      ],
      [
        "Utility",
        -10.165444374084473
      ],
      [
        "▁variable",
        -10.165583610534668
      ],
      [
        "metadata",
        -10.16586971282959
      ],
      [
        "▁ensure",
        -10.16712474822998
      ],
      [
        "Monitor",
        -10.16819667816162
      ],
      [
        "Criteria",
        -10.169148445129396
      ],
      [
        "▁partition",
        -10.169254302978516
      ],
      [
        "pi",
        -10.169394493103027
      ],
      [
        "children",
        -10.169758796691896
      ],
      [
        "warning",
        -10.169960021972656
      ],
      [
        "▁main",
        -10.17032527923584
      ],
      [
        "getY",
        -10.170379638671877
      ],
      [
        "Writable",
        -10.170811653137209
      ],
      [
        "ompletableFuture",
        -10.171101570129396
      ],
      [
        "Events",
        -10.17169189453125
      ],
      [
        "setName",
        -10.171917915344238
      ],
      [
        "Static",
        -10.172320365905762
      ],
      [
        "IF",
        -10.174010276794434
      ],
      [
        "▁tokens",
        -10.174325942993164
      ],
      [
        "fill",
        -10.174575805664062
      ],
      [
        "getElement",
        -10.174727439880373
      ],
      [
        "Pipeline",
        -10.174738883972168
      ],
      [
        "act",
        -10.17536163330078
      ],
      [
        "conn",
        -10.176018714904783
      ],
      [
        "Structure",
        -10.17821216583252
      ],
      [
        "MAP",
        -10.17822551727295
      ],
      [
        "assert",
        -10.17843246459961
      ],
      [
        "meta",
        -10.178585052490234
      ],
      [
        "attributes",
        -10.17877197265625
      ],
      [
        "▁supported",
        -10.179450035095217
      ],
      [
        "function",
        -10.179954528808594
      ],
      [
        "Agent",
        -10.181234359741213
      ],
      [
        "READ",
        -10.181779861450195
      ],
      [
        "▁descriptor",
        -10.181859016418455
      ],
      [
        "Zip",
        -10.183310508728027
      ],
      [
        "▁replace",
        -10.18378734588623
      ],
      [
        "Init",
        -10.184104919433594
      ],
      [
        "▁added",
        -10.184621810913086
      ],
      [
        "AL",
        -10.184773445129396
      ],
      [
        "Edit",
        -10.184921264648438
      ],
      [
        "ab",
        -10.186651229858398
      ],
      [
        "my",
        -10.18687915802002
      ],
      [
        "test",
        -10.18719482421875
      ],
      [
        "visit",
        -10.18734073638916
      ],
      [
        "con",
        -10.18762493133545
      ],
      [
        "▁Log",
        -10.187697410583496
      ],
      [
        "1;",
        -10.187875747680664
      ],
      [
        "extract",
        -10.188831329345703
      ],
      [
        "▁pool",
        -10.18896770477295
      ],
      [
        "▁cell",
        -10.189408302307127
      ],
      [
        "▁LinkedList",
        -10.190374374389648
      ],
      [
        "▁created",
        -10.190752983093262
      ],
      [
        "style",
        -10.190832138061523
      ],
      [
        "getNum",
        -10.192320823669434
      ],
      [
        "▁arr",
        -10.19299602508545
      ],
      [
        "External",
        -10.19377899169922
      ],
      [
        "NONE",
        -10.194323539733888
      ],
      [
        "(\"\\\\",
        -10.194506645202637
      ],
      [
        "Background",
        -10.19465160369873
      ],
      [
        "▁sequence",
        -10.194652557373049
      ],
      [
        "Subject",
        -10.195110321044922
      ],
      [
        "comp",
        -10.195788383483888
      ],
      [
        "tp",
        -10.19609260559082
      ],
      [
        "AND",
        -10.196250915527344
      ],
      [
        "▁part",
        -10.196809768676758
      ],
      [
        "▁cur",
        -10.197017669677734
      ],
      [
        "▁compare",
        -10.197093963623049
      ],
      [
        "ELEMENT",
        -10.19713020324707
      ],
      [
        "Year",
        -10.19741439819336
      ],
      [
        "la",
        -10.198248863220217
      ],
      [
        "▁some",
        -10.198975563049316
      ],
      [
        "24",
        -10.199813842773438
      ],
      [
        "compiler",
        -10.200295448303224
      ],
      [
        "color",
        -10.200362205505373
      ],
      [
        "▁best",
        -10.2003755569458
      ],
      [
        "manager",
        -10.200526237487791
      ],
      [
        "▁back",
        -10.200648307800291
      ],
      [
        "▁device",
        -10.20065212249756
      ],
      [
        "rec",
        -10.200750350952148
      ],
      [
        "sFor",
        -10.20139503479004
      ],
      [
        "▁given",
        -10.202866554260254
      ],
      [
        "|=",
        -10.202914237976074
      ],
      [
        "▁real",
        -10.203753471374512
      ],
      [
        "sp",
        -10.204021453857422
      ],
      [
        "lv",
        -10.204194068908691
      ],
      [
        "Valid",
        -10.20453643798828
      ],
      [
        "ByteArray",
        -10.205765724182127
      ],
      [
        "queue",
        -10.20579719543457
      ],
      [
        "Can",
        -10.20652675628662
      ],
      [
        "▁cursor",
        -10.206921577453612
      ],
      [
        "▁URI",
        -10.20729923248291
      ],
      [
        "▁charset",
        -10.20826816558838
      ],
      [
        "atom",
        -10.208386421203612
      ],
      [
        "CACHE",
        -10.208624839782717
      ],
      [
        "RequestContext",
        -10.208718299865724
      ],
      [
        "ve",
        -10.209027290344238
      ],
      [
        "scale",
        -10.21071720123291
      ],
      [
        "Capacity",
        -10.211336135864258
      ],
      [
        "▁dst",
        -10.211786270141602
      ],
      [
        "prev",
        -10.212315559387209
      ],
      [
        "▁BigDecimal",
        -10.213821411132812
      ],
      [
        "▁script",
        -10.21418571472168
      ],
      [
        "▁fieldName",
        -10.214422225952148
      ],
      [
        "▁possible",
        -10.214701652526855
      ],
      [
        "begin",
        -10.21518611907959
      ],
      [
        "checkArgument",
        -10.215463638305664
      ],
      [
        "STATUS",
        -10.21636199951172
      ],
      [
        "▁newValue",
        -10.216811180114746
      ],
      [
        "▁active",
        -10.217485427856444
      ],
      [
        "-1",
        -10.21851921081543
      ],
      [
        "fields",
        -10.219215393066406
      ],
      [
        "▁exec",
        -10.219758987426758
      ],
      [
        "▁chunk",
        -10.220087051391602
      ],
      [
        "Mask",
        -10.220319747924805
      ],
      [
        "▁DEFAULT",
        -10.221301078796388
      ],
      [
        "merge",
        -10.221467971801758
      ],
      [
        "Sample",
        -10.221567153930664
      ],
      [
        "OS",
        -10.222002983093262
      ],
      [
        "bind",
        -10.222787857055664
      ],
      [
        "impl",
        -10.223613739013672
      ],
      [
        "▁self",
        -10.22398281097412
      ],
      [
        "，",
        -10.224162101745604
      ],
      [
        "Available",
        -10.224410057067873
      ],
      [
        "FileSystem",
        -10.224663734436035
      ],
      [
        "▁encode",
        -10.224811553955078
      ],
      [
        "ant",
        -10.22555446624756
      ],
      [
        "Visible",
        -10.225910186767578
      ],
      [
        "HEADER",
        -10.22808837890625
      ],
      [
        "condition",
        -10.229940414428713
      ],
      [
        "EL",
        -10.230108261108398
      ],
      [
        "Weight",
        -10.230483055114746
      ],
      [
        "Flags",
        -10.2318754196167
      ],
      [
        "▁groupId",
        -10.23315715789795
      ],
      [
        "LE",
        -10.233600616455078
      ],
      [
        "\"),",
        -10.233684539794922
      ],
      [
        "by",
        -10.234089851379396
      ],
      [
        "tokens",
        -10.234384536743164
      ],
      [
        "▁counter",
        -10.234829902648926
      ],
      [
        "Packet",
        -10.23597812652588
      ],
      [
        "getService",
        -10.238210678100586
      ],
      [
        "DAY",
        -10.2390718460083
      ],
      [
        "NODE",
        -10.23990249633789
      ],
      [
        "<?,",
        -10.24038028717041
      ],
      [
        "Site",
        -10.240467071533203
      ],
      [
        "21",
        -10.240764617919922
      ],
      [
        "▁color",
        -10.241220474243164
      ],
      [
        "TimeZone",
        -10.241670608520508
      ],
      [
        "addBody",
        -10.242361068725586
      ],
      [
        "▁attr",
        -10.243600845336914
      ],
      [
        "Follow",
        -10.243918418884276
      ],
      [
        "Deployment",
        -10.24393081665039
      ],
      [
        "▁meta",
        -10.244389533996582
      ],
      [
        "Bit",
        -10.244569778442385
      ],
      [
        "▁Function",
        -10.245206832885742
      ],
      [
        "0)",
        -10.245269775390623
      ],
      [
        "save",
        -10.245772361755373
      ],
      [
        "▁Calendar",
        -10.246831893920898
      ],
      [
        "▁our",
        -10.247224807739258
      ],
      [
        "▁DateTime",
        -10.24734115600586
      ],
      [
        "Use",
        -10.248208999633787
      ],
      [
        "▁StringUtils",
        -10.248990058898926
      ],
      [
        "ME",
        -10.249677658081056
      ],
      [
        "DataType",
        -10.25
      ],
      [
        "▁folder",
        -10.250044822692873
      ],
      [
        "found",
        -10.25058364868164
      ],
      [
        "Const",
        -10.250873565673828
      ],
      [
        "▁render",
        -10.250990867614746
      ],
      [
        "wrap",
        -10.251276016235352
      ],
      [
        "▁html",
        -10.251299858093262
      ],
      [
        "Zone",
        -10.25178050994873
      ],
      [
        "▁decode",
        -10.252026557922363
      ],
      [
        "Master",
        -10.252236366271973
      ],
      [
        "▁over",
        -10.252608299255373
      ],
      [
        "▁my",
        -10.254705429077148
      ],
      [
        "▁happen",
        -10.25517463684082
      ],
      [
        "Bind",
        -10.25522518157959
      ],
      [
        "▁filename",
        -10.25528335571289
      ],
      [
        "▁form",
        -10.255507469177246
      ],
      [
        "MS",
        -10.255544662475586
      ],
      [
        "▁condition",
        -10.255699157714844
      ],
      [
        "subscriptionId",
        -10.25657844543457
      ],
      [
        "currentThread",
        -10.256919860839844
      ],
      [
        "getLength",
        -10.257391929626465
      ],
      [
        "device",
        -10.257608413696287
      ],
      [
        "callback",
        -10.25777816772461
      ],
      [
        "Gen",
        -10.25952434539795
      ],
      [
        "ul",
        -10.259528160095217
      ],
      [
        "▁namespace",
        -10.259777069091797
      ],
      [
        "▁calculate",
        -10.26109218597412
      ],
      [
        "subscribe",
        -10.2616605758667
      ],
      [
        "[]>",
        -10.262161254882812
      ],
      [
        "pt",
        -10.262533187866213
      ],
      [
        "GROUP",
        -10.263134956359863
      ],
      [
        "▁sum",
        -10.263216018676758
      ],
      [
        "▁\"\\",
        -10.263555526733398
      ],
      [
        "Stage",
        -10.26409149169922
      ],
      [
        "distance",
        -10.264265060424805
      ],
      [
        "fileName",
        -10.264507293701172
      ],
      [
        "▁Character",
        -10.264752388000488
      ],
      [
        "▁cached",
        -10.264840126037598
      ],
      [
        ">>()",
        -10.26487159729004
      ],
      [
        "Cert",
        -10.265767097473145
      ],
      [
        "per",
        -10.265798568725586
      ],
      [
        "Conversion",
        -10.26618766784668
      ],
      [
        "▁[{}]",
        -10.267196655273438
      ],
      [
        "Exists",
        -10.267641067504885
      ],
      [
        "Separator",
        -10.26771068572998
      ],
      [
        "getConnection",
        -10.267807960510254
      ],
      [
        "ROOT",
        -10.268165588378906
      ],
      [
        "Assignment",
        -10.268177032470703
      ],
      [
        "ping",
        -10.269041061401367
      ],
      [
        "Tab",
        -10.269957542419434
      ],
      [
        "MODE",
        -10.271000862121582
      ],
      [
        "▁registry",
        -10.271872520446776
      ],
      [
        "prop",
        -10.272927284240724
      ],
      [
        "enable",
        -10.273066520690918
      ],
      [
        "se",
        -10.273350715637209
      ],
      [
        "FS",
        -10.273429870605469
      ],
      [
        "Upload",
        -10.273457527160645
      ],
      [
        "Schedule",
        -10.273517608642578
      ],
      [
        "getSource",
        -10.274213790893556
      ],
      [
        "getContent",
        -10.274250030517578
      ],
      [
        "rv",
        -10.274752616882324
      ],
      [
        "CPDefinition",
        -10.275161743164062
      ],
      [
        "Children",
        -10.275758743286133
      ],
      [
        "▁convertTo",
        -10.27626609802246
      ],
      [
        "的",
        -10.276375770568848
      ],
      [
        "toUpperCase",
        -10.276378631591797
      ],
      [
        "▁var",
        -10.276378631591797
      ],
      [
        "isDirectory",
        -10.276541709899902
      ],
      [
        "Expressions",
        -10.277141571044922
      ],
      [
        "▁classes",
        -10.277454376220703
      ],
      [
        "newValue",
        -10.278096199035645
      ],
      [
        "POS",
        -10.27847385406494
      ],
      [
        "Owner",
        -10.27962589263916
      ],
      [
        "Random",
        -10.280412673950195
      ],
      [
        "Expected",
        -10.280601501464844
      ],
      [
        "Setting",
        -10.281290054321287
      ],
      [
        "▁Repository",
        -10.281332969665527
      ],
      [
        "EventListener",
        -10.281496047973633
      ],
      [
        "▁word",
        -10.281928062438965
      ],
      [
        "ErrorCode",
        -10.282045364379885
      ],
      [
        "▁its",
        -10.282452583312988
      ],
      [
        "▁through",
        -10.283404350280762
      ],
      [
        "Geo",
        -10.284435272216797
      ],
      [
        "▁fs",
        -10.284701347351074
      ],
      [
        "HashMap",
        -10.2848482131958
      ],
      [
        "EDEFAULT",
        -10.286188125610352
      ],
      [
        "Complete",
        -10.28655242919922
      ],
      [
        "▁retval",
        -10.286964416503906
      ],
      [
        ">\");",
        -10.287592887878418
      ],
      [
        "getHeight",
        -10.28815460205078
      ],
      [
        "getStatus",
        -10.288278579711914
      ],
      [
        "RESOURCE",
        -10.288352012634276
      ],
      [
        "pre",
        -10.288434982299805
      ],
      [
        "Dynamic",
        -10.288822174072266
      ],
      [
        "▁Json",
        -10.289217948913574
      ],
      [
        "Renderer",
        -10.289280891418455
      ],
      [
        "cas",
        -10.291459083557127
      ],
      [
        "ize",
        -10.291661262512209
      ],
      [
        "rt",
        -10.292911529541016
      ],
      [
        "509",
        -10.29339599609375
      ],
      [
        "▁plugin",
        -10.293756484985352
      ],
      [
        "Native",
        -10.295260429382324
      ],
      [
        "Association",
        -10.29619026184082
      ],
      [
        "getCause",
        -10.29640769958496
      ],
      [
        "▁env",
        -10.29644012451172
      ],
      [
        "▁character",
        -10.296798706054688
      ],
      [
        "▁member",
        -10.297163963317873
      ],
      [
        "Axis",
        -10.297247886657717
      ],
      [
        "Modifier",
        -10.297436714172363
      ],
      [
        "co",
        -10.297715187072754
      ],
      [
        "previous",
        -10.2979736328125
      ],
      [
        "Features",
        -10.298076629638672
      ],
      [
        "formatter",
        -10.29817008972168
      ],
      [
        "▁Interrupted",
        -10.298664093017578
      ],
      [
        "Export",
        -10.299864768981934
      ],
      [
        "[0]);",
        -10.300599098205566
      ],
      [
        "[0].",
        -10.30062770843506
      ],
      [
        "Backup",
        -10.301451683044434
      ],
      [
        "Slot",
        -10.301657676696776
      ],
      [
        "▁two",
        -10.301772117614746
      ],
      [
        "auth",
        -10.301854133605955
      ],
      [
        "▁tile",
        -10.301884651184082
      ],
      [
        "ok",
        -10.30191421508789
      ],
      [
        "Has",
        -10.302133560180664
      ],
      [
        "Login",
        -10.302284240722656
      ],
      [
        "Seq",
        -10.302621841430664
      ],
      [
        "Editor",
        -10.302704811096191
      ],
      [
        "module",
        -10.303061485290527
      ],
      [
        "▁\"\"",
        -10.30361557006836
      ],
      [
        "STATE",
        -10.305654525756836
      ],
      [
        "Envelope",
        -10.305669784545898
      ],
      [
        "OBJECT",
        -10.305669784545898
      ],
      [
        "Interceptor",
        -10.306004524230955
      ],
      [
        "SC",
        -10.306017875671388
      ],
      [
        "TypeName",
        -10.306197166442873
      ],
      [
        "props",
        -10.306625366210938
      ],
      [
        "▁tags",
        -10.307129859924316
      ],
      [
        "domain",
        -10.307476043701172
      ],
      [
        "ResourceBundle",
        -10.308469772338867
      ],
      [
        "Escape",
        -10.308631896972656
      ],
      [
        "▁verify",
        -10.308897972106934
      ],
      [
        "INVALID",
        -10.309890747070312
      ],
      [
        "Back",
        -10.310067176818848
      ],
      [
        "Diff",
        -10.310113906860352
      ],
      [
        "Parse",
        -10.31014919281006
      ],
      [
        "quote",
        -10.31038761138916
      ],
      [
        "Pass",
        -10.310582160949709
      ],
      [
        "▁topic",
        -10.311473846435549
      ],
      [
        "▁push",
        -10.312211990356444
      ],
      [
        "apache",
        -10.314197540283203
      ],
      [
        "▁control",
        -10.314326286315918
      ],
      [
        "elements",
        -10.31523609161377
      ],
      [
        "ARN",
        -10.315634727478027
      ],
      [
        "▁package",
        -10.315935134887695
      ],
      [
        "An",
        -10.31679916381836
      ],
      [
        "▁\".\"",
        -10.317179679870604
      ],
      [
        "Created",
        -10.318256378173828
      ],
      [
        "just",
        -10.318260192871094
      ],
      [
        "▁support",
        -10.31844711303711
      ],
      [
        "ibm",
        -10.318530082702637
      ],
      [
        "▁con",
        -10.319478034973145
      ],
      [
        "▁0.0",
        -10.319791793823242
      ],
      [
        "Scan",
        -10.32007884979248
      ],
      [
        "bar",
        -10.320246696472168
      ],
      [
        "▁cls",
        -10.32063102722168
      ],
      [
        "na",
        -10.320929527282717
      ],
      [
        "ParseException",
        -10.321054458618164
      ],
      [
        "Top",
        -10.321386337280272
      ],
      [
        "Proto",
        -10.32208251953125
      ],
      [
        "show",
        -10.322968482971191
      ],
      [
        "isValid",
        -10.323253631591797
      ],
      [
        "▁want",
        -10.323324203491213
      ],
      [
        "60",
        -10.323648452758787
      ],
      [
        "COUNT",
        -10.3270263671875
      ],
      [
        "▁delta",
        -10.327446937561035
      ],
      [
        "can",
        -10.327471733093262
      ],
      [
        "▁>>>",
        -10.327616691589355
      ],
      [
        "▁fail",
        -10.327917098999023
      ],
      [
        "▁invoke",
        -10.327975273132324
      ],
      [
        "Chars",
        -10.328067779541016
      ],
      [
        "bundle",
        -10.328383445739746
      ],
      [
        "▁bit",
        -10.328734397888184
      ],
      [
        "round",
        -10.329710006713867
      ],
      [
        "▁selected",
        -10.330121994018556
      ],
      [
        "Merge",
        -10.330147743225098
      ],
      [
        "MediaType",
        -10.33059024810791
      ],
      [
        "Allowed",
        -10.331135749816896
      ],
      [
        "MONTH",
        -10.331478118896484
      ],
      [
        "Collectors",
        -10.33155345916748
      ],
      [
        "▁executor",
        -10.331670761108398
      ],
      [
        "SinglePage",
        -10.332001686096191
      ],
      [
        "TEXT",
        -10.33206558227539
      ],
      [
        "OP",
        -10.33218765258789
      ],
      [
        "dm",
        -10.33260726928711
      ],
      [
        "release",
        -10.33283233642578
      ],
      [
        "original",
        -10.33362865447998
      ],
      [
        "groupId",
        -10.333966255187988
      ],
      [
        "ra",
        -10.334418296813965
      ],
      [
        "ENTITY",
        -10.33476734161377
      ],
      [
        "▁XML",
        -10.33536148071289
      ],
      [
        "▁initial",
        -10.335841178894045
      ],
      [
        "EVENT",
        -10.335844993591309
      ],
      [
        "▁scan",
        -10.336980819702148
      ],
      [
        "▁listeners",
        -10.337347030639648
      ],
      [
        "random",
        -10.33762264251709
      ],
      [
        "continue",
        -10.338120460510254
      ],
      [
        "▁go",
        -10.338690757751465
      ],
      [
        "CmsObject",
        -10.338876724243164
      ],
      [
        "FileOutputStream",
        -10.33892822265625
      ],
      [
        "Full",
        -10.339041709899902
      ],
      [
        "flow",
        -10.33919906616211
      ],
      [
        "Cipher",
        -10.340229034423828
      ],
      [
        "Example",
        -10.340229988098145
      ],
      [
        "Loop",
        -10.34023666381836
      ],
      [
        "Marker",
        -10.341211318969728
      ],
      [
        "▁Ovh",
        -10.3416748046875
      ],
      [
        "Direct",
        -10.341961860656738
      ],
      [
        "▁title",
        -10.342086791992188
      ],
      [
        "Render",
        -10.34308624267578
      ],
      [
        "Tasks",
        -10.343378067016602
      ],
      [
        "il",
        -10.343571662902832
      ],
      [
        "getFile",
        -10.34520149230957
      ],
      [
        "Ok",
        -10.346291542053224
      ],
      [
        "getSession",
        -10.346487045288086
      ],
      [
        "▁visit",
        -10.346516609191896
      ],
      [
        "Raw",
        -10.347122192382812
      ],
      [
        "NaN",
        -10.34913730621338
      ],
      [
        "getEntity",
        -10.350212097167969
      ],
      [
        "pair",
        -10.351430892944336
      ],
      [
        "setText",
        -10.352097511291504
      ],
      [
        "checkNotNull",
        -10.353557586669922
      ],
      [
        "commit",
        -10.353867530822754
      ],
      [
        "▁cal",
        -10.354255676269531
      ],
      [
        "Pointer",
        -10.355554580688477
      ],
      [
        "NoSuch",
        -10.35694408416748
      ],
      [
        "▁storage",
        -10.35740566253662
      ],
      [
        "\"+",
        -10.357959747314451
      ],
      [
        "hi",
        -10.35825252532959
      ],
      [
        "▁changed",
        -10.359061241149902
      ],
      [
        "Basic",
        -10.35936164855957
      ],
      [
        "ling",
        -10.359865188598633
      ],
      [
        "▁full",
        -10.360029220581056
      ],
      [
        "tz",
        -10.361021995544434
      ],
      [
        "Hex",
        -10.361448287963867
      ],
      [
        "getLogger",
        -10.361610412597656
      ],
      [
        "▁rows",
        -10.3621826171875
      ],
      [
        "ity",
        -10.36227321624756
      ],
      [
        "(0).",
        -10.362287521362305
      ],
      [
        "Parts",
        -10.36318302154541
      ],
      [
        "▁alt",
        -10.363598823547363
      ],
      [
        "Literal",
        -10.363797187805176
      ],
      [
        "Callable",
        -10.36380672454834
      ],
      [
        "EEnum",
        -10.364343643188477
      ],
      [
        "Validate",
        -10.364745140075684
      ],
      [
        "getState",
        -10.365649223327637
      ],
      [
        "▁them",
        -10.365843772888184
      ],
      [
        "Management",
        -10.366670608520508
      ],
      [
        "ck",
        -10.367525100708008
      ],
      [
        "▁called",
        -10.368062019348145
      ],
      [
        "mi",
        -10.368570327758787
      ],
      [
        "cursor",
        -10.368962287902832
      ],
      [
        "▁sort",
        -10.369032859802246
      ],
      [
        "▁consumer",
        -10.369274139404297
      ],
      [
        "getTarget",
        -10.36947250366211
      ],
      [
        "▁interval",
        -10.36951732635498
      ],
      [
        "HTML",
        -10.370402336120604
      ],
      [
        "ARRAY",
        -10.371482849121094
      ],
      [
        "Delta",
        -10.371482849121094
      ],
      [
        "INDEX",
        -10.371482849121094
      ],
      [
        "batch",
        -10.373197555541992
      ],
      [
        "▁trigger",
        -10.373491287231444
      ],
      [
        "provider",
        -10.373739242553713
      ],
      [
        "▁op",
        -10.374700546264648
      ],
      [
        "ut",
        -10.374879837036133
      ],
      [
        "endpoint",
        -10.375173568725586
      ],
      [
        "getP",
        -10.37535285949707
      ],
      [
        "Statistics",
        -10.375469207763672
      ],
      [
        "='",
        -10.375510215759276
      ],
      [
        "Wait",
        -10.375676155090332
      ],
      [
        "consume",
        -10.375797271728516
      ],
      [
        "▁graph",
        -10.375800132751465
      ],
      [
        "Debug",
        -10.375858306884766
      ],
      [
        "getBundle",
        -10.376705169677734
      ],
      [
        "Sum",
        -10.377750396728516
      ],
      [
        "Js",
        -10.378939628601074
      ],
      [
        "▁ioe",
        -10.378992080688477
      ],
      [
        "▁parts",
        -10.379465103149414
      ],
      [
        "BASE",
        -10.379972457885742
      ],
      [
        "Delay",
        -10.380558013916016
      ],
      [
        "Animation",
        -10.380609512329102
      ],
      [
        "▁wait",
        -10.38096046447754
      ],
      [
        "top",
        -10.38349723815918
      ],
      [
        "names",
        -10.38441276550293
      ],
      [
        "Services",
        -10.384920120239258
      ],
      [
        "DEBUG",
        -10.385184288024902
      ],
      [
        "ag",
        -10.385729789733888
      ],
      [
        "▁duration",
        -10.386226654052734
      ],
      [
        "▁endpoint",
        -10.38677215576172
      ],
      [
        "Begin",
        -10.38784885406494
      ],
      [
        "Codec",
        -10.388429641723633
      ],
      [
        "readLine",
        -10.388985633850098
      ],
      [
        "self",
        -10.389688491821287
      ],
      [
        "LINE",
        -10.389771461486816
      ],
      [
        "lat",
        -10.39268398284912
      ],
      [
        "▁doesn",
        -10.392695426940918
      ],
      [
        "Register",
        -10.392704010009766
      ],
      [
        "40",
        -10.392733573913574
      ],
      [
        "▁needed",
        -10.393030166625977
      ],
      [
        "where",
        -10.393067359924316
      ],
      [
        "pr",
        -10.39411735534668
      ],
      [
        "▁contain",
        -10.394182205200195
      ],
      [
        "ting",
        -10.394204139709473
      ],
      [
        "Commit",
        -10.39423656463623
      ],
      [
        "CONTENT",
        -10.39441967010498
      ],
      [
        "ResultSet",
        -10.394489288330078
      ],
      [
        "▁1];",
        -10.395149230957031
      ],
      [
        "▁repository",
        -10.39529514312744
      ],
      [
        "▁fetch",
        -10.396391868591309
      ],
      [
        "getFirst",
        -10.396405220031738
      ],
      [
        "▁dependency",
        -10.396568298339844
      ],
      [
        "submit",
        -10.397509574890137
      ],
      [
        "copyOf",
        -10.400015830993652
      ],
      [
        "▁ns",
        -10.400607109069824
      ],
      [
        "▁indent",
        -10.400787353515623
      ],
      [
        "extension",
        -10.400934219360352
      ],
      [
        "<?>)",
        -10.40126132965088
      ],
      [
        "It",
        -10.401633262634276
      ],
      [
        "▁propertyName",
        -10.40272331237793
      ],
      [
        "scroll",
        -10.402769088745115
      ],
      [
        "ATTRIBUTE",
        -10.402796745300291
      ],
      [
        "▁tx",
        -10.403155326843262
      ],
      [
        "factory",
        -10.40394115447998
      ],
      [
        "Finder",
        -10.404211044311523
      ],
      [
        "ci",
        -10.404718399047852
      ],
      [
        "(1,",
        -10.404860496520996
      ],
      [
        "database",
        -10.404925346374512
      ],
      [
        "EN",
        -10.405683517456056
      ],
      [
        "ui",
        -10.406774520874023
      ],
      [
        "stack",
        -10.406790733337402
      ],
      [
        "ne",
        -10.406807899475098
      ],
      [
        "pop",
        -10.407193183898926
      ],
      [
        "▁formatter",
        -10.407634735107422
      ],
      [
        "Pipe",
        -10.408284187316896
      ],
      [
        "▁edge",
        -10.408830642700195
      ],
      [
        "exec",
        -10.40895652770996
      ],
      [
        "(\"%",
        -10.409123420715332
      ],
      [
        "PER",
        -10.409162521362305
      ],
      [
        "HttpClient",
        -10.409274101257324
      ],
      [
        "ring",
        -10.40987491607666
      ],
      [
        "stats",
        -10.410271644592283
      ],
      [
        "▁solution",
        -10.41116428375244
      ],
      [
        "mapping",
        -10.411775588989258
      ],
      [
        "▁removed",
        -10.41200065612793
      ],
      [
        "protected",
        -10.412171363830566
      ],
      [
        "▁Runnable",
        -10.412863731384276
      ],
      [
        "METHOD",
        -10.413118362426758
      ],
      [
        "Depth",
        -10.413199424743652
      ],
      [
        "Reply",
        -10.413216590881348
      ],
      [
        "Disk",
        -10.413528442382812
      ],
      [
        "getRecord",
        -10.413585662841797
      ],
      [
        "▁term",
        -10.414742469787598
      ],
      [
        "▁No",
        -10.415014266967772
      ],
      [
        "ers",
        -10.415822982788086
      ],
      [
        "fe",
        -10.415996551513672
      ],
      [
        "ServiceCallback",
        -10.41609001159668
      ],
      [
        "CR",
        -10.416812896728516
      ],
      [
        "Assert",
        -10.417007446289062
      ],
      [
        "fieldName",
        -10.417399406433104
      ],
      [
        "==0",
        -10.417518615722656
      ],
      [
        "remote",
        -10.417588233947754
      ],
      [
        "▁never",
        -10.418079376220703
      ],
      [
        "ther",
        -10.418930053710938
      ],
      [
        "▁socket",
        -10.420734405517578
      ],
      [
        "▁flags",
        -10.420948028564451
      ],
      [
        "Ip",
        -10.421399116516112
      ],
      [
        "tx",
        -10.421635627746582
      ],
      [
        "Secret",
        -10.421649932861328
      ],
      [
        "ACTION",
        -10.422253608703612
      ],
      [
        "LONG",
        -10.422656059265137
      ],
      [
        "=\\\"",
        -10.422749519348145
      ],
      [
        "Closed",
        -10.423382759094238
      ],
      [
        "ta",
        -10.425104141235352
      ],
      [
        "cmd",
        -10.425557136535645
      ],
      [
        "reparedStatement",
        -10.425917625427246
      ],
      [
        "getApplication",
        -10.426390647888184
      ],
      [
        "Clause",
        -10.426665306091309
      ],
      [
        "▁tr",
        -10.42678165435791
      ],
      [
        "▁execution",
        -10.42678451538086
      ],
      [
        "Drawable",
        -10.426830291748049
      ],
      [
        "DELETE",
        -10.426835060119627
      ],
      [
        "▁import",
        -10.42689037322998
      ],
      [
        "destroy",
        -10.42744255065918
      ],
      [
        "peek",
        -10.427443504333496
      ],
      [
        "▁avoid",
        -10.427743911743164
      ],
      [
        "ri",
        -10.428281784057615
      ],
      [
        "proxy",
        -10.428362846374512
      ],
      [
        "arr",
        -10.42873764038086
      ],
      [
        "Cached",
        -10.428894996643066
      ],
      [
        "IR",
        -10.429032325744627
      ],
      [
        "Retry",
        -10.42934799194336
      ],
      [
        "Issue",
        -10.430097579956056
      ],
      [
        "part",
        -10.43051052093506
      ],
      [
        "▁zero",
        -10.43057346343994
      ],
      [
        "▁move",
        -10.430747985839844
      ],
      [
        "Success",
        -10.430956840515137
      ],
      [
        "Visitor",
        -10.431018829345703
      ],
      [
        "Boundary",
        -10.431507110595703
      ],
      [
        "loc",
        -10.431817054748535
      ],
      [
        "▁Locale",
        -10.432626724243164
      ],
      [
        "▁single",
        -10.434810638427734
      ],
      [
        "cd",
        -10.435084342956545
      ],
      [
        "ie",
        -10.435200691223145
      ],
      [
        "▁attempt",
        -10.435901641845703
      ],
      [
        "▁signature",
        -10.435933113098145
      ],
      [
        "Send",
        -10.436153411865234
      ],
      [
        "direct",
        -10.436223030090332
      ],
      [
        "▁pass",
        -10.43645191192627
      ],
      [
        "St",
        -10.436944007873535
      ],
      [
        "NS",
        -10.43798828125
      ],
      [
        "bb",
        -10.43807601928711
      ],
      [
        "23",
        -10.438688278198242
      ],
      [
        "\":",
        -10.43924617767334
      ],
      [
        "▁always",
        -10.43925952911377
      ],
      [
        "alias",
        -10.439337730407717
      ],
      [
        "AT",
        -10.43936824798584
      ],
      [
        "cc",
        -10.439656257629396
      ],
      [
        "▁iv",
        -10.4407320022583
      ],
      [
        "Audit",
        -10.4409818649292
      ],
      [
        "▁FileInputStream",
        -10.441327095031738
      ],
      [
        "▁custom",
        -10.441579818725586
      ],
      [
        "SEPARATOR",
        -10.441933631896973
      ],
      [
        "Tango",
        -10.441936492919922
      ],
      [
        "▁running",
        -10.442523002624512
      ],
      [
        "▁calendar",
        -10.443364143371582
      ],
      [
        "▁comment",
        -10.444209098815918
      ],
      [
        "system",
        -10.444324493408203
      ],
      [
        "0);",
        -10.444402694702148
      ],
      [
        "▁retry",
        -10.444783210754396
      ],
      [
        "▁exists",
        -10.44523811340332
      ],
      [
        "Total",
        -10.44541358947754
      ],
      [
        "access",
        -10.4454927444458
      ],
      [
        "USE",
        -10.446048736572266
      ],
      [
        "graph",
        -10.44652271270752
      ],
      [
        "Sheet",
        -10.446812629699709
      ],
      [
        "sleep",
        -10.446812629699709
      ],
      [
        "WIDTH",
        -10.446813583374023
      ],
      [
        "ls",
        -10.446999549865724
      ],
      [
        "▁lookup",
        -10.447860717773438
      ],
      [
        "real",
        -10.448640823364258
      ],
      [
        "▁mask",
        -10.449432373046877
      ],
      [
        "Rows",
        -10.44968032836914
      ],
      [
        "▁prepare",
        -10.44987678527832
      ],
      [
        "▁timestamp",
        -10.450055122375488
      ],
      [
        "Accessor",
        -10.450762748718262
      ],
      [
        "Replace",
        -10.451778411865234
      ],
      [
        "▁see",
        -10.451823234558104
      ],
      [
        "Ad",
        -10.452280044555664
      ],
      [
        "Fast",
        -10.452531814575195
      ],
      [
        "ds",
        -10.45356559753418
      ],
      [
        "▁tableName",
        -10.45361328125
      ],
      [
        "Rel",
        -10.453649520874023
      ],
      [
        "Collections",
        -10.453975677490234
      ],
      [
        "ty",
        -10.454251289367676
      ],
      [
        "▁points",
        -10.454510688781738
      ],
      [
        "web",
        -10.45497989654541
      ],
      [
        "change",
        -10.455305099487305
      ],
      [
        "▁M",
        -10.455727577209473
      ],
      [
        "Seconds",
        -10.456231117248535
      ],
      [
        "items",
        -10.45663356781006
      ],
      [
        "MBean",
        -10.45781421661377
      ],
      [
        "feature",
        -10.4581880569458
      ],
      [
        "▁down",
        -10.458264350891112
      ],
      [
        "IC",
        -10.458382606506348
      ],
      [
        "df",
        -10.458588600158691
      ],
      [
        "ReturnType",
        -10.459284782409668
      ],
      [
        "ho",
        -10.459510803222656
      ],
      [
        "toByteArray",
        -10.460118293762209
      ],
      [
        "Tx",
        -10.46094799041748
      ],
      [
        "Infos",
        -10.461325645446776
      ],
      [
        "edge",
        -10.461484909057615
      ],
      [
        "Home",
        -10.46157455444336
      ],
      [
        "isLoggable",
        -10.461590766906738
      ],
      [
        "mark",
        -10.461688995361328
      ],
      [
        "processException",
        -10.461822509765623
      ],
      [
        "initialize",
        -10.462087631225586
      ],
      [
        "opt",
        -10.462505340576172
      ],
      [
        "▁transport",
        -10.46270751953125
      ],
      [
        "▁nextPageLink",
        -10.463037490844728
      ],
      [
        "payload",
        -10.463043212890623
      ],
      [
        "day",
        -10.46323013305664
      ],
      [
        "thread",
        -10.463868141174316
      ],
      [
        "isPresent",
        -10.464001655578612
      ],
      [
        "▁perform",
        -10.46517848968506
      ],
      [
        "▁weight",
        -10.465598106384276
      ],
      [
        "Zero",
        -10.466513633728027
      ],
      [
        "ob",
        -10.466524124145508
      ],
      [
        "Connector",
        -10.46653175354004
      ],
      [
        "idBagConstraints",
        -10.46657943725586
      ],
      [
        "casFeat",
        -10.466586112976074
      ],
      [
        "isTraceOn",
        -10.46663761138916
      ],
      [
        "et",
        -10.467143058776855
      ],
      [
        "▁checkNotNull",
        -10.467573165893556
      ],
      [
        "dn",
        -10.467865943908691
      ],
      [
        "CA",
        -10.468583106994627
      ],
      [
        "Scroll",
        -10.468650817871094
      ],
      [
        "synchronized",
        -10.468711853027344
      ],
      [
        "▁ds",
        -10.468839645385742
      ],
      [
        "PI",
        -10.46930980682373
      ],
      [
        "▁Point",
        -10.469653129577637
      ],
      [
        "/\"",
        -10.470989227294922
      ],
      [
        "▁BufferedReader",
        -10.471071243286133
      ],
      [
        "gauge",
        -10.471567153930664
      ],
      [
        "SSL",
        -10.47187042236328
      ],
      [
        "ssl",
        -10.47217082977295
      ],
      [
        "▁lines",
        -10.472488403320312
      ],
      [
        "toList",
        -10.472816467285156
      ],
      [
        "▁bucket",
        -10.473125457763672
      ],
      [
        "▁join",
        -10.473878860473633
      ],
      [
        "Errors",
        -10.47412395477295
      ],
      [
        "▁owner",
        -10.474370956420898
      ],
      [
        "step",
        -10.474538803100586
      ],
      [
        "▁bits",
        -10.47475528717041
      ],
      [
        "Email",
        -10.474766731262209
      ],
      [
        "poll",
        -10.475899696350098
      ],
      [
        "DE",
        -10.476021766662598
      ],
      [
        "Head",
        -10.476133346557615
      ],
      [
        "Elem",
        -10.476397514343262
      ],
      [
        "PATTERN",
        -10.476591110229492
      ],
      [
        "TRUE",
        -10.476592063903809
      ],
      [
        "mo",
        -10.476963996887209
      ],
      [
        "relation",
        -10.476987838745115
      ],
      [
        "ized",
        -10.477041244506836
      ],
      [
        "▁identifier",
        -10.47816276550293
      ],
      [
        "EntityManager",
        -10.478253364562988
      ],
      [
        "▁ApiException",
        -10.47858428955078
      ],
      [
        "▁escape",
        -10.479047775268556
      ],
      [
        "profile",
        -10.47920036315918
      ],
      [
        "Connect",
        -10.479583740234377
      ],
      [
        "Extensions",
        -10.479747772216797
      ],
      [
        "Permissions",
        -10.479830741882324
      ],
      [
        "getIndex",
        -10.479857444763184
      ],
      [
        "BigDecimal",
        -10.480094909667969
      ],
      [
        "propertyName",
        -10.481003761291504
      ],
      [
        "▁defined",
        -10.481428146362305
      ],
      [
        "om",
        -10.48147201538086
      ],
      [
        "Delivery",
        -10.481722831726074
      ],
      [
        "3:",
        -10.48337173461914
      ],
      [
        "▁OpenCms",
        -10.48360538482666
      ],
      [
        "filtered",
        -10.483628273010254
      ],
      [
        "Without",
        -10.484453201293944
      ],
      [
        "Accept",
        -10.48558235168457
      ],
      [
        "lookup",
        -10.485713005065918
      ],
      [
        "now",
        -10.485855102539062
      ],
      [
        "[1];",
        -10.486217498779297
      ],
      [
        "▁nothing",
        -10.486723899841309
      ],
      [
        "Card",
        -10.486730575561523
      ],
      [
        "StringBundler",
        -10.486764907836914
      ],
      [
        "Rect",
        -10.487069129943848
      ],
      [
        "getTask",
        -10.48709201812744
      ],
      [
        "protocol",
        -10.487786293029783
      ],
      [
        "sh",
        -10.488125801086426
      ],
      [
        "ISO",
        -10.48823356628418
      ],
      [
        "render",
        -10.488433837890623
      ],
      [
        "▁'%",
        -10.489258766174316
      ],
      [
        "CE",
        -10.489643096923828
      ],
      [
        "AsString",
        -10.489656448364258
      ],
      [
        "200",
        -10.490100860595703
      ],
      [
        "50",
        -10.490474700927734
      ],
      [
        "▁clear",
        -10.490737915039062
      ],
      [
        "▁updated",
        -10.490826606750488
      ],
      [
        "ee",
        -10.491840362548828
      ],
      [
        "Lookup",
        -10.491844177246094
      ],
      [
[...]
